#version: 0.2
d e
e n
Ġ de
e s
Ġ l
c i
o s
Ġ p
Ġ c
e r
o n
Ġ a
. .
a r
a s
Ġ s
o r
Ġ e
a l
Ã ³
t i
a n
a d
Ġl a
en t
i n
r e
u e
Ã³ n
Ġ m
Ġ en
Ġ y
u n
a ci
Ġ Ċ
.. ..
q ue
Ġe l
d i
t r
Ġ es
Ġ que
Ã Ń
Ġc on
i c
t e
o m
i s
Ã ¡
t a
aci Ã³n
r o
i d
Ġs e
t o
Ġ 1
Ġ n
Ġ un
Ġ in
Ġ 2
Ġl os
Ġ f
Ġ E
Ġ C
Ġ o
Ġ re
Ġ h
d o
t u
e c
Ġde l
.... ....
o l
r es
Ã ©
Ġ A
Ġ v
a m
Ġl as
Ġ P
Ġp ar
a b
Ġc om
t er
i m
Ġ S
Ġs u
l e
ad o
ent e
u l
Ġp ro
ti v
Ġ L
Ġ di
Ġa l
Ġ D
Ġ M
ci Ã³n
r a
Ġp or
i l
Ġ t
0 0
on es
Ġ g
id ad
i g
Ġpar a
en ci
a c
i ent
i z
Ġ b
Ġ d
u c
ÃŃ a
Ġun a
l o
ti c
i o
Ġ 3
u s
t os
Ã ±
al es
Ġc u
Ġ tr
Ġ I
Ġ R
Ġ T
m p
Ġde s
c u
l a
t or
i a
Ġn o
........ ........
or m
Ġp er
ad a
q u
Ġ2 0
Ã º
Ġ 4
Ġe x
ic a
e l
Ġcom o
r i
d a
i ci
Ġa c
ad os
Ġ F
Ġm e
i t
Ġl o
a j
Ġa n
Ġ 0
i v
Ġ N
o ci
i b
enci a
de n
u r
Ġ B
ient o
Ġ res
u m
Ġ 5
i r
Ã¡ s
de s
o b
u es
Ġ G
i Ã³n
Ġp r
Ġcon s
c e
ĠE s
t es
d uc
t en
er a
m b
d ad
on al
f ic
id a
s e
m a
an te
Ġa p
g o
tr a
Ġ ent
Ġ ti
Ġo b
m o
Ġ20 1
an do
c h
t as
Ġcom p
ar i
aci ones
p er
Ġ V
c on
ĠE n
i en
al iz
de r
Ġ1 9
Ġ im
Ã¡ n
Ġs er
Ġ H
Ġ to
ic o
Ġ J
c a
p or
f er
ĠL a
Ġ -
Ġm a
c es
tr o
or es
Ġes ta
Ġ U
Ġ .
es ti
Ġ ci
Ġ O
g r
ĠE l
m in
Ġa s
Ġes t
Ġdi s
id o
Ġ r
i er
e g
er s
Ġ 6
j e
ent es
p o
Ġin ter
Ġp re
m ente
c o
Ġ te
i e
Ġsu s
ti n
ĠI n
a p
m ent
l ic
Ġm Ã¡s
Ġent re
tiv o
p e
ad as
tu di
f orm
2 0
Ġ j
t ar
Ġme di
ci a
en s
Ġp res
Ã© n
tiv a
d os
Ġm o
................ ................
Ġ2 00
Ġh a
ÃŃ s
l es
Ġ or
Ġm an
Ġp o
ob re
Ġg r
er o
p ec
tic a
Ġa r
m iento
Ġ 7
ig u
ĠD E
Ġ i
Ġp ue
p on
Ã© s
m os
ci ones
en er
z a
g u
Ġes te
c ul
c l
Ġes tudi
tu r
am ente
Ġf orm
ti tu
ab aj
t al
. ,
ci p
Ġde b
Ġ 8
ida des
l os
t an
Ġs obre
C I
ĠC on
Ġper s
l as
ar a
Ġs oci
Ġp os
Ã± o
tu ra
Ġin v
E S
g un
Ġ 9
o g
ar io
ÃŃ n
en e
b le
Ġs on
Ġs i
ro l
p a
l an
ter i
Ġtr abaj
p os
is te
Ġre l
u er
Ġc ar
Ġe mp
n o
Ġin s
Ġo f
Ġs in
f ec
Ġ qu
h e
u y
Ġc or
Ġc as
is mo
Ġ ta
- -
Ġtr a
Ãº n
ti l
al idad
ar rol
ent a
Ġ u
r en
Ġl e
m e
ĠU n
1 0
ad or
an tes
E N
Ġp a
E R
t ado
p res
v is
Ġpro p
esti g
ec es
mb i
Ġa u
Ġ1 0
tiv os
al u
ĠR e
i os
Ġe v
Ġre aliz
Ġ Ã¡
f ici
an a
tr os
ĠD e
Ġpro ces
Ã± os
Ġ do
g an
d as
e z
an s
il idad
b l
tic as
enci as
Ġh ab
er v
aci onal
g en
re c
Ġf un
O N
Ġdes arrol
i ones
t ados
ent o
Ġf in
Ġ us
Ġes c
om b
h o
Ġim p
A L
e mp
am iento
Ġcu al
Ġma y
m as
o c
ĠS e
m i
r as
tr uc
A R
Ġs ol
n a
Ã¡ l
Ã³ g
on a
Ġv al
O S
an to
an o
Ġpar ti
Ġpro duc
tic o
v e
Ġc am
Ġg ener
Ġa d
Ġre g
in g
iv el
ic as
Ġinv estig
is t
Ġa b
Ġpr im
cu r
g ar
ic os
ti on
Ġd a
Ġc ol
Ġ Y
al mente
ce p
iv ers
Ġc ap
Ġc a
Ġres ul
Ġin di
ari os
v en
f ica
ĠA n
Ġh ac
n i
Ġs ig
tor es
Ġcon tr
in a
t t
Ġn eces
ci on
ÃŃ as
Ġc re
g a
p ar
aj e
1 1
Ġin form
Ġpue de
A D
Ġdi fer
ab le
e t
ĠA l
A S
or a
Ã© r
ar on
Ġ ,
m an
Ġp ol
ĠC om
Ã ĵ
u b
Ġc o
d r
u ciÃ³n
I C
ue v
c om
iz aciÃ³n
Ġ19 9
ĠP or
tiv as
ĠN o
Ġn ivel
Ġpar te
1 9
j o
Ġtrabaj o
ul ar
ter min
j er
Ġn i
Ġ1 2
mbi Ã©n
Ġy a
ĠP ro
id os
is is
r an
Ġc l
Ġob je
O R
ient os
Ã¡ c
Ġform a
c n
Ġan d
ad ores
i de
t aciÃ³n
Ġmay or
Ġta mbiÃ©n
tt p
Ġcom un
in cip
i ciÃ³n
A N
Ġe duc
Ġ1 5
Ġ1 8
h a
i as
Ġc ada
Ġde ci
ol og
Ġtr ans
f es
Ġv er
e d
Ġt en
Ġd on
b a
1 2
ar ia
Ġt he
re ch
Ġe t
p ues
Ġim por
Ġm ar
aci on
ĠL os
Ġu til
Ã³ m
te g
Ġl le
Ġm is
Ġv ari
ien do
pe ci
en do
.. .
Ġb as
Ġd os
Ġac tiv
w w
00 0
Ġdes de
Ġinvestig aciÃ³n
on as
t ante
c ri
Ġs iste
y ec
de m
f in
Ġ X
Ġpr incip
Ġ1 1
Ġde n
Ġ1 3
am os
Ã¡l isis
Ġme j
Ġc r
ar se
Ãĵ N
Ġti ene
i to
pa Ã±
Ġemp res
Ġse g
Ġproces o
Ġ1 4
Ġf ue
2 1
tr as
ib le
en ti
v er
mp l
igu ra
Ġob s
e x
ĠM ar
Ġ K
c ar
s o
Ġman era
Ġdon de
l aciÃ³n
qu i
ĠA r
Ġh an
n os
Ġper o
Ġt anto
p ro
Ġn uev
Ġrel aciÃ³n
c an
Ã³ r
Ġpol ÃŃ
Ġdesarrol lo
Ġ W
Ġm en
Ġde rech
v ers
2 2
Ġ1 6
i der
Ġh ttp
ÃŃ cul
Ġas ÃŃ
Ġen cu
d u
Ġser v
Ġestudi o
c re
Ġa Ã±os
un to
Ġti emp
Ġc ul
Ġor gan
ÃŃ an
a y
ues tra
I S
Ġb ien
Ġp as
ti fic
Ġest Ã¡
i den
Ġap lic
e a
Ġcas o
ti s
Ã į
1 5
en di
i fic
da des
Ġ ter
Ġes p
am il
Ġutil iz
Ġ Ġ
am a
A CI
ab or
Ġe fec
r u
per i
e di
Ġv is
ol Ã³g
Ġ1 7
g os
Ġinform aciÃ³n
Ġes peci
Ġsoci al
i on
Ġcon f
Ġal gun
Ġp lan
min is
Ġm ismo
-- --
u en
ĠA s
z o
ent os
Ġf uer
b i
er r
Ġin f
ĠUn ivers
t re
1 3
l ar
Ġpro ble
T I
Ġl u
a g
Ġp Ãº
Ġ Ã©
cl us
Ġ Q
Ġdeb e
ab les
tur al
1 6
Ġde termin
ren di
Ġgr u
u al
Ġto do
r os
1 4
ici o
v i
Ġo tros
Ġa cu
ec u
Ġc os
er os
ar go
Ġsig ni
im iento
Ġgr an
Ġtiemp o
Ġf u
5 0
Ġn os
Ġcu ando
an ti
Ġcon oci
esti Ã³n
it al
Ġda tos
te c
alu d
di c
Ġre f
................................ ................................
Ġex p
1 8
Ġe con
Ġcons ider
ac ter
Ġper mi
o y
Ġes tos
ci onal
Ġl ib
t ad
Ġp l
Ġpres ent
Ġse c
Ġp ues
Ġv ida
tor ia
i ta
ab a
2 3
Ġ w
Ġh um
ĠL e
tic os
Ġpers onas
Ġpro yec
Ãº l
i ente
Ġs igu
as ta
Ġd ur
l u
al a
Ġmej or
1 7
Ġm uc
Ġm un
ient es
ĠL as
m ientos
Ġm u
Ġac tu
a v
Ġm uy
Ġsiste ma
Ġf ac
g res
R O
Ġti po
I N
Ġdi rec
pec to
ci o
ment o
Ġobs erv
Ġha y
Ġan Ã¡lisis
aci a
Ãº m
dem Ã¡s
Ġresul tados
ab la
to do
Ġla b
ĠC ar
Ġval or
Ġpro fes
Ġin te
ab ilidad
I D
v Ã©s
Ġ tu
Ġar t
Ġ ra
Ġi den
Ãºl ti
Ġn orm
s os
Ġf amil
E n
or d
Ġto dos
ar es
Ã ģ
e dad
E C
i p
Ġdo c
v o
u dad
Ġcon tra
an os
Ã© cn
s titu
T O
Ġel e
Ġparti cip
ti r
en en
Ġs enti
in o
Ġob ten
im a
Ġc ent
ue l
Ġmo de
Ġo p
v a
an za
Ġtra vÃ©s
Ġb aj
ĠD es
ment os
Ġ ri
Ġt om
e o
p re
j a
3 0
c ent
Ġre pres
Ġestudi antes
ĠS an
qu ier
ĠP ara
e b
Ġsu b
Ġsi tu
Ġv ez
Ġins titu
ĠC ol
i al
olog ÃŃa
ec ho
ĠC h
I I
Ġs im
Ġm i
Ġde fin
con tr
is ta
Ġc al
ta miento
er n
tan cia
Ġus o
Ġ2 5
2 4
Ġn a
Ġlu gar
Ġe mb
Ġcu enta
Ġo tro
Ġp e
2 5
Ġf r
ĠR es
t h
Ġse Ã±
Ġencu ent
Ġdifer entes
Ġes tra
E l
Ġcontr ol
Ġun o
Ġcon di
L a
Ġ3 0
ens iÃ³n
ĠUnivers idad
Ġev alu
er do
z ar
a tiva
Ġcon cep
Ġcar acter
Ġt al
gu a
Ġpr Ã¡c
er c
Ġpue den
Ġp ob
Ġh asta
ec e
g e
ic aciÃ³n
tr ib
p u
ĠI N
rendi z
g ÃŃa
Ġre cur
Ġdur ante
Ġmedi o
h os
Ġdi ch
que l
Ġ2 4
ac ciÃ³n
x to
re a
vis ta
Ġa mb
v id
teri or
Ġm Ã©
ici os
Ġest Ã¡n
Ġf or
Ġcam b
ul a
Ġsin o
du ci
d am
ÃŃ fic
de l
Ġcap aci
tor io
om in
c as
m Ã¡
Ġau tor
Ġpa ÃŃs
Ġpor que
ĠD is
Ġcomp le
Ġcon te
Ġdeci r
R A
c al
Ġa m
Ġres pon
ĠL A
Ġes to
Ġesp aci
Ġes tas
ar e
Ġa Ã±o
ĠP er
Ġ19 8
Ġhttp s
Ġcon tin
ĠIn ter
t on
c ol
Ã³ s
ar Ã¡
Ġseg Ãºn
l ig
Ġe je
Ġden tro
Ġecon Ã³m
Ġhac er
Ġs al
om o
Ġv e
ÃŃcul o
Ġ Ãºlti
Ġci udad
or al
Ġp es
ĠC u
Ġgener al
id as
Ġ Z
Ġre fer
Ġ2 3
Ġe m
Ġmu jer
ĠE x
e m
se Ã±
4 0
Ġ1 00
T E
ie mp
en a
Ġv ol
den cia
g ra
Ġes pec
T A
il l
us tr
Ġti enen
rendiz aje
Ġdis tin
Ġmedi ante
ci as
Ġa f
Ġv i
Ġpo der
6 0
v an
res pon
ci miento
Ġt ener
Ġpers onal
E s
Ġo tras
Ġs alud
Ġi de
u d
Ġn eg
Ġa quel
Ġcons titu
ci al
Ġen contr
Ġel lo
Ġn Ãºm
R E
aliz aciÃ³n
l ica
l am
ĠM a
Ġempres a
ta mente
Ġc las
Ġacu erdo
tiv idad
Ġc alidad
ĠpÃº bl
ĠC or
t s
Ġemp le
Ġap ro
Ġre con
u ir
Ġma teri
u ro
ten ciÃ³n
Ġex pres
i onal
Ã¡ g
Ġ z
Ġsigni fica
Ġl es
Ġactiv idades
Ġm uestra
ent al
u di
Ġl eg
Ġes truc
ti m
Ġhac e
Ġc ab
ĠT abla
c or
Ġpro gr
mb re
f o
Ġparti r
f i
ww w
Ġto tal
en o
ÃŃs ticas
Ġs ido
ACI ÃĵN
Ġm om
in e
Ġt Ã©cn
ĠP r
l ec
Ġsoci ales
Ġf al
ĠE duc
Ã¡ fic
Ġv iv
Ġ ro
Ġsol o
ec er
Ġres pecto
ĠF igura
Ġpro ce
ci s
ist encia
ĠV al
ib ilidad
3 3
8 0
Ã³ mo
ci b
es ta
Ġqu ien
ĠEs ta
U L
Ġse a
an d
ÃŃ o
ĠS u
b r
Ġ2 7
Ġeduc aciÃ³n
v il
ĠE N
Ġse gun
ar c
Ġinte gr
ĠO r
t Ã¡
Ġderech o
Ġin cl
Ã³ lo
cri p
Ġemb argo
Ġp p
Ġpres ente
ari as
ad r
ĠA c
Ġdi vers
ĠT r
Ġ2 2
Ġproces os
Ġ2 6
de cu
Ġtr es
tr um
as e
Ġp la
un d
l i
Ġsenti do
or g
E L
Ġa fec
Ġimpor tante
Ġh is
ÃŃ tu
x im
Ġfun dam
Ġcontin u
Ġ igu
Ġh e
O L
t Ã³
Ġ201 8
Ġgru po
Ġad minis
ĠT o
iemp re
u ente
Ġpo dr
Ġindi vid
Ġn ues
om e
Ġg estiÃ³n
an ci
tu al
Ġcon ten
Ġb uen
tin a
Ġ x
Ġesta ble
o p
Ġorgan iz
j os
c r
it ar
c er
Ġcor respon
ĠS i
ue go
Ġa g
Ġestra teg
Ã± a
Ġ201 7
Ġap rendizaje
Ġcomp r
2 7
Ġprim er
mp lo
Ġqu Ã©
omb re
Ġs a
tur as
Ġrel acion
or ÃŃa
er on
Ġ2 8
2 6
ĠP ar
Ġ era
ĠEs tado
truc ciÃ³n
u t
Ġmis ma
Ġp aci
Ġm in
Ġin ici
Ġor den
Ġrepres ent
Ġsu per
. -
Ġpob laciÃ³n
ĠEs te
e p
Ġo tra
por t
Ġobje tivo
Ġproyec to
Ġl i
Ġmode lo
m it
2 9
Ġj ur
Ġm on
Ġci er
Ġiden tific
Ġrealiz ar
ific aciÃ³n
Ġp ri
Ġ2 9
v ar
Ġan te
Ġcomp ar
Ġ201 9
I A
Ġel los
Ġri es
Ġ20 20
Ġbas e
Ġconoci miento
Ġse gu
ces o
Ġb us
Ġcu mpl
ĠS oci
Ġfuer on
7 0
ĠN acional
ol uciÃ³n
Ġan aliz
Ġdi m
Ġh i
duc ciÃ³n
Ġs ab
Ġ201 6
2 8
ur idad
ĠM e
tu d
un que
Ġp ens
Ġs ÃŃ
Ġh acia
4 5
Ã© m
Ġbaj o
p en
c os
ĠQ u
n e
le x
ĠP a
le ment
Ġ201 5
Ġtr ad
ĠS eg
o f
A C
Ġex peri
il idades
Ġesc ri
i ar
O M
Ġrecur sos
paÃ± a
l or
Ġy o
Ġmom ento
Ġ2 1
Ġ5 0
ab an
p r
Ġlo gr
v in
Ãº s
Ġesta bl
Ġca us
Ġa y
Ġ ................................................................
Ġto das
Ġcas os
2 00
3 5
v al
om a
Ġcu ales
ub lic
Ġcu r
ul aciÃ³n
Ġ k
Ġal um
Ġactiv idad
z as
Ġe j
ĠM Ã©
an cia
me di
Ġprop ues
Ġt Ã©r
0 5
7 5
re g
re cu
te d
ĠC as
ĠO b
Ġtr as
Ġc an
Ġcons um
Ġh echo
er g
Ġmen os
abor aciÃ³n
Ġes e
ob ier
Ġ201 4
Ġen fer
uy e
p i
Ġderech os
Ġa demÃ¡s
Ġest ado
fici ente
ÃŃtu lo
Ġa decu
Ġeje mplo
ĠnÃºm ero
ĠC ON
Ġel ec
Ġinter n
f un
Ġs iempre
Ã ī
Ġp un
Ġex per
Ġpl ante
er ÃŃa
Ġserv icios
ĠCol omb
Ġ on
Ġproduc ciÃ³n
Ġni Ã±os
Ġun ivers
pos iciÃ³n
Ġcondi ciones
Ġas oci
ĠD i
ĠE S
ier e
di s
Ġval ores
ĠCon s
Ġp al
Ġ4 0
Ġins trum
E D
Ġm enci
dos e
Ġm as
ĠC o
ĠC a
ici p
a tivo
ĠpolÃŃ tica
i tos
Ġal can
Ġsoci edad
ĠM o
Ġl im
ĠS in
Ġte cn
Ġt an
om ÃŃa
f r
Ġn e
tic ular
Ġap ar
Ġin d
Ġto da
Ġigu al
Ġ :
Ġev iden
9 0
Ġp unto
Ġte mp
3 6
Ġmujer es
Ã¡ m
Ġart ÃŃculo
Ġcon v
tes is
Ġc ri
Ġdo cu
pu Ã©s
Ġl ec
Ġmun do
oc er
Ġle y
I O
Ġra z
is iÃ³n
ĠG u
---- ----
7 8
Ġsitu aciÃ³n
Ġa um
ten s
Ġmo do
Ġor ig
al l
3 4
im ent
Ġprop ia
Ġe qui
is tas
u ra
Ġna tural
Ġcon j
Ġdeci s
Ġprim era
tiv amente
Ġa do
d an
ide ra
Ġrespon s
ter io
Ġ ...
Ġserv icio
f a
Ġc Ã³mo
Ġdeb ido
ÃŃs tica
Ġex iste
Ġpers ona
Ġcomp et
Ġl ado
es is
Ġe jer
e Ã±o
paÃ± ol
Ġm es
ven ciÃ³n
R I
Ġap oy
Ġcomun icaciÃ³n
pues ta
acion ales
Ġde m
Ġcu anto
Ġp s
ient ras
Ġaplic aciÃ³n
Ġ201 0
Ġ201 3
Ġalgun os
ĠR o
d ar
h as
tur ales
Ġcu y
Ġpos ible
Ġpermi te
Ġcom er
Ġvi ol
Ġc er
p le
ĠtÃ©r min
Ġ201 2
3 9
Ġcon ta
ĠA m
Ġf ÃŃs
Ġestudi os
Ġdi se
I n
Ġdi g
Ġproble mas
Ġm erc
de z
Ġ20 21
3 8
Ġpre gun
Ġele mentos
ue la
e mbre
ier on
4 4
enci al
Ġj u
Ġre la
ig n
Ġj us
A M
Ġf i
Ġ ur
ul ta
Ġfun ciÃ³n
lo gÃŃa
e za
or no
ĠM an
Ġ3 5
u da
vis iÃ³n
Ġ Ã³
Ġvari ables
ĠM edi
err am
ĠColomb ia
ĠC i
Ã ¼
er ic
Ġform aciÃ³n
Ġcapaci dad
Ġg u
ĠDE L
Ġa h
b an
Ġindivid u
Ġen ti
Ġa gua
Ġo per
ter a
Ġfin anci
ac h
pon e
b lic
ĠLe y
ĠB o
Ġlab oral
tis f
Ġcamb io
Ġa tenciÃ³n
Ġpr ue
Ġs Ã³lo
Ġl ÃŃn
Ġen seÃ±
te m
erram ient
I L
it y
Ġl en
Ġc h
ter na
b e
Ġpos i
Ġp on
Ġestable ci
Ġest ar
ene fici
Ġdeb en
Ġ Ã©s
6 5
C on
U N
tr aciÃ³n
ĠT he
Ġorgan izaciÃ³n
Ġin clus
ib les
Ġs an
Ġ201 1
pec tos
ĠR eg
Ġindi c
tan tes
Ġd ÃŃa
di fic
b re
obier no
Ġespec ÃŃfic
Ġs iendo
Ġd ar
Ġinter es
s on
Ġespaci o
ĠEs paÃ±a
tr an
Ã© c
Ġfac tores
Ġproble ma
un a
Ġsu je
Ġm ues
Ġcaracter ÃŃsticas
tec ciÃ³n
t ada
3 7
p ara
il la
l io
in as
Ġh or
9 9
ĠJ u
er as
A T
Ġreg is
p endi
a tion
4 8
Ġsigu iente
Ġse x
Ġan tes
Ġ ÃŃ
Ġv a
Ġrel aciones
y s
pues to
Ġempres as
b o
Ġpar ticular
r ig
x ico
Ġimpor tancia
av or
ac to
Ġg en
ĠA d
Ġimp lement
ra c
Ġper io
ad Ã©m
ĠU N
Ġgr ado
c en
E M
Ġob lig
Ġneces ario
6 7
ĠÃ¡ rea
Ġman i
Ġevalu aciÃ³n
Ġa mpl
in aciÃ³n
por te
i Ã³
ch a
Ġproce di
ĠseÃ± al
B L
Ġcor re
Ġa unque
Ġman ten
Ġac ciÃ³n
adr id
os a
v estig
peri or
ci l
Ġtra ta
Ġs os
EN T
re z
ĠEduc aciÃ³n
Ġfr ente
Ġ200 9
iv o
Ġs ue
Ġsec tor
Ġlib er
Ġgru pos
Ġre al
di ca
ar r
Ġdes emp
Ġex is
Ġp u
ĠL o
Ġ200 8
Ġf il
ĠIn stitu
d f
Ġes a
6 9
Ġh erramient
Ġconte xto
p l
Ġpres enta
Ġg ar
form aciÃ³n
Ġobje tivos
Ġdise Ã±o
Ġcon duc
Ã© g
Ã¡ r
Ġencuent ra
6 8
ĠRe vista
Ġus u
Ġmenci on
ic al
Ġob ra
Ġcons ecu
I T
Ġv en
Ġries go
ID AD
ĠE L
f ÃŃa
Ã¡fic o
duci r
Ġ Ãºn
Ġan terior
Ġb enefici
A P
cu p
Ġci r
ol u
Ġsigu ientes
ti z
Ġsu r
ÃŃ tica
Ġpr om
ĠG r
U S
trib uciÃ³n
ir m
Ġ Ãģ
U C
Ġdi f
Ġcontr ib
ĠD er
Ġdes puÃ©s
Ġl ÃŃ
qu is
Ġm ientras
Ġ6 0
v ie
Ġ ir
ĠA N
ĠpÃºbl ico
ĠM in
Ġb r
Ġf recu
Ġme todo
7 9
Ġpo t
ĠP re
h er
Ġmen or
Ġmedi da
ÃŃ m
ĠP ol
ent ar
Ġdesarrol l
ti do
ĠprÃ¡c tica
ĠJ o
4 9
el l
Ġ200 7
Ġv eces
aj es
Ġter ri
am as
Ġn acional
Ġfamil ia
u p
Ġap or
ĠM adrid
ue z
Ġmerc ado
Ġpa tr
Ġestrateg ias
n al
Ġp Ã¡g
Ġp ublic
ĠUn a
Ġresul tado
ist Ã³r
de mos
Ġmo v
Ġas pectos
EN CI
Ġcent r
ti ene
ador a
tin g
ec ha
Ġcons trucciÃ³n
di co
Ġta b
Ġv ir
um en
ĠCom o
ic amente
Ġre alidad
Ġproduc tos
Ġparticip aciÃ³n
on ces
Ġau to
is o
Ġd in
esti on
Ġe di
Ġhis toria
iz ar
ACI ON
Ġ200 6
Ġpal ab
Ġse lec
ĠÃ© l
Ġjur ÃŃ
Ġan ti
ĠpÃº blic
5 5
S S
i es
ĠP RO
p aci
iv a
am b
Ġm al
us iÃ³n
ip Ã³
ici ones
Ġde man
ĠMÃ© xico
ĠAs ÃŃ
I M
ar d
0 1
Ġinter Ã©s
Ġf avor
g as
Ġac ciones
Ġfun cion
k e
Ġ3 8
Ġseg uridad
Ġdeb er
Ġinter pre
ĠF uente
Ġpaci entes
Ġcomp or
Ġ3 1
Ġpro por
bl ica
Ġte ma
Ġcual quier
I V
Ġefec to
Ġa gr
cep ciÃ³n
Ġsa tisf
ĠA demÃ¡s
t aciones
ig ur
p h
p df
Ġ20 22
Ġp ad
Ġnues tro
o to
f e
j as
i or
Ġg ra
Ġl argo
tor ial
m or
s a
Ġcon form
ĠA p
Ġc anti
6 6
Ġexperi encia
ec ciÃ³n
on ales
Ġes paÃ±ol
T U
Ġor ient
ci den
mÃ¡ tica
tin o
Ġp ap
ĠG ener
Ġm il
Ġ3 4
Ġin gres
es t
a tivas
a tro
ipÃ³ tesis
Ġnivel es
Ġconj unto
Ġneces idad
ĠP res
Ġac adÃ©m
Ġm or
7 7
ĠM on
Ġe dad
ĠpolÃŃ ticas
Ġdes ta
Ġm Ã¡
cul o
Ġiden ti
Ġsigni fic
Ġ4 5
ĠJ os
Ġbien es
lo b
pos i
Ġcu er
ĠÃºlti mo
ren der
ci os
Ġdoc entes
Ã©r ica
orm ente
er an
g ado
Ġet c
Ġm ec
cent aje
olÃ³g ico
Ġh er
Ġ200 5
ent ro
Ġhab ÃŃa
Ġent onces
Ġre cib
3 1
ul tad
Ġel la
3 2
as a
Ġcl ar
Ġs o
Ġcomun idad
ĠEs to
Ġnuev o
an as
Ġejer ci
aci l
en d
Ġest ad
ch o
Ġestruc tura
ĠI I
ĠF ac
olÃ³g ica
ĠÃ¡ mbi
6 4
Ġg Ã©n
re as
port un
Ġin de
Ġcam po
ti cia
im o
Ġdes cri
Ġb Ã¡s
ul o
u g
Ġproduc to
Ġem oci
ĠP lan
f il
Ġm ie
ĠF in
tr ic
b er
Ġser Ã¡
te l
Ġm os
m on
Ġre d
Ġcon cre
Ġen fo
v es
Ġsegun do
TI V
am bi
Ġcul tura
Ġobje to
Ġac ep
t om
con s
m ac
b ilidad
Ġprincip al
9 5
ens iones
t ando
Ġdoc ente
Ġg as
mbi ente
Ġprogr ama
ri r
ec en
cent r
t ÃŃn
ĠInter n
ĠC ap
Ġcomp on
Ġre le
ib lio
Ġd ÃŃas
ĠE di
7 4
qu es
Ġma ter
Ġalgun as
Ġ is
on o
ĠpaÃŃs es
Ġtra tamiento
ĠPer Ãº
Ġ tur
ĠF ran
Ġl lam
Ġ3 6
oci miento
Ã¡c ter
ĠL u
Ġdich o
Ġcab o
D e
l er
Ġmedi os
Ġfin al
Ġind ustr
Ġconcep to
omb res
da p
Ġsig lo
l in
Ã¡n dose
Ġde j
Ġr ad
teri ormente
ac e
ĠB uen
ĠlÃŃn ea
CI ÃĵN
IC A
di da
........ ....
T R
ĠEs tudi
ĠprÃ¡c ticas
ec hos
ion ales
Ġlo c
an t
Ġe qu
c el
ĠC r
Ġf e
ra g
Ġ3 3
Ġform as
n er
ĠC al
on g
Ġmun icip
Ġvari able
la z
Ġpo co
Ġin cre
Ġneces idades
9 8
il i
7 6
Ġexp lic
Ã ĳ
Ġmayor ÃŃa
E Z
Ġac ceso
di o
? ?
Ġmejor ar
Ġinf lu
Ġ200 4
ĠR ec
Ãį A
qu ÃŃ
Ġcon ocer
ern Ã¡n
b as
aliz ar
Ġre co
ĠR E
Ġprop ie
Ġefec tos
do i
Ġcons tr
Ġdes p
os p
Ġpers pec
Ġmuc ho
Ã³ di
Ġenfer me
is mos
ec h
Ġtrabaj adores
ĠP o
form a
Ġmo der
ĠenseÃ± anza
Ġfal ta
Ġp an
Ġmateri al
Ġrefer encia
ĠpÃºbl ica
Ã± as
v ado
Ġcomp a
en der
Ġprincip ales
Ġ3 2
Ġcar Ã¡cter
Ġt ar
b les
Ġin t
Ġdis pon
Ġprofes ional
Ġpres encia
a z
Ġes ti
Ġ3 9
Ġal l
Ġe ta
Ġm ul
Ġdim ensiÃ³n
Ġab s
e ci
Ġhab er
i le
Ġs ens
Ġ Î
ĠS al
p ti
Ġci ent
Ġman e
Ġnuev as
ent as
Ġ3 7
ĠT e
ien e
p as
Ġal go
Ġ200 0
Ġviol encia
Ġca teg
os o
e ar
Ġconf lic
Ġcamb ios
Ġcol ec
Ġamb ient
Ġcanti dad
Ġconten ido
8 5
Ġh istÃ³r
Ġadminis tra
il ar
er ca
Ġespeci al
crip ciÃ³n
ÃŃs tico
R e
Ġo portun
Ġesc ol
a t
Ġres pec
ex o
ers iÃ³n
s u
Ġte Ã³r
Ġsiste mas
Ġ200 3
ernÃ¡n dez
d or
AD O
Ġre cu
am ientos
gr ama
ĠmÃ© todo
Ġcre cimiento
U R
di do
Ġpr omo
Ġes o
ec re
4 6
U M
Ġv in
im on
d on
Ġpe que
Ġal g
s i
arrol lo
Ġres puesta
ti onal
Ġm ad
Ġapoy o
C O
Ġconstitu y
Ġf igura
Ġal to
Ġalum nos
Ġper mit
Ġde f
ÃŃ fica
Ġc la
Ġpro b
Ġn uestra
Ġf acil
abaj o
Ġmedi das
Ã³g ica
Ġprincip io
Ġmos tr
Ġent r
Ġmo tiv
Ġobten er
8 8
Ġpre v
ĠCon stitu
F igura
Ġprue ba
ic ro
Ġpro tecciÃ³n
da g
. ;
ĠM un
u ales
tion s
iz a
ĠV ol
le g
se g
ens a
Ġu b
A l
Ġinstitu ciÃ³n
teri os
h ttp
Ġmuc hos
ĠJos Ã©
Ġte xto
in al
ec uciÃ³n
Ġre ci
e ta
Ġencuent ran
uro pe
S e
or ÃŃas
Ġp en
par ta
ĠIn vestig
Ġl uego
t adas
Ġbr in
e mos
Ġconf i
Ġquien es
IC O
ic h
4 7
Ġdetermin ar
Ġpropues ta
j us
Ġmar co
i i
Ġpap el
Ġ200 2
Ġdi rig
ĠI mp
ĠgÃ©n ero
il lo
Ġnuev a
Ġa dap
Ġinstitu ciones
ĠGener al
Ġz ona
Ġneg oci
Ġse m
Ġsu perior
v aciÃ³n
m un
Ġ8 0
ĠJu an
Ġlab or
is terio
Ġel las
t Ã³n
im os
Ġsab er
Ġdifer encia
Ġde pen
ĠL ima
im ismo
z os
Ġa mbiente
Ġpresent an
t ales
Ġ ÃŃn
Ġcor rec
Ġes tim
Ġcap ital
to dos
Ġal ta
Ġci n
di al
T ER
p ol
trib u
ĠtÃ©rmin os
Ġmateri ales
4 3
ent ales
per ado
Ġmater ia
Ġdi fic
ul io
L os
Ġclas e
aj o
ĠÃ¡mbi to
Ġlim it
m ar
Ġlen gu
Ġdem Ã¡s
ti o
Ġv ig
ĠE v
Ġ4 8
Ã¡ me
Ġactu al
Ġnuev os
m en
Ġhum ano
gra fÃŃa
gen tina
di ce
x tos
Ġc e
1 00
Ġdis min
Ġ il
ĠN e
Ġre c
uy en
tiv e
Ġf en
n as
Ġnorm as
Ãº blica
Ġcons idera
Ġpodr ÃŃa
ÃŃcul os
Ġdis cur
Ġpues to
ĠC O
ci ales
Ã¡ fica
ĠA u
5 8
Ġde cl
Ġdesarrol lar
it aria
Ġps ic
Ġh ipÃ³tesis
cor por
Ġcent ro
u tr
Ġestabl ecer
Ġent orno
ĠA L
a tivos
par aciÃ³n
in ter
Ġgran des
Ġnatural eza
Ġ7 0
Ġpre cis
Ġre com
Ġa t
Ġd omin
it h
Ġpun tos
un ci
ĠA C
am eric
Ġj un
Ġ200 1
Ġper man
o ce
Ġpro fun
P or
Ġo c
Ġf lu
iste ma
Ġdecis iones
7 3
Ġm uer
................................ ................
Ġg obierno
Ġcuer po
ambi Ã©n
Ġcompa Ã±
arc ÃŃa
ĠP ero
R ES
f uer
or te
4 2
Ġdesemp eÃ±o
ĠAn Ã¡lisis
Ġmie mb
fer encia
a gen
endi miento
Ã³di go
Ġb an
Ġmedi a
Ġcon cl
ib r
ĠH is
in ar
ĠtÃ©cn ica
ici dad
ÃŃ gen
ĠSoci al
Ġproyec tos
Ġconsum o
Ġenfo que
y a
Ġref lex
Ġre quier
go tÃ¡
i re
ad amente
y o
Ġser ie
Ġcu atro
an g
l l
Ġdich a
Ġraz Ã³n
Ġprop io
Ġo cas
Ġsol ici
Ġ termin
Ġconoci mientos
edi o
Ã© tica
le j
Ġrealiz a
Ġo cur
A n
com o
Ġaquel los
Ġcul tural
Ġpro vin
Ġlogr ar
ĠAd minis
Ġau tores
tar io
ĠS alud
Ġeduc ativa
ĠEn tre
ĠCom un
en ce
ĠTo tal
0 8
Ġex ig
r ic
Ġtab la
Ġvis ta
tu ales
b ol
qu er
ĠDi rec
T abla
Ġte orÃŃa
Ġmo dific
5 9
Ġp ie
Ã¡ tica
re ci
4 1
Ġalgun a
Ġd ado
ĠeconÃ³m ico
Ġpo demos
ĠM or
ĠDer echo
Ġvin cul
Ġsegun da
ĠP e
ien da
Ġmis mos
Ġide a
g er
tu vo
ul as
Ġfamil iar
r on
ur nal
Ġim agen
Ġh ombre
0 2
teri ores
Ġper ten
Ġmuc has
di r
ĠĠ ĠĠ
il a
Ġtom a
i res
Ġsos ten
d s
Ġinstrum ento
Ġpos e
ir ma
in os
Ġfun ciones
Ġtr ib
ĠB ar
lo g
titu d
Ġ err
per s
Ġcorrespon di
ĠÃ¡ reas
ĠP AR
en de
Ġal terna
Ġindi ca
ĠSeg Ãºn
Ġm ÃŃn
I CI
Q U
Ġequi po
Ġrepres enta
6 3
ĠR ecu
Ġcompor tamiento
in s
Ġfac tor
Ġcu estion
ce den
Ã³s ito
ĠC am
Ġlle gar
Ġimp acto
s erv
tific aciÃ³n
it ario
Ġf is
pues tas
ig o
Ġb o
e as
Ġre v
Ġp el
Ġperio do
ĠtÃ©cn icas
Ġexis ten
Ġcon ci
ĠEs c
Ġhab ilidades
Ġdis tribuciÃ³n
7 2
7 1
Ġcons erv
N o
M A
tar ia
L A
ta ble
0 3
Ġpue b
cion ar
Ġex ist
ĠD el
8 9
Ġde tal
Ġcom Ãºn
f or
Ġti pos
Ġmay ores
Ġespaci os
Ġinclus o
Ġg lob
tor a
Ġmec an
Ġ os
Ã³ l
fici encia
on z
Ġcos as
un ca
Ġti er
ch e
Ġado p
tan cias
Ġlle v
mi te
Ġpar tes
h t
Ġdifer encias
Ġa van
Ġpad res
Ġpalab ras
Ġsitu aciones
Ã© l
aj a
ÃŃ c
Ġfu era
00 00
EN TO
Ġres pe
d ÃŃa
iv os
ĠeconÃ³m ica
Ġ5 5
ent an
Ġelec tr
Ġa Ãºn
Ġde mo
D O
Ġde ri
di a
or k
Ġfundam ental
Ġdi ag
T OR
I G
6 2
ed u
ar ra
ĠBo gotÃ¡
ĠH um
ic e
cion ales
ide z
Ġse an
ar ÃŃa
E X
medi a
a u
Ġdistin tos
olÃ³g icos
Ġpes ar
ÃŃ g
Ġ4 2
Ġanaliz ar
Ġintern acional
t Ã¡n
ĠMar ÃŃa
ĠG arcÃŃa
Ġobten idos
Ġlo cal
Ġex tra
Ġrespons abilidad
Ġs es
Ġci vil
ĠMar tÃŃn
Ġb i
ca paci
0 4
Ġ4 1
vis tas
ci dad
Ġv an
clus iÃ³n
Ġmej ora
Ġur b
Ġ4 9
Ġex istencia
ac a
es truc
6 1
Ġpos ibilidad
ĠIn s
ĠEs tados
ĠE con
p s
es s
im en
osp ital
les c
Ġcontinu aciÃ³n
Ġpue da
Ġs ent
ab e
Ġac erca
gres o
ĠT ambiÃ©n
Ġhum anos
cul ar
ac er
l ado
Ġejerci cio
Ġamb os
Ġan im
Ġperspec tiva
Ġprincip ios
Ġv o
r il
Ġin corpor
Ġun os
Ġrealiz ado
g l
im ientos
Ġn um
Ġcre aciÃ³n
E T
Ġa quÃŃ
Ġin tro
0 9
Ġreg iÃ³n
Ġ20 23
Ġide as
ti Ã³
an ce
AL ES
ente mente
Ġh ombres
Ġprogr amas
Ã³n ica
i ales
A B
a f
Ġ4 3
Ġen car
ĠMin isterio
Ã¡ tico
per aciÃ³n
Ġsoci o
Ġresul ta
m is
Ġherramient as
Ġestrateg ia
d al
Ġgar anti
o o
r ero
Ġliber tad
tor ios
Ġcorre laciÃ³n
ig r
Ġorig en
Ġ4 4
Ġej ecu
tr ac
ĠAr gentina
Ġv arios
Ġin fer
ĠV er
b ir
Ġconsecu encia
qui tec
ĠI SS
Ġde mos
D E
uc h
Ġm us
Ġin no
g um
Ġcom b
l y
Ġbuen a
Ġinter venciÃ³n
Ġin ci
Ġdim ensiones
Ġfen Ã³m
Ġcas a
us o
Ġsuper fici
I ON
it aciÃ³n
Ãº a
ĠN a
ĠEl aboraciÃ³n
ĠBuen os
e ti
ven es
er gÃŃa
ĠA ires
Ġcon centr
ĠI II
Ġ9 0
id ado
Ġf on
Ġapro xim
Ġrealiz Ã³
s ay
tu ro
Ġpro v
Ġobserv a
gen es
Ġt esis
Ġc og
ĠP os
ad ro
Ġhac en
v ieron
Ġmes es
Ġdivers os
Ġexper im
Ġt ales
E G
Ġre des
ĠP al
Ġinf l
n Ã³s
Ġcumpl imiento
U n
Ġni Ã±o
Ġsatisf acciÃ³n
Ġr u
tr iz
Ġescol ar
Ġcompet encias
Ġm er
cul os
Ġfor tal
tar se
Ġop in
ĠISS N
pon ible
Ã© di
Ġpla zo
Ġay ud
Ġcas i
Ã³ venes
Ġpre ten
j u
5 6
Ã³g ico
Ġlib re
ul tura
UL O
Ġimpor tantes
ĠE mp
Ġt h
Ġhor as
p es
ĠJo urnal
ul tados
Ġn ombre
Ġsol uciÃ³n
Ġtrad ici
Ġ Ãį
Ġl l
uer ra
Ġent ender
de ra
Ġidentific ar
Ġdistin tas
Ġidenti dad
Ġhe mos
P ro
it ales
i ana
in gun
ĠT ri
ci embre
i ano
Ġh ub
Ġlengu aje
Ġd Ã©
Ġa di
Ġdes e
Ġdin Ã¡m
ur al
Ġcri terios
ĠC an
5 3
Ġe p
Ġins tal
ci n
Ġh oy
Ġpue dan
Ġgener ar
5 7
ER S
Ġdivers as
ec on
P ara
Ġ199 9
Ġlle var
Ġes per
Ġmode los
Ġan al
Ġdi ce
iz o
ĠEs tos
Ġimplement aciÃ³n
Ġa gu
Ġof ici
Ġ ĠĊ
ĠX X
un ta
Ġal im
Ġsignifica tiva
Ġej ecuciÃ³n
Ġinstrum entos
Ġsuje to
gen ier
5 4
ur os
arc el
le z
Ġprim ero
Ġtu vo
Ġcl ientes
Ġma es
ĠCi encias
Ġado lesc
Ġw ith
Ġexpres iÃ³n
Ġimp lica
Ġar te
Ġmani fes
Ġtemp era
ĠDes arrollo
ĠpolÃŃ tico
Ġdecl ar
Ġmiemb ros
Ġden omin
Ġ4 6
Ġleg is
h ib
Ġob ras
-------- --------
Ġalg Ãºn
Ġah ora
c un
Ġlle g
parta mento
0 7
ĠRecu perado
Ġpri v
C A
Ġesc ala
. :
D UC
5 2
Ġpregun tas
Ġeta pa
Ã¡n do
i Ã©n
Ġmetodo logÃŃa
Ġ4 7
ÃŃ os
Ġprofes ionales
T AD
Ġeduc ativo
ĠT i
Ġlec tura
Ġcompr ensiÃ³n
ĠG onz
ĠRo dr
Ġs ÃŃn
Ġrele v
Ġlo g
5 1
Ġpens amiento
Ġf Ã¡
ul s
Ġ ;
Ã¡ p
ĠE cu
ĠQu Ã©
ro b
aci as
P A
Ġten iendo
Ġm ens
Ġref iere
Ġesc uela
Ġb io
O G
Ġa le
ĠA b
Ġac om
Ġel abor
ĠfÃŃs ica
ol uc
ĠP Ã¡g
ĠS ol
pe z
Ġpor centaje
Ġdeman da
Ġcompet encia
ĠC entro
Ġm icro
Ġb a
xim o
tic amente
Ġo cup
Ġm ol
Ġinflu encia
Ġpas o
ĠG estiÃ³n
olog ÃŃas
Ġrel ig
Ġtrabaj os
tr ÃŃa
ĠOr gan
Ġprom edio
Ġ eran
Ġay uda
9 6
ulta des
ĠD a
Ġc ob
ĠP s
arcel ona
Ġti tu
Ġdirec ta
tera tura
Ġ199 8
ĠR ES
Ġnorm a
Ġcons tante
ĠD ios
t Ã©g
pon er
Ġj Ã³venes
ĠN O
Ġmani fi
0 6
Ġusu arios
tor ias
tr ito
ĠTr abajo
Ġtom ar
ular es
pues tos
ĠmÃ© todos
Ġadminis traciÃ³n
Ġbus ca
s oci
Ġfrecu encia
ĠInstitu to
tu bre
Ġcaus a
ĠI V
Ġme mor
Ġcr ÃŃ
Ġvol un
Ġdemos tr
Ġ5 8
Ã© tr
seg ur
Ġdocu ment
Ġme ta
v ent
Ġaf irm
Ġun idad
i ra
Ġser ÃŃa
alu aciÃ³n
Ġsue lo
Ġre col
i an
Ġv ul
I Z
ĠA g
Ġh al
Ġsec und
ĠS a
Ġre quer
Ġestabl ece
Ġas um
ab il
Ġar gum
Ġfuer za
Ġcondi ciÃ³n
Ġmul ti
Ġten dr
I R
Ġres id
Ġes fuer
Ãºs que
Ġmane jo
Ġobserv ar
ador as
Ġaum ento
en es
Ġestudi ante
Ġdes crip
ĠtÃ©rmin o
Ġbaj a
Ġpaci ente
clus iones
L as
Ġecon omÃŃa
ĠS erv
Ġin m
v as
Ġmov imiento
olog y
Ġa ten
b il
Ġtrans form
Ġeviden cia
ĠOb je
B A
ĠC OM
ĠA R
Ġpe dag
Ġcient ÃŃfic
Ġr endimiento
t y
Ġv ent
Ġcam bi
Ġpos iciÃ³n
Ġa jus
Ġpar Ã¡me
Ġrealiz aciÃ³n
ĠC l
Ġh o
ĠM ay
id aciÃ³n
ĠAr t
Ġal iment
ÃŃc ti
C H
n es
Ġh aci
ĠPr im
ĠÃ© po
Ġ5 9
le o
imon io
Ġesc en
Ġ5 1
olÃ³g icas
Ġimp lic
Ġper ÃŃo
ĠDis ponible
ĠCor te
Ġutiliz ar
Ġespeci almente
Ġcla ve
Ġte mas
gr Ã¡fic
Ġorganiz aciones
Ġm ir
Ġterri torio
Ġambient al
Ġ7 5
Ġen ergÃŃa
Ġcon ver
Ġpres u
r era
Ġprofes or
E P
ĠAm Ã©rica
e lo
Ġprop Ã³sito
8 4
ĠN uev
Ġub ic
Ġh ora
Ġdes con
Ġad ul
ĠInvestig aciÃ³n
ĠCon se
Ġm m
uy endo
ĠB arcelona
Ġconcep tos
Ġma g
Ġper cib
c lo
Ġhi jos
Ġcin co
F uente
u a
c am
ĠL i
Ġenferme dad
Ġter c
Ġconten idos
ĠÃŃ tem
Ġpos ib
t ent
ren de
Ġpregun ta
i te
8 6
Ġcl ÃŃn
capaci dad
Ġpar ece
Ġcl iente
Ġcumpl ir
enci ales
is ti
Ġprocedi miento
z ado
Ġel aboraciÃ³n
Ġcuy o
Ġ5 2
Ġz onas
ĠC os
p les
Ġp Ã©r
Ġta ma
Ġevalu ar
mÃ¡ ticas
Ġexperi encias
di Ã³
A r
ar do
es e
Ġinter ior
Ãºsque da
Ġcos tos
Ġencu es
Ġmanten er
Ġ q
ĠpÃºblic as
Ã ļ
Ã©g imen
Ġ5 3
ues to
tar on
ci do
ĠTr ans
p ir
A G
P L
ÃŃ ci
Ġfu entes
Ġ199 7
ĠG ran
Ġcontr ario
ĠI b
9 7
it an
Ġev itar
Ġ6 5
ol ver
Ġele mento
Ġpes o
Ġemoci onal
ĠAn exo
Ġesta ba
Ġrequier e
ÃŃg uez
Ã³ me
vie mbre
ĠSan ta
Ġf ase
Ġdi seÃ±
or n
II I
Ġl ig
ĠpÃºblic os
Ġvis iÃ³n
Ġs ac
Ġcar ga
Ġinter ac
Ġinv oluc
Ġparticip antes
Ġdecis iÃ³n
ib er
Ġco ord
9 4
ha t
Ġes tr
Ġab ier
Ġj ue
ific ar
ÃŃ r
ta g
Ã³ pez
dic os
Ã©c tr
Ġdirec ciÃ³n
ĠI s
ĠAs imismo
Ġcol or
Ġp udi
j ar
Ġa segur
Ġgen era
ĠF orm
iz ado
Ġre pro
Ġconsider ar
Ġherramient a
tr ol
Ġs ir
9 3
Ġas pecto
Ġinteres es
ĠQ ue
ĠLu is
Ġinici al
Ġinstitu cional
Ġg an
Ġobs tante
ĠF e
i tud
Ġinde pendi
ĠB an
ĠCu ando
Ġpr on
Ġlib ro
Ġsegu ir
Ġfu turo
id or
Ġsol u
om iso
Ġdig ital
Ġpermi tir
Ġma te
ĠH u
Ġd Ã©c
Ġn ada
Ġ5 4
u os
ĠM AR
nÃ³s tico
ĠM u
iden te
aliz ado
Ġries gos
i f
Ġ Ãº
a te
Ġcu ar
8 3
aci o
ĠT or
T AL
Ġb iblio
ch ez
tu re
Ġencontr ar
Ġcol abor
Ġ Ã³r
Ġtrabaj ar
e ficiente
Ġdemo cr
Ġcon ven
Ġn ingun
Ã³n ico
to l
d Ã¡c
Ġrecon ocimiento
Ġprincip almente
Ġapro b
it s
Ġv ÃŃcti
Ġacom paÃ±
C L
Ġregis tr
c to
cun s
Ġcre ar
Ġinter acciÃ³n
Ġmues tran
an til
Ġcor por
Ġen ero
9 2
ĠB ol
Ġpo p
Ġsim ple
Ġo tor
Ġdi ciembre
ĠD o
Ġg us
I P
pres iÃ³n
are as
Ġtecn ologÃŃa
ENCI A
Ġ9 5
Ġr an
ÃŃs ticos
udi cial
ĠH e
Ġ5 6
Ġcier to
ĠT Ã©cn
Ġfin alidad
Ġindividu os
I ÃĵN
S O
Ġper cepciÃ³n
Ġl uc
ĠseÃ± ala
Ġc m
ti enen
ier en
id ores
Ġj uego
yec to
ĠL OS
qu il
Ġv ac
Ġhay a
b u
ĠÃºlti mos
Ġdi c
ĠFac ultad
of t
Ġcuy a
Ġmis mas
tu s
Ã¡ lez
Ã© tico
Ġmuer te
ĠS istema
Ġam or
Ġinterpre taciÃ³n
o tros
Ġcog ni
Ġdes cu
Ġn unca
c la
de ro
ter o
Ġadecu ada
Ġpermit en
u ido
8 7
ĠN ivel
Ġvari as
Ġh id
ten ido
Ġcomp render
Ġcul turales
Ġin tens
Ġ199 6
Ġ5 7
Ġposi tiva
ing Ãºn
ĠEcu ador
ter al
9 1
Ġb ar
Ġcentr al
D A
Ġd om
Ã¡ genes
ci ona
Ġe cu
Ġal ter
Ġre visiÃ³n
p Ãºblica
Ġf echa
ene mos
ĠacadÃ©m ico
n idad
Ġh echos
g el
v el
Ġa us
Ġart ÃŃculos
ĠP la
Ġjus ticia
Ġac tores
Ġpob l
iv al
dem ia
ĠHis toria
O C
w are
i el
og ra
Ġclas es
Ġcu estiÃ³n
Ġpas ado
Ġpla ta
Ġ 00
Ġb Ãºsqueda
ĠT esis
Ġemple o
T o
Ġj ulio
Ġpers on
Ġcr isis
Ġun as
Ġl ine
gos to
Ġfamil ias
Ġdi dÃ¡c
vie w
Ġprocedi mientos
Ġre quis
EN TE
ĠV ari
Ġcorrespon de
Ġbenefici os
D es
tra teg
Ġau di
I ENTO
i ro
Ġen say
Ġt areas
Ġm ill
Ġsuje tos
ĠAn ton
Ġtama Ã±o
ĠS ig
Ġcap ÃŃtulo
ul os
p an
Ġj unto
Ġmay o
Ġen fr
gr Ã¡fica
Ġindivid ual
Ġex ter
Ġtier ra
Ġdis c
Ġcomp eti
r al
Ġalcan zar
Ġf ran
Ġli teratura
ĠD ic
Ġal mac
Ġm Ãºs
Ġenti dad
Ġs ome
re l
ĠÃ©po ca
p ia
ur ante
C om
fer encias
un al
it as
form e
ol a
8 1
CI ON
ti da
anti ta
Ġcu b
Ġd an
Ġcomun ic
ĠP as
ac es
ĠDes de
Ġusu ario
on te
ĠL Ã³pez
Ġrelacion ados
Ġestra tÃ©g
Ġprim eros
Ġo l
ĠD oc
Ã¡n ica
Ġf oto
ari amente
Ġh om
Ġim Ã¡genes
Ġjur is
8 2
Ġg e
Ġ199 5
Ġjun io
T RO
ĠÃ©s te
Ġcir cuns
it arios
ci na
Ġdis cip
Ġpos ibles
ĠConstitu ciÃ³n
p ens
ent aciÃ³n
Ġdefin iciÃ³n
ĠperÃŃo do
e dades
ĠC Ã³digo
tens iÃ³n
en os
Ġprop ios
Ġh og
ĠR el
Ġmen ores
ti endo
Ġfuncion amiento
ĠR a
Ġdiscur so
ĠRodr ÃŃguez
D I
ĠS O
Ã© rez
a go
Ġindic adores
Ġd u
Ġenti dades
l le
i era
tic al
Ġque d
Ġexper iment
ĠConse jo
es te
Ġenfer m
Ġvul ner
Ġtempera tura
Ġinv ersiÃ³n
Ġindividu o
Ġc el
p al
Ġn ingÃºn
ĠMun icip
ar Ã¡n
Ġus ted
ĠÃºlti ma
ĠEs tas
ig na
Ġc Ã¡l
Ġfil os
es or
Ġ ..
ĠPAR A
ing Ã¼
Ġab ord
Ġcons truc
pti embre
Ġaquel las
e v
Ġproduc e
Ġmin u
ĠT h
Ġte xtos
Ġhum ana
Ġfu ente
Ġconfi anza
Ġclar o
tiz aciÃ³n
Ġinvestig aciones
eb rero
d ustr
v ir
Ġreg ular
Ġres puestas
Ġrecon oci
Ġte le
aj as
Ġdirec tamente
Ġas ign
Ġconflic to
Ġfr om
tis ta
ĠJ us
Ġsex ual
ĠE urope
R es
Ġgener ales
Ã¡n chez
re ce
Ġfuer te
Ġcu mp
z an
Ġcu idado
J E
U E
ĠT ra
pe di
Ġb e
te gr
Ġm Ã³
am e
Ġespeci es
L O
Ġar tic
Ġ199 4
Ġincre ment
Ġan teriores
Ġcompon entes
of ÃŃa
Ġcomun idades
di endo
Ġingres os
Ġper fil
Ġes os
Ġn aci
pos iciones
Ġa ula
Ġpa go
titu des
Ġex am
ĠT er
Ġcl ima
il las
ĠG al
Ġman o
Ġ6 1
Ġprue bas
Ġglob al
Ġh izo
Ġ................................................................ ................
Ġser Ã¡n
Ġt enemos
Ġna turales
p lic
it antes
Ġar quitec
Ġev oluciÃ³n
ĠCar los
Ãį T
00 1
Ġin icio
Ġres to
Ġadecu ado
Ġres oluciÃ³n
Ġnues tros
Ġ6 3
Ġre un
Ġcon ce
Ġfundam entales
Ġmotiv aciÃ³n
il ares
Ġall Ã¡
Ġprofun di
v ia
Ġof rec
lig encia
er tura
M P
Ġcar go
Ġeviden ci
ĠIn f
Ġcr ÃŃtica
Ġmar zo
Ġres istencia
Ġan teriormente
Ãºm ero
Ġtiemp os
ĠB a
Ġprovin cia
Ġlen gua
Ġ6 4
ĠG obierno
Ġsec tores
Ġac to
aliz ada
fic acia
Ġin media
Ġpro duci
Ġr Ã¡p
ĠÃ© x
iv encia
Ġten ÃŃa
Ġb lan
ĠIntern acional
Ġpens ar
Ġm Ãºlti
Ġrepresent aciÃ³n
o cup
Ġv ÃŃa
enci ones
u do
Ġpar e
Ġdocu mento
cr im
Ġ199 3
V I
d in
Ġutiliz ando
ecre to
Ġconf igur
Ġdifer enci
Ġmemor ia
Ġw eb
Ġcons ul
i ri
cis co
Ġel im
ĠGonz Ã¡lez
Ġtrans porte
i ares
Ġcom en
ari al
Ġind ÃŃgen
Ġlu z
ĠIntern et
ri que
Ġcom ien
Ġre ac
e tas
Ġr as
Ġb y
Ġconcre to
ĠparÃ¡me tros
Ġequi pos
Ġtrad uc
ke ting
eg a
Ġr om
Ġten ido
U D
Ġpre ven
op era
A s
ĠP ers
ĠC ent
z go
Ġv ia
Ġv uel
Ġre vis
Ġamb as
Ġt orno
Ġab ril
ĠfenÃ³m eno
Ġco in
ti dos
C u
Ġaplic ar
F IC
Ġgener aciÃ³n
o co
id ar
ĠCh ile
tr al
Ġdocu mentos
Ġlle va
Ġdes tin
r ÃŃa
Ġdefin e
Ġ6 2
Ġex tre
Ġb arr
e y
Ġau ton
en da
Ġprop ias
em en
ĠEstudi os
ĠC re
Ġbus c
p ie
un tos
Ġcr Ã©di
Ġleg al
ĠS ci
ti di
Ġr Ã©gimen
Ġ6 6
Ġmar ca
S A
5 00
Ġpueb lo
Ġ6 7
ĠAnton io
Ġt or
ĠfÃ¡ cil
m isiÃ³n
ACION ES
ĠRes ultados
ac uer
Ġpri or
ar ca
Ġim ag
ec tor
Ġcon tar
ĠS o
ti cip
Ġp uer
Ġdi v
J O
ar t
Ġconstituy e
as es
ri ente
Ġver da
ĠF ernÃ¡ndez
ĠT ec
Ġcompr omiso
Ġ rol
Ġintegr al
Ġbienes tar
Ġs ob
Ġsu ficiente
Ġop era
or gan
x ima
Ġmad re
im e
ES TI
Ġcons eg
Ġcent ros
N A
Ġoc tubre
ĠI g
Ġci encia
Ġcuestion ario
Ġci clo
Ġe d
c k
Ġar m
Ã¡ lo
Ġdetermin ado
Ġde tec
Ġf om
f ac
Ġpropie dad
ĠAdminis traciÃ³n
Ġconstitu cional
Ġpon er
ĠespecÃŃfic o
Ġpro teg
ceden tes
ci ente
ĠF un
UL TAD
estruc tura
Ġpro ve
Ġf er
Ġutiliz a
Ġcompar aciÃ³n
mit es
Ġencu esta
tar ÃŃa
duc e
Ġadolesc entes
Ġde dic
Ġcons iste
Ġobje tos
Ġcontra to
P ER
Ġse cu
i tor
Ġcur so
v ech
Ġve lo
Ġ id
Ġloc ales
ĠA G
ru p
Ġexperim ental
iv as
ĠP en
I B
Ġcol omb
Ġcomp os
del ante
C ON
Ġel eg
Ġqu er
ĠS on
Ġpen al
Ġconduc ta
Ġah ÃŃ
r ar
re de
S T
Ġcre a
Ġmues tras
Ġex tran
ear ch
Ġdific ultades
Ġconte mp
ĠRe pÃºblica
Ġsu ce
Ġintegr aciÃ³n
ĠjurÃŃ dico
O D
ens o
Ġtrib u
Ġver dad
Ġfin es
Ġl ar
v ÃŃa
Ġregis tro
es iÃ³n
Ġemple ados
ĠH o
Ġactu alidad
Ġorganiz acional
Ġh Ã¡
Ġun idades
Ġpu bl
ĠP h
Ġap reci
Ġmill ones
Ġhaci endo
Ġg es
ab ora
Ġe ficiencia
ĠDE S
Ġtar ea
Ġmar c
ĠS Ã¡nchez
de lo
Ġrecur so
ĠA D
Ġsuperfici e
ĠC AR
Ġ Ãī
Ġem erg
Ġp in
Ġcol oc
ĠMartÃŃn ez
om as
ĠS U
ĠD ecreto
ĠUn idos
gr ado
ĠÃºn ico
Ġdiag nÃ³stico
ĠeconÃ³m icos
Ġre cha
ĠespecÃŃfic os
Ġselec ciÃ³n
Ġ................................................................ ................................
Ġ er
ĠP Ã©rez
Ġgr acias
Ġpot encial
Ġt ÃŃtulo
Ġorig in
Ġgaranti zar
ÃŃ amos
Ġinter na
qui era
Ġde pendi
ĠS er
m er
Ġn utr
Ġcorrespondi ente
oft ware
Ġqu iere
Ġ7 2
ob ern
fici entes
Ġcol eg
dic as
Ġ6 8
ĠA h
ĠY o
ĠÃ©x ito
ĠVal le
Ġt asa
m l
ĠA y
Ġpropues tas
ir se
Ġf ru
Ġsec ciÃ³n
Ġ Ï
g re
Ġapro pi
are mos
ĠEdi torial
ĠÃ©s ta
acuer do
Ġdifer ente
Ġmecan ismos
D IC
econ Ã³m
Ġg uerra
genier ÃŃa
iv e
den a
Ġalim entos
Ġes que
Ġselec cion
ĠV I
ue ba
Ġpel ig
amb io
Ġrecom end
f f
lam ento
teri al
ÃŃ cil
ĠD IS
i k
Ġinte lec
Ġres olver
Ġre por
Ġ199 1
Ġres al
Ġhum an
Ġrecol ecciÃ³n
Ġin fec
Ġ8 5
Ġnos otros
Ġre ducciÃ³n
ĠE d
?? ??
Ġutil izaciÃ³n
es a
Ġno viembre
E A
Ġpro te
ĠO B
ĠFran cisco
ĠR os
Ġconci encia
Ġexp lica
Ġel Ã©ctr
n ado
Ġg ente
Ġen f
Ġa delante
Ġre cor
Ġb al
ul ado
Ġcual ita
C U
ÃŃ p
ÃŃ col
Ġcam ino
ĠR u
Ġ6 9
Ġa is
Ġ ib
ER O
Ġci tado
ac k
Ġcri terio
ong itud
ĠDis eÃ±o
ue las
Ġpos terior
ĠR am
Ġcateg orÃŃa
tro p
Ġgu ar
r Ã¡
Ġoper aciones
ĠFin almente
Ġningun a
Ġor g
Ġopin iÃ³n
ĠfÃŃs ico
ĠS ur
me j
ĠM ag
Ġcapaci dades
Ġsig ue
20 19
Ġeduc ativas
Ġe c
Ġpalab ra
ab ilidades
Ġ7 1
ĠRe y
ĠU r
is ten
Ġrelig ios
Ġtecn ologÃŃas
ed ro
ĠA mb
is tro
on e
Ġprofes ores
ĠS ub
ap a
Ġdis trito
Ġincl uye
T RA
b al
ĠS I
Ġcu antita
Ġpre cio
Ġrealiz an
idera zgo
Ġneces aria
Ġcos to
ĠpolÃŃ ticos
Ġutiliz ado
Ġhab lar
Ġcr u
Ġme z
s er
Ġpro pone
Ġter cer
Ġsim ilar
Ġes as
e Ã±
Ġdis posiciÃ³n
ici a
ti g
f as
Ġdis posi
Ġconta cto
ĠC Ã³mo
Ġtradici onal
Ġcomp rob
ĠC iv
Ġg eo
Ġs il
Ġentr ada
Ġb lo
d omin
Ġacu m
Ġplan ificaciÃ³n
ĠO p
ide o
Ġre cl
ol o
Ġpre cios
ĠRe al
Ġprogr am
iden cia
Ġintern acionales
to logÃŃa
Ġcomple ment
Ġrealiz ada
ĠS ch
Ġten dencia
ĠC I
Ġco tidi
Ġlabor ales
ces os
ĠC AP
ĠA P
ĠG e
E x
tor al
Ġindustr ia
Ġ199 0
americ ana
Ã³g icas
Ġdif ÃŃcil
Ġre ducir
Ġidentific aciÃ³n
Ġ199 2
able mente
ENCI AS
Ġcons ol
Ġinv ers
Ġconsecu encias
Ġno ve
aliz a
ĠL AS
Ġdivers idad
Ġpresent ar
ĠH ernÃ¡ndez
Ġsu f
Ġve h
Ġplan ta
Ġf a
Ġ7 3
http s
ĠTri b
Ġce le
ĠjurÃŃ dica
anti ago
ĠmÃ¡ ximo
Ġ ................................................
M S
Ġincre mento
Ġfamil iares
Ġqu in
P E
Ġdefin i
ues tos
ri os
ti ble
Ġaf irma
gr Ã¡fico
Ġpodr Ã¡
Ġmo tivo
Ġcol on
Ġex clus
Ġci t
Ġley es
Ġcon ex
20 20
Ġp rac
Ġrelacion adas
ĠTec n
te ca
Ġenferme dades
Ġinclus iÃ³n
Ġg er
ĠLa tina
Ġp obre
Ġall ÃŃ
Ġref lej
Ġof rece
Ġpr Ã³
z ada
Ġresid uos
ĠG o
Ġderi v
r ido
Ġhab ÃŃan
T ES
y n
Ġconflic tos
Ġcateg orÃŃas
ĠEv aluaciÃ³n
Ġsu g
Ġigual dad
20 18
fici o
Ġinter no
l ada
Ġsex o
Ġpres iÃ³n
Ġvalor aciÃ³n
Ġentre vista
ay a
Ġlugar es
Ġestr Ã©s
k er
les ia
il o
Ġraz ones
IV ERS
Ġestruc turas
Ġf lex
ĠpÃ©r dida
Ã¡ les
Ġabs olu
Ġsu p
uro pa
tro ducciÃ³n
Ġpre venciÃ³n
Ġten ga
Ġoportun idad
que z
pe ti
Ġab or
T OS
ĠlÃŃn eas
Ġconcentr aciÃ³n
ĠteÃ³r ico
Ġcaus as
Ġdis tancia
Ġe f
s ec
Ġmanten imiento
Ġinter v
ĠI den
Ġo fer
van cia
am o
Ġcal cul
Ġplante a
Ġse is
ĠM al
Ġ Ã¡n
ĠPro vin
ien en
ĠJ a
S i
Ġinf ra
ĠS obre
Ġpers onales
ar an
Ġconta min
ĠH ospital
Ġinno vaciÃ³n
Ġinfer ior
Ġa ire
ĠO c
Ġsub je
ĠS ala
Ġdeber Ã¡
Ã³me z
Ġdesp laz
d ra
Ġa un
f on
ĠÃŃn dice
Ġni Ã±as
gl Ã©s
Ġin con
ĠCon trol
Ġmetodo l
Ġter ren
ĠO R
tific ar
Ġestableci do
Ġcor te
ue ve
Ġapar tado
ĠG er
Ġcos a
ĠmÃºlti ples
Ġac tos
Ġc Ã©l
um a
tu aciÃ³n
ent re
Ġoportun idades
mi tir
ĠP ue
ĠG ru
Ġt hat
v ol
Ġsu ma
ĠE X
Ġf ab
Ġg o
ĠCiv il
Ġm oral
ur as
Ġobserv aciÃ³n
Ġsent encia
Ġrespec tivamente
Ġ9 9
ier te
Ġvis to
Ġmedi ciÃ³n
i x
ĠMan uel
tr ans
Ġtrans formaciÃ³n
ĠN orm
Ġsur g
m es
Ġapro vech
tag on
igu al
ĠA gr
ri Ã³
Ġ7 6
Ġac ce
Ġ7 7
ĠseÃ± or
B I
F ER
Ġent endi
tr Ã³
Ġpos t
Ġdo lor
ĠmÃŃn imo
Ġex terior
Ġcomer cial
Ġn acionales
Ġproduc tividad
ici on
vi amente
in de
Ġ7 4
is to
Ġa tra
di das
Ġnorm al
Ġcomer cio
Ġfun cional
ĠPro grama
Ġexp l
k a
Ġli ter
ĠSeg uridad
Ġac titud
ĠPro fes
Ġal rede
Ġincl u
pec ta
ĠO l
in t
is h
Ġpad re
re laciÃ³n
Ġfr on
Ġper fec
form as
Ġap render
Ġminu tos
Ġpreten de
Ġse par
Ġdich os
Ġvol umen
Ġim pres
Ġneces arios
ac o
Ġbus car
Ġse ptiembre
Ġ1 20
Ã¡ ticos
ÃįT ULO
Ġviv ienda
res a
ĠP OR
ĠCi udad
fici al
k s
Ġauton omÃŃa
Ġ ....
te la
ob laciÃ³n
Ġv ÃŃn
Ġunivers idad
AD OR
ar o
ĠS us
Ġs Ã³l
Ġpro gres
Ġf ra
Ġ7 8
Ġrequis itos
C E
ĠD on
esti ones
ig os
ie dad
Ġreflex iÃ³n
ĠEduc ativa
til la
Ġflu jo
Ġpre ocup
or o
ĠS antiago
Ġequ il
Ġ8 1
t ador
ment al
to col
id amente
Ġciudad anos
iz ada
tra to
Ġequ ival
Ġneces ita
Ġque da
uy Ã³
Ġinter c
Ġprov oc
Ġautor idades
ION ES
es tudi
Ã© u
Ã©n dose
20 17
Ġpre par
Ġp edi
ve lo
Ġf ebrero
Ġe urope
ĠÃºn ica
or e
ĠhistÃ³r ico
Ġconstr uir
tor no
Ġex tr
OR M
e duc
Ġ0 1
ĠB r
ĠG R
ĠPor centaje
Ãĳ O
g ada
Ġcon ec
Ġsignifica tivo
ĠEs peci
Ġposib ilidades
Ġingres o
Ġju icio
ed ores
Ġanim ales
ar lo
as te
ĠJ un
ĠH er
ĠT O
n et
Ġf igur
Ġemp ez
ĠC U
u dades
Ġapar ece
t arios
ĠRe v
Ġam ena
Ġcom ent
e os
Ġv ers
Ġar ch
Ġper tin
ĠN i
ĠR om
ĠNe w
ĠP an
Ġ8 3
Ġm ental
Ġdefin ir
an zas
Ġpro ducir
Ġtal ler
Ġproble mÃ¡tica
Ġrespe to
Ġcu idad
Ãį N
l ad
Ġmo d
Ġdis crim
Ġexp lo
ĠM A
ĠEsc uela
Ġsol amente
pon en
n ing
Ġ7 9
ĠDe termin
Ġcar rera
Ġplan tas
Ġv ar
Ġfin almente
ĠÃ¡ r
Ġdef ensa
ĠP edro
Ġalcan ce
ci r
Ġaquel la
Ġrecon ocer
ta je
ĠmÃºs ica
ord in
Ġpropie dades
j es
ĠÃ³r gan
Ġf emen
Ġmom entos
tiv idades
Ġautor idad
ĠInter na
pe t
Ġs uel
pen dencia
Ġespec ÃŃfica
ĠF ig
Ġhab la
ÃŃ z
Ġa gres
Ġesti lo
Ġoper aciÃ³n
Ġde r
Ġa gra
Ġocas iones
w e
I X
Ġdel ito
Ġhi jo
am an
Ġemoci ones
i aciÃ³n
ig uel
qu ir
ag e
i ado
Ġ8 4
Ġl ic
Ġr en
Ġf ol
l ine
Ġmun dial
Ġdesta c
Ġrealiz adas
ĠV ic
Ġmej ores
Ġn arra
Ġf ic
Ġj udicial
Ġreg las
V ID
Ġp ul
Ġv enta
Ġgar ant
Ġprim aria
Ġsegu imiento
b en
Ġcomer ci
Ġes tu
N O
Ġqu ÃŃm
pr im
iv amente
Ġcier tos
ĠS ecre
ĠB al
Un ivers
Ġdis capacidad
ĠR ob
Ġ !
Ġda Ã±o
ĠÃŃtem s
Ġsub s
tu des
Ġsignific ado
C C
Ġimp ac
Ġac ces
ĠdÃ©c ada
Ġespeci e
qu ia
Ġlab ora
Ġm ÃŃ
Ġe ficacia
iste mas
l ores
ibr io
Ġa gosto
Ġconsider an
r or
Ġ ................................
Ġme tas
Ġvelo cidad
ĠdinÃ¡m ica
ĠM E
Ġag entes
Ġsu pone
ĠLe Ã³n
ĠF on
ĠH a
ĠM as
B RE
mÃ¡ tico
Ġ iz
o peraciÃ³n
aliz ados
Ġab and
cep to
Ġeduc ativos
Ġas igna
ĠD ia
EC H
Ġadminis tr
Ġconseg uir
Ġgra ve
ĠA ut
ĠPol ÃŃtica
Ġdi o
Ġerr or
d ado
Ġa z
Ġcient ÃŃfica
Ġc err
Ġesfuer zo
Ġalmac en
ĠS h
Ġcier ta
ER A
Ġsim ilares
Ġnegoci o
t n
ĠB el
Ġde por
i ti
Ġbas es
Ġpodr ÃŃan
ustr aciÃ³n
Ġlib ros
Ġ je
Ġs oftware
Ġo cu
Ġur ban
Ġefec tu
20 15
Ġap ari
d ores
Ġran go
Ġambient ales
Ġplan o
ib il
Ġci encias
Ġaus encia
h ol
ĠC ab
lo w
ru z
den cias
Ġcons igu
P O
ĠT ur
p ue
m s
Ġcon vers
ĠB er
Ġte x
Ġen de
aci ona
Ġbas ado
EN D
Ġpromo ver
Ãº an
ĠTrib unal
Ġsecund aria
Ġh on
ĠCon greso
den te
iz ados
Ġin glÃ©s
ĠA unque
Ġop tim
ĠH ay
an ÃŃa
Ġ8 2
ĠEstudi o
Ġdes en
U ES
Ġpermi ta
Ġraz on
Ġcapaci taciÃ³n
Ãģ N
Ġd uda
ĠSu perior
Ġ8 6
Ġf rag
Ġv entas
Ġcolabor adores
ĠespaÃ±ol a
bi Ã³
IC AS
Ġpose e
Ġt est
Ġinform e
Ġa tribu
grÃ¡fic as
Ġad quis
ĠF r
P S
Ġac tivos
Ġalrede dor
ĠeconÃ³m icas
ĠV i
il os
AR IA
Ġpr os
ce di
ĠCom er
Ġ20 24
Ġ8 7
ĠP Ãº
w n
h n
Ġoblig a
Ġar ro
Ġdesarrol la
ĠP L
ĠDe fin
ar y
ĠlÃŃ mites
Ġefec tiva
Ġb re
Ġac titudes
Ġreg ul
Ġinci dencia
se gu
ĠCom isiÃ³n
ĠÎ ¼
20 16
ĠP on
z Ã³
Ġcier tas
Ġac tiva
Ġvolun tad
Ġinvoluc r
om os
ĠI l
ĠD im
ti les
ĠM Ã¡s
Ġpres entes
Ġmenci ona
Ġtra tar
ĠCap ÃŃtulo
Ġe ficiente
Ġmedi r
ĠA S
Ġadul tos
ĠT IC
iemp o
Ġcons ta
or Ã¡n
Ġgas tos
Ġcomp ra
Ġmov imientos
Ġk g
ĠC H
Ġob tuvo
ĠD ÃŃa
ĠÃºn icamente
Ġdiscip l
om Ã©tr
Ġasoci aciÃ³n
Ġencontr amos
ĠUn idad
ĠSe Ã±
ĠP u
Ġexp lor
Ġreg ulaciÃ³n
Ġadministra tiva
ĠL eg
Ġm it
Ġreco g
V A
ĠB iblio
Ġcl ara
Ġdepen de
AD A
tu almente
ĠDirec ciÃ³n
ĠTi po
Ġclas ificaciÃ³n
Ġestudi ar
Ġb or
Ġpas a
ĠB e
ogra fÃŃa
as as
ur aciÃ³n
Ġcele br
ĠG Ã³mez
A c
Ġfinanci era
M O
EN S
Ġdesta car
Ġtr i
tor i
Ġhab itantes
t Ã©
Ġ9 3
ĠcÃ¡l culo
ĠComun icaciÃ³n
Ġbas tante
Ġv iene
Ġ9 1
ĠAl gun
ĠE uropa
ĠPro yecto
ĠC A
Ġter ap
Ġex posiciÃ³n
Ġrelev ante
Ġfon do
ĠX V
Ġcon oce
Ġdin ero
Ġutiliz Ã³
com un
di os
ĠC ur
Ġpropor cion
Ġasoci ados
C T
g ue
ient al
Ġh ospital
G RA
ĠP l
ĠT en
Ġ8 9
Ġpre val
Ġencues tados
Ġl in
Ġes encial
Ġorient aciÃ³n
Ġj o
es o
or ia
Ġm ac
Ġs ie
Ġv as
Ġencontr Ã³
Ġbenefici o
ĠG ar
ĠSoci ales
ĠA Ã±o
ĠD r
pro duc
Ġref le
g ener
ĠF ern
Ġpu do
Ġcon clusiÃ³n
Ġpermit an
Ġcon clusiones
Ġactu almente
Ġexpres a
Ġ8 8
Ġ om
Ġ9 6
Ġmanifi es
Ġv eg
Ġre duci
ĠM us
recu encia
Ġcump le
ĠS ÃŃ
c endi
S N
P r
Ġpa z
Ġn orte
Ġsal ida
Ġutiliz ados
Ġta mp
h an
ĠMe todo
ĠP ER
ĠvÃŃcti mas
Ġma tr
Ġsus titu
ol e
Ġform al
Ġsu m
ĠA gu
ĠOrgan izaciÃ³n
ĠGru po
ĠM ED
Ġtrans vers
Ġ198 9
Ġco eficiente
ĠDer echos
Ġhab l
Ġespeci fic
Ġvo z
G R
l ÃŃn
cur so
Ġ ................
Ġ9 7
Ġci udades
Ġcons ulta
Ã¡m ara
Ġsolu ciones
ul tado
Ġpresent aciÃ³n
Ġex pecta
ĠM c
s ion
Ġentre vis
Ġele v
ĠcÃ©l ulas
Ġcar b
Ġre ales
ĠAp lic
Ġ1 10
ĠN Ãºmero
Ġen erg
Ġl iderazgo
ar qu
Ġescri tura
ten er
Ġperman ente
Ġorig inal
Ġgu ÃŃa
Ġcircuns tancias
Ġplan es
ier ra
ĠM iguel
Ġrespons able
Ġ1 11
ue lo
Ġl ongitud
Ġaum ent
Ġo x
ri e
Ġdig itales
ad ic
ĠAN EX
Ġpromo ciÃ³n
Ġest Ã©
Ġtrabaj ador
Ġte j
ĠE r
s us
ic ultura
Ġest ados
ĠBan co
ĠJ e
ist ente
Ġar ri
en as
Ġcap az
Ġev entos
u re
Ġ9 8
posi torio
Ġres erv
Ġhab i
Ġhor iz
Ġdomin io
ĠMedi o
ĠIn formaciÃ³n
Ġdes ap
ĠPs ic
Ġdich as
tic s
al o
Ġsim ul
ĠConstitu cional
Ġ9 2
Ġci ne
Ġres ta
de res
Ġdej ar
Ġad qui
ĠPres s
Ġafec ta
Ġen ci
Ġten ÃŃan
it ado
ĠEs tad
Ġa ta
al e
ĠGr ado
Ġcor riente
qu en
Ġelec ciÃ³n
ĠPa tr
fica z
th er
ĠEs paÃ±ol
es tre
Ġg l
Ġutiliz an
S eg
Ã³m ica
Ġgran de
ĠcompaÃ± eros
dic ciÃ³n
Ġt esti
Ġac ciden
ĠN av
Ġdesarroll ado
Ġr ural
ĠL ib
Ġconform e
Ã¡lo go
ÃŃ do
Ġestruc tur
ĠP R
Ġten gan
Ġcontinu a
Ġex ten
ĠAn d
Ġescen ario
Ġoblig aciÃ³n
Ġpueb los
ĠS il
Ġcon lle
Ġexplic ar
Ġconcep ciÃ³n
Ġnorm ativa
ĠIn dustr
ÃŃcul as
p lan
ĠE m
Ġcompon ente
ĠVal or
f era
Ġre ca
Ġd ando
ĠDe partamento
Ġre par
k i
ig a
ĠNuev a
Ġeta pas
ĠespecÃŃfic as
Ġinv ent
ĠA M
Ġposi tivo
c m
Ġescri to
Ġper iÃ³
Ãģ L
ĠM il
Ġenf oc
lar es
Ġcu adr
Ġdismin uciÃ³n
ĠEn cu
Ġde cre
Ġpos teriormente
ĠInterna tional
C ar
ĠUnivers ity
ĠS ta
Ġv oc
Ġl Ã³gica
le y
Ġesta ban
Ġsi tio
ĠindÃŃgen as
Ġiz quier
Ġmit ad
g ados
Ġdo ble
Ġr ent
Ġimp uls
Ġim pos
Ġneces arias
er e
t oma
Ġcul tivo
Ġag reg
p us
Ã³r do
ĠB ras
ĠcrÃŃ tico
Ġparticip ar
ĠV AL
Ġoblig aciones
it Ã©
Ġtamp oco
Ġex cl
p ru
h u
or ge
ton ces
and le
L E
ÃŃtu los
ĠM ol
Ġcu estiones
Ġor al
Ġreg ional
Es ta
tre o
Ġrele vancia
Ġf o
? ,
ĠC ultura
Ġcomun es
Ġcab e
ĠS im
Ġdeb erÃŃa
ĠF or
Ġlog ro
Ġalum no
tr es
M ar
Ġf rac
a der
Ġac re
ti po
C omo
Ġbuen o
V IS
c y
Ġdoc tr
ph p
AR I
Ġr ig
Ġedi ciÃ³n
b Ã³
Ġurb ano
Ġviv ir
Ġluc ha
Ġv ersiÃ³n
Ġcorrespondi entes
Ġdis tribu
ta mientos
Ġindi s
Ġagu as
Ġprimer as
ĠInstitu ciÃ³n
Ġ9 4
uc a
Ġn omb
Ġcir cul
Ġhog ar
Ġm g
Ġnues tras
Ã± ad
C o
Ġdisc usiÃ³n
Ġterc era
ĠPÃ¡g ina
u de
Ġv Ã¡l
Ã© ase
ĠJ ur
ĠF is
Ġdes cripciÃ³n
ĠH ab
D is
ys tem
e da
ed or
ĠT R
ĠE j
Ġpublic aciÃ³n
ĠA B
ĠcientÃŃfic o
Ġmunicip io
Ġ15 0
ĠGr Ã¡fico
Ġl ingÃ¼
Ġindustr ial
ĠcrÃ©di to
Ġh all
Ġfinanci eros
ĠP Ãºblica
Ġan s
Ġreg res
ĠO s
ene z
ĠT RA
Ġalterna tivas
Ġpop ular
Ġm igr
n eces
ĠAs oci
ti os
Ġpre ci
Ġap lica
20 21
ĠObje tivos
Ġpon e
Ġentre vistas
ĠJ es
ĠIn troducciÃ³n
Ġpatr imonio
Ġdi a
Ġfin ales
Ġsignifica tivas
ad ig
Ġconsider aciÃ³n
vo ca
Ġconserv aciÃ³n
Ġconsider ado
Ġin cu
aci dad
Ġesc al
ĠC L
Ġvir tual
ĠIN S
un o
Ġsu puesto
AN O
in d
Ġsem ana
m Ã¡s
ent encia
M a
Ġrespon der
ht ml
Ġper u
Ġconduc tas
Ġmecan ismo
Ġrad io
M IN
al th
Ġpar t
Ġh ici
ĠB as
ĠR EC
Ġalum nado
Ġexist entes
Ġg obern
To tal
Ġma triz
ter as
t he
TIV O
E E
it es
Ġestable cimiento
Ġfilos ofÃŃa
ĠM i
Ġal tura
ĠT al
Ġop ciÃ³n
20 14
ĠC alidad
ĠÃ³ pti
ĠIN V
Ġex pedi
Ġcol aboraciÃ³n
Ġsu minis
ÃŃcul a
ÃŃ tico
Ġac tivo
Ġeviden te
ĠmÃ¡ xima
er dos
di rec
ĠS AN
or ro
Ġpas ar
OL OG
ĠG ra
Ã³g icos
Ġp ena
ti cias
Ã± ez
Ġre cep
Es te
ment aciÃ³n
tor y
Ġmanifi esta
Ġconte xtos
Ġden s
Ġse man
ys is
or den
ar tic
Ġdes car
Ġcal le
s t
ĠhÃ¡ bi
f os
AR IO
in vestig
Ġman os
tis mo
p p
Ġinte ligencia
ĠseÃ±al ar
Ġtemp oral
dis cip
ĠOb serv
Ġh ig
IVERS IDAD
ĠbÃ¡s ica
ĠT a
Ġanti gu
Ġde c
Ġempres arial
ĠmÃ© dico
ĠEs p
ic s
Ġins tancia
log ÃŃas
b ido
Ġvis ual
Ġpa is
velo p
Ġdur aciÃ³n
el la
AN A
Ġse cre
Ġdes igual
mb r
ĠAu tor
Ġes tuvo
b us
: :
ĠJ ulio
Ġobten ido
mp los
Ġcomun ica
co g
Ġal tos
Ġcon tiene
Ġinfra estructura
Ġconstituy en
Ġcer ca
Ġcomp lic
ĠCar ta
Ġbrin dar
ĠB i
Ġdes acuerdo
Ġcor r
Ġres tric
ĠNo ta
Ġcu adro
fec to
ier an
ĠAr ch
ĠPro duc
Ġconsider ando
us a
Ġreg iones
ĠC Ã³rdo
l la
iz an
Ġrel aciona
l d
w s
ĠAl to
ĠMo delo
ĠB ajo
Ġalterna tiva
Ġfi j
ĠT om
ila teral
is iones
ĠtÃ©cn ico
Ġtemp or
Ġpresu puesto
l lo
te x
ĠUn iÃ³n
h andle
Ġno ta
Ġdes af
y e
ĠestÃ¡n dar
ĠV ir
Ġcorre l
Ġocur re
Ġsoci edades
im as
Ġincl uir
Ã¡ ticas
ĠOb tenido
ĠS P
ĠD ie
ĠArt ÃŃculo
Ġtoda vÃŃa
Ġs Ã©
Ġindi can
Ġn Ãº
ĠEs trateg
i j
Univers idad
Ġses iÃ³n
t z
CL US
ĠÃº til
vil la
G EN
Ġcu an
ĠPr incip
i fica
peri ores
Ġpermi tiÃ³
ĠF u
P RO
Ġmunicip al
Ġrelacion ado
Ġdi ez
ĠB ur
Ġmir ada
Ġcomple ta
Ġfuer zas
Ġutil idad
Ġtar de
Ġs enci
Ġde p
Ġurb ana
is tr
ÃŃ ticas
Ġimplement ar
Ġ3 00
Ġj uez
Ġre forma
Ġar tes
Ġaum entar
Ġpre viamente
ĠpÃ¡g ina
Ġnum eros
Ġe ficaz
ĠB en
tis tas
om en
Ġte orÃŃas
y ch
Ġrecib ir
Ġin tenciÃ³n
ĠC ri
ĠCO VID
ĠF echa
s obre
Ġexper tos
ĠC ul
Ġpobre za
Ġdetermin a
ĠCar acter
ĠO tro
Ġdific ultad
C ol
m Ã¡n
x ic
k ing
ĠEx iste
Ġdeb ate
in ado
Ġpri vado
Ġde ja
Ġenferm erÃŃa
el ec
G r
Ġpro du
Ġesc uelas
Ġparticular es
Ġ198 8
Ġcomple j
Ġau tÃ³n
g encia
en den
Ġpot encia
ĠU S
Ġacce der
ĠAn te
.... .
Ġap re
Ġpo d
Ġpre vis
Ġfun d
Ġaproxim adamente
z ando
tom as
........ .
- ,
in i
.... ..
Ġrelev antes
tal idad
T r
Ġre p
Ġen vi
ues ta
Ġins er
ti das
Ġindependi ente
u ta
ĠCON S
ien das
ĠIn genierÃŃa
ĠIN TER
u ri
ĠN orte
n dice
ab lo
Ġpor cent
enci onal
ĠA U
Ġmencion ado
un da
Ġj er
Ġll ama
Ġentre ga
ÃŃ ri
Ġcomple to
Ġsu ces
Ġtendr Ã¡
Ġadquis iciÃ³n
Ġpot enci
Ġ5 00
ĠAut Ã³n
Ġpro tagon
Ġa de
Ġerr ores
Ġobten ciÃ³n
Ġp Ã¡r
Ġrealiz ados
ĠD urante
ĠacadÃ©m ica
........ ..
Ġofer ta
ĠL ic
Ġmar keting
Ġtu vieron
ĠhistÃ³r ica
t l
bl ico
Ġbas a
ĠB us
ĠM ed
ĠC er
Ġcomple jo
ĠDes cripciÃ³n
til lo
Ġpan demia
il es
Ġb ur
Ġfis cal
Ġayud ar
Ġtur ismo
Ġan ual
Ġcompos iciÃ³n
Ġrec ord
Ġr acional
Ġprac tic
Ġterren o
on d
Ġdetermin aciÃ³n
Ġdi vi
Ġtotal mente
Ã³r m
is a
Ġval idez
Ġus ar
di eron
ĠCom p
ĠbÃ¡s icos
Ġ0 2
20 13
Ġvis u
ti ma
Ġcomp ara
gr am
il d
ĠDa tos
Ġdetermin ada
Ġadministra tivo
Ġlle ga
Ġcomer ciales
ĠB io
ĠSoci edad
oc en
Ġcoin ci
Ġaliment aciÃ³n
Ġrepresent an
Ġde partamento
Ġent ren
Ġf el
ci to
Ġbas ada
it arias
h i
ĠAh ora
tÃ³ lica
Ġactu ar
Ġintelec tual
ĠC e
ĠC E
h um
ĠM er
Ġr ÃŃo
Ġais l
Ġac onte
Ġser es
qu ina
Ġagr ÃŃcol
Ġcor to
Ġadap taciÃ³n
Ġindi rec
Ġt ensiÃ³n
Ġad quir
Ġform ar
ci mientos
Ġcol um
ĠA na
ci dos
Ġtradici onales
pe ar
ĠDÃŃa z
Ġhi per
Ġactu ales
Ġesta mos
ĠL uego
Ġcl Ã¡s
Ġrealiz aron
Ã¡n ico
Ã³s itos
ĠC AS
ĠA cu
Ġinf antil
Ġco opera
g es
Ġre per
Ġpriv ada
Ġmas cul
ig ni
Ġconcep tual
Ġve ci
und aciÃ³n
Ġso porte
DUC CIÃĵN
inde x
Ġampl ia
ĠAm eric
Ãº r
Ġactu aciÃ³n
Ġcolec tivo
ru j
Ġindividu ales
ĠC las
Ġenti ende
Ġres iden
ĠI ma
Ġtotal idad
C ap
Ġequil ibrio
Ġprob abilidad
gr ad
gen o
x i
o z
Ġcompr ome
Ġprev io
Ġp las
ĠMedi a
oo d
Ġtu tela
ĠJus ticia
Ġci f
G U
Ġcontrib uir
Ġa Ã±ad
ĠOr den
da go
Ġsignifica tivamente
tud y
u til
Ġleg ales
Ġmon itor
m m
te mp
ab ras
Ġasegur ar
h is
Ġaplic aciones
ĠĠ Ġ
Ġesp era
Ġampl io
Ġde v
ĠObje tivo
ĠF re
Ġhi po
Ġpre domin
k o
Ġplan e
ER V
Ġcorrec ta
ven ir
edi a
Ġs ta
il aciÃ³n
ENT ES
s or
ĠBras il
Ġv ideo
O b
Ġvari edad
Ġn arr
Ġexpecta tivas
........ ...
Ġag ro
Ġvari aciÃ³n
ĠC ub
Ġd ada
ĠS ec
b ar
Ġco her
e jo
Ġac t
Ġtrad iciÃ³n
discip lin
di cional
Ġperson ajes
Ġexist ente
h ab
s en
ĠcompaÃ± ÃŃa
ĠMetodo logÃŃa
er aciÃ³n
Ġgener an
Ġmerc ados
Ġsab e
Ġac ab
ĠY a
ĠServ icio
............ ..
Ġofrec er
Ġdes ign
a decu
Ġd r
Ġneg ativa
Ġ10 1
G A
Ġindic ador
m ana
Ġconv ivencia
ĠIN F
Ġdescrip tivo
f l
Ġesta bilidad
Ġlegis laciÃ³n
Ġrecon oce
Ġmil itar
Ġsosten ible
ĠD O
el lo
ĠCÃ³rdo ba
Ġpeque Ã±os
b erg
de termin
EN ER
Ġfigur as
ta mos
Ġp ien
Ġconex iÃ³n
val or
Ġfundam ent
ĠIn tegr
bi tr
Ġesque ma
Ġas istencia
............ .
do c
Ġp i
Ġ ul
Ġsenti r
ĠS E
Ġllam ado
ĠY ork
Ġdescri be
Ġdo i
M I
Ġdispon ible
Ġb eb
Ġc Ã³digo
ENT OS
Ġhal laz
Ġcontemp orÃ¡n
er al
Ġpo dÃŃa
tr Ã¡s
ĠC ada
i tim
Ġplata forma
V AL
or it
ĠF amil
tor ÃŃa
Ġestableci dos
.... ...
Ġensay o
us e
Ã¡c tica
ĠEn tonces
cul tural
ÃŃ da
ĠDo cu
Ġs or
ĠRes earch
tis fec
enti miento
Ġr eno
ĠT A
ar la
Ġap rendi
ĠA le
Ġa re
der os
Ġex tensiÃ³n
o cu
Ġprote ÃŃn
ĠC C
el i
ti d
gra f
ĠÃ© tica
ĠT iempo
rup ciÃ³n
ĠD entro
ĠB I
lic os
Ġesc uch
ĠmÃ³ vil
Ġdif usiÃ³n
Ġac or
ĠO n
di m
Ġdemocr acia
Ġcolec tiva
Ġcab eza
ĠTo do
gu ar
ĠFe der
Ġmencion ar
20 12
ĠRe d
Ġf l
gu ay
Ġvir tud
Ġprev ia
Ġl an
un cia
Ġper ju
og Ã©n
s al
ĠVal encia
Ġrecu peraciÃ³n
ĠI C
min a
............ ...
l im
ĠP RE
Ġdi bu
ier o
ĠIn dic
Ġle er
ĠD ec
ĠX IX
ĠEl ec
ir Ã¡
ĠMun dial
Ġ0 3
Ġintens idad
Ġsus t
ĠAdminis tra
Ġreco p
ĠIn form
ĠPen al
Ġdi Ã¡logo
ĠC ruz
Ġsus tan
Ġemb ara
u o
Ġefec tivo
ĠMe j
Ġfacil itar
Ġaf ron
Ġen unci
Ġun i
ac teri
j ec
Ġclar amente
g aciÃ³n
ULTAD OS
Ġdi ario
cu al
ier ta
an da
Ġsenti mientos
Ġ198 7
Ġdis posiciones
ar ro
Ġf ir
S E
ta ba
Ġ198 6
Ġdescu b
Ġgener almente
Ġ10 5
var ez
r Ã¡n
ur ales
Ġinteres ante
s an
Ġgr ad
Ġmo tivos
Ġ................................................................ ................................................
Ġex cel
Ġb ol
Ġestad ÃŃstico
qu in
Ġdes a
Ġestad ÃŃstica
Ġrev el
ĠEn fer
Ġf ib
ĠMar co
Ġgas to
P er
U na
olu cion
Ġre almente
Ġconsum idores
Ġconsum idor
ter n
Ġrefer ente
it ando
Ġpropues to
ĠCu adro
Ġsu periores
Ġpare ja
Ġdes eo
ici onal
ĠF recuencia
Ġdistin gu
! !
tre am
Ġ1 12
---------------- ----------------
ĠC OL
ter ÃŃa
Ġmostr ar
t ÃŃ
Ġincl uyen
Ġin cen
Ġtraduc ciÃ³n
ti a
o d
ri endo
Ġre y
s es
pre taciÃ³n
Ġesfuer zos
Ġob tiene
Ġconcl uye
un g
Ġdes tino
Ġacep taciÃ³n
stitu cional
ĠTO TAL
20 22
Ġcomp rendi
Ġecu aciÃ³n
Ġcur ric
Ġc Ã¡n
ĠC OR
ien es
Ġform an
Ġcuar to
Ġas es
um o
ĠC R
Ġbre ve
Ġcu Ã¡l
Ġi i
Ġca dena
Ġapor te
Ġman ip
Ġf ases
Ġprofundi dad
Ġclas ific
ci endo
Ġconver tir
Ġli qu
ĠP oblaciÃ³n
Ġap rendiz
ĠRec ur
ĠB lan
Ġre mo
c le
Ġpro tocol
Ġc ara
i des
Ġpa gar
T S
Ġju z
ÃŃri tu
or as
Ġ10 3
Ġtrans misiÃ³n
Ġlimit aciones
el es
a to
pers onal
Ġdesta ca
k y
C ES
Ġhub o
ĠP A
p lica
C h
e f
1 10
mpl imiento
Ġcomplej idad
Q u
G O
az Ã³n
Ġarquitec tura
ĠT ras
gr u
ĠJ ul
Ġinno v
Ġam igos
Ġf ar
Ġcu entan
is m
P I
l en
ti eron
ĠSu per
Ġexp ans
Ġterri torial
ĠP i
erc ado
obier nos
ara go
Ġapari ciÃ³n
Ġqu iÃ©n
ĠPro ble
ĠPar ticip
Ġ198 5
Ġincl uyendo
Ã³ p
ĠM Ã¡
Ġform ul
Ġmas a
Ġofici al
Ġco operaciÃ³n
Ġle van
ĠlÃŃ mite
Ġapar ecen
Ġdebe mos
ĠG as
pi ra
Ã³lo go
tal la
IS IS
TO D
dr ome
cep ciones
Ġintern et
ĠS AL
Ġcu entas
Ġex ac
ĠFern ando
Ġv ie
teri ales
Ġeje mplos
Ã³n de
go v
ACION AL
Ġre acciÃ³n
ĠS r
Ġpre dic
Ġinvestig adores
ĠclÃŃn ica
00 2
ĠG uerra
ĠMa es
Ġdirec to
jer os
Ġtransvers al
Ġt re
Ġdi jo
iment aciÃ³n
Ġconoci do
Ġdescri bir
Ġsol a
ÃŃs ica
dific aciÃ³n
Ġas imismo
Ġac e
Ġ www
Ġpresent Ã³
Ġa j
ĠF o
ĠfenÃ³m enos
is tir
P OR
Ġ ig
ĠF er
ber to
ĠÃģ l
IS SN
Ġans iedad
Ġre vista
s ci
d ares
Ġ Ã©n
Ġcre o
ER N
Ġconf irm
Ġconfi abilidad
ĠV il
Ġcaracter ÃŃstica
Ġparti do
Ġcontrib uy
20 10
ĠTo dos
Ġdes c
Ġabs or
Ġpro hib
C R
Ġest rech
ad re
Ġutiliz ada
ent s
Ġpos icion
Ġpre paraciÃ³n
re mos
Ġpar adig
um bre
medi o
Ġau tom
Ġw h
ad ie
tor as
ĠO tros
ĠS entencia
CI AL
Ġmad res
Z A
di ciones
de o
Ġpropor ciÃ³n
Ġv ÃŃas
ĠV illa
g ob
Ġide al
Ġabord ar
Ġmuc ha
Ġcal ific
ti bles
Ġprecis amente
P AR
Ġagr up
Ġrent abilidad
Ġs p
Ġpose en
Ġinfl uye
Ġ198 0
Ġi di
Ġlo gra
Ġfinanci ero
BL E
gr amas
ĠIn forme
ion ar
Ġcr isti
Ġrecu per
di ces
Ġdepen dencia
Ġperten eci
ter s
es c
Ã© ticos
d ulo
ĠbÃ¡s icas
ĠL oc
Ġre tro
O r
D AD
Ġg ri
Ġtier ras
Ġdel itos
er to
V al
iz aciones
ĠsÃŃn tomas
v iv
P a
Ġhay an
ĠÃ©s tos
lan o
Ġjuris pru
Ġve in
Ġaplic ada
ĠV e
Ġdesemp eÃ±
T C
ESTI G
Ġin e
Ġsur ge
Ġescol ares
Ġpo dido
Ġinterc ambio
Ã©n do
ĠPr ueba
cas o
ti dad
ĠD I
ĠA ca
in ta
ill er
Ġman tiene
ĠI S
c us
Ġconfigur aciÃ³n
Ġrelacion ada
am ble
Ġconcl uir
Ġf Ã³rm
Ġelectr Ã³nico
Ġdens idad
ti fica
Ġesta tal
Ġpo cos
tu vieron
Ġproduc en
Ġv ital
Ġcoord inaciÃ³n
ge ment
ĠD an
Ġp ier
j an
olog ical
Ġcambi ar
ĠLa tino
Ġlabora torio
i amente
Ġabor da
Ġmues treo
AN CI
ĠÃģ rea
ĠCa tal
Ġexis tir
ĠJes Ãºs
Ġfortal ecer
ĠĠĠĠ ĠĠĠĠ
ceden te
iv idad
ac ho
Ġrela tiva
ĠL E
ĠHum anos
Ġla tino
Ġaum enta
CLUS IONES
20 11
Ġin tr
Ġpresent ado
w er
ĠPla ta
Ġsu fr
ĠI D
M o
Ġof reci
om ina
Ġ10 2
g ulo
Ġh ÃŃ
ĠAsoci aciÃ³n
ma y
ri as
Ġac erc
ic ha
Ã©n ez
Ġre peti
Ġmar cha
Ġpeque Ã±as
esti ma
ĠtÃ©cn icos
Ġcos tu
ter os
Ġesc as
Ġpres taciÃ³n
grÃ¡fic os
Ġrecom ienda
M e
Ġpubl icidad
Ġ it
Ã¡ b
le d
Ġcontrol ar
Ġ ?
TIV OS
Ġad quier
Ġinvestig ador
ĠDes puÃ©s
g ular
Ġpersonal idad
Ġblo que
Ġref or
ĠVari able
pear man
Ġciudad anÃŃa
ĠvÃŃcti ma
e cimiento
Ġpas os
ĠE DUC
ĠCent ral
di dos
z ados
Ġno che
ic ÃŃa
Ġg al
Ġavan ce
fas is
tor nos
c ada
Ġras gos
ĠTÃ©cn ica
Ġal co
Ġm ic
ĠMu jer
ĠL in
Ġcer can
Ġline al
Ġespeci ales
ĠIg lesia
Ġafec tan
Ġsegu ido
en se
Ġestruc tural
Ġpelig ros
Ġimp uesto
Ġno ciÃ³n
Ġjue gos
Ġtom ando
f al
s ta
Ġcu Ã¡les
C N
Ã³n icos
Ġg ol
ĠP ublic
fici os
Ġp ec
1 20
Ġag re
ruj illo
dr Ã¡
ĠfÃŃs icas
pon s
f ru
im Ã©nez
arago za
uer to
Ġh as
Ġgr Ã¡fic
ĠF al
Ġpro ven
ib e
Ġregis tros
Ġvent ajas
Ġextran j
tric es
ti mo
ĠCi encia
ĠIns trum
Ġmez cla
Ġunivers idades
Ġ ic
ĠDetermin ar
Ġdeb a
ĠdidÃ¡c tica
e go
ici al
Ġinstal aciones
Ġnegoci os
Ġpeque Ã±o
IS T
Ġconte mpl
ĠCor por
aliz adas
Ġsue le
Ġo cho
Ġgr Ã¡fico
TIV A
Ġdisposi tivos
Ġrecon s
Ġedi ficio
Ġses iones
ĠN eg
Ġcer eb
Ġl ista
Ġc erc
Ġafirm ar
ĠSe villa
w a
Ġmar gen
Ġdiscrim inaciÃ³n
fic o
ĠEcon omÃŃa
Ġin ciden
ĠDefin iciÃ³n
Ġhoriz on
Ġcoleg io
Ġcam pos
res as
Ġpie zas
ĠJ orge
Ġdesarrol lan
ĠC D
ĠIn di
Ġemerg encia
Ġb os
Ġsigu iendo
pres ent
og le
ĠHum an
tro pol
tar Ã¡
Ġcur r
Ġpobl aciones
Ġim per
Ġda Ã±os
ĠO N
ĠÃį ndice
Ġconv ierte
ma il
Ġf ras
Ġlec tor
ĠRu iz
Ġsus tent
an cias
Ġsegu ro
ĠÃ¡r bol
ĠEurope a
ĠReg lamento
Ġmer can
Ġllev Ã³
Ġmo dos
ĠF IN
Ġproteg er
Ġvol ver
Ãºr g
ĠpÃ¡g s
Ġexplo taciÃ³n
M IENTO
Ġcompor tamientos
Ġpues ta
Ġpeque Ã±a
Ġaprendiz ajes
Ġorgan ismos
Ġpodr Ã¡n
Ġpres idente
ĠU s
Ġaplic ado
Ġan o
IC OS
Ġcob ertura
ul t
ĠES TU
ac as
ĠRES ULTADOS
velop ment
Ġdefini tiva
EL A
Ġbrin da
h abil
Con s
AN D
ĠC la
Ġps ico
ĠCu Ã¡l
Ġb ilateral
Ġre cre
Re vista
Ġ198 4
Ġest Ã©n
E F
TRO DUCCIÃĵN
Ġconsigu iente
Ġgener ando
Ġhacer lo
U RA
Ġus os
ar ning
Ġdetermin ados
Ġen c
ĠDis tribuciÃ³n
P ar
Ġinv er
Ġ2 50
ĠV ar
Ġemple ado
Ġhid ro
ĠM ul
Ġdeber Ã¡n
ra y
Ġparti da
S I
Ġrespons ables
Ã³m ico
Ġante cedentes
Ġcl im
Ġrecomend aciones
l s
g in
Ġcorpor al
Ġimag in
Ġaten der
Ġd ro
Ġinter nos
f Ã©
Ã³n icas
10 16
Ġb ra
Ġadqui rir
Ġpr ensa
Ġimp ar
Ġcam pes
Ġenci ma
ues tion
Ġcontra tos
Ġsuel en
Ġleg itim
vers iÃ³n
ĠPsic ologÃŃa
ĠP ri
Ġcon cur
tr abajo
u alidad
ĠSu pre
Ġun iÃ³n
ĠPro ceso
ta bilidad
un do
ĠM uy
Ġtrata mientos
b os
Ġau dio
Ġ10 4
Ġizquier da
Ġecon om
m ir
Ġdirec tor
vi leg
ÃŃfic o
.. .,
w ork
v os
Ġpl Ã¡s
ist entes
Ġsug iere
Ġme t
Ġs ient
Ġcomp rende
ĠF AC
Ġsignific ancia
ĠTe orÃŃa
ĠvÃŃn culo
Ġpar al
Ġperspec tivas
ĠTor res
M C
tiv aciÃ³n
Ġpedag Ã³gica
Ġab und
Ġor din
Ġ ido
to p
r io
am ento
Ġrequier en
Ġop ciones
ĠpÃ¡g inas
ĠRel aciÃ³n
Ġdiscipl ina
D i
ĠCol eg
Ġres uel
Ġalgun o
Ġdis cu
Ġabier to
ĠServ icios
Ġac us
ĠFran cia
Ġw as
ĠINV ESTIG
ĠAn dr
, ,
Ġsan gre
Ġten go
Ġa mp
ĠEsc ala
f u
Ġal gu
Ġex puesto
or io
Ġe cos
r Ã³
ĠEs pec
v ivencia
Ġ1 19
ĠD ig
Ġmaes tro
ĠAutÃ³n oma
re o
ĠReg ional
Ġg estion
Ġcorrespon den
Ġdoctr ina
Ġdom Ã©s
Ġmo tor
b ra
Ġn av
ĠÃºlti mas
pie za
Ġcom e
ĠD u
ĠÃ¡mbi tos
por tes
ĠteÃ³r ica
ter ap
Ġex clusiÃ³n
Ġsir ve
Ġbaj os
Ġsu ger
b io
Ġrefle ja
Ġp endi
tor s
Ġtesti mon
Ġpresent aron
Ġtra yec
Ġsie te
ĠT rujillo
Ġpermitir Ã¡
um in
ĠRes pecto
ern am
ĠT E
Ġbuen as
lan d
Ġse mej
Ġmens aje
Ġp H
ĠP O
AN TE
s in
Ġtrans par
ĠlÃŃ qu
Ġforma to
ĠH ipÃ³tesis
Ġf irm
Ġcre encias
ĠB ra
Ã± ana
ĠsÃŃn tesis
Ġt ÃŃp
P re
Ġ10 7
enci o
americ ano
man n
em ia
ĠM em
es peci
abor ado
ĠS pearman
Ġas unto
BL IO
Ġ11 5
ĠD omin
IN A
te in
ĠC AL
ĠdÃ©c adas
m u
tisf acciÃ³n
Ġar bitr
ti pos
v ari
00 6
Ġmaes tros
ĠEspaÃ±ol a
Ġcur sos
ci Ã³
Ġemp ÃŃr
ĠFin anci
C a
Ġreg lam
Ġjo ven
Ġpreci so
iz adas
Ġ10 8
Ġmod alidad
Ġcaracter iza
Ġsos tiene
fec tos
Ġal tas
Ġvig ente
ĠÃ©n fasis
ĠCAP ÃįTULO
Ġqu iz
Ġanim al
12 3
Ġpron unci
m ica
t adores
abor al
it ares
or y
Ġpar cial
Ġlegis la
on ia
te o
ment s
Ġme tros
cion amiento
ĠmÃ© dicos
Ġbarr io
ĠÃģ n
Ġpatr ones
Ã¡me tro
Ġdocument al
endo za
Ġcontr adic
Ġencuent ro
Ġri que
ĠM ur
uev a
P P
an al
Ġacu erdos
Ġsatisf ac
ĠespecÃŃfic amente
Ġcuer pos
des arrollo
ĠA rag
A A
Ġinstitu cionales
ici embre
ĠValle jo
f t
Ġperio dis
Ġh orm
ĠG ENER
ap rendizaje
udi ciales
us to
Ġ10 9
Ġde mas
Ġdel im
Ġfuncion arios
Ġopin iones
Ġviv iendas
ĠC ir
ĠComer cio
ER I
v ez
contr ol
ĠhÃ¡bi tos
M E
Ġin com
ĠW eb
ĠM ac
ĠM ari
vi Ã³
Ġescen arios
Ġdismin uir
Ġar que
Ġalg orit
Ġcon den
ez as
Ġescri bir
Ġ12 5
il io
ci almente
Ġ0 5
ĠRes oluciÃ³n
Ġinstal aciÃ³n
Ġaquel lo
UM EN
Ġajus te
Ġdem uestra
ĠN aciones
ie ve
Ġ10 6
Ġdispon ibles
Ġinterv enciones
um e
tur aciÃ³n
Ġb u
Ġe mi
T RI
uc le
ĠF R
ĠteÃ³r icos
Ġmie do
P R
g Ã©n
ĠB ern
Ġcuidad os
ĠT u
ĠZ aragoza
Ġestabl ecen
Ġimp lan
Ġneces ariamente
f lex
Ġju g
IL IDAD
Ġap ertura
de rech
Ġenfr ent
ĠM AT
Ġman ual
co p
Ġtab las
ĠL iber
S u
ĠMo der
en das
ĠFon do
Ġse mi
ĠG re
g al
re positorio
Ġau x
Ġensay os
ĠP ablo
Ġpes etas
Ġus ando
Ġpatr Ã³n
r icaciÃ³n
Ġg obiernos
Ġproces amiento
ĠMar tin
Ġ198 3
Ġhab rÃŃa
Ġposi tivos
ĠANEX O
ĠE dad
Ã©s ar
Ġpro greso
Ġsatisf acer
C or
o k
ĠTÃ©cn icas
Ġf oc
ĠcÃ¡n cer
Ġcons ide
Ġres umen
Ġexpans iÃ³n
Ġa v
EN A
TU RA
per son
its tream
Ġub icaciÃ³n
Ġti p
Ġins u
Ġcap a
ĠM en
Ġgr Ã¡fica
tropol it
Ġmag ni
ĠPro cedi
v ador
Ġtrans iciÃ³n
te cn
in es
po t
L o
Ġsigu en
ĠR O
Ġcal or
Ġv s
Ġapor tes
Ġmateri as
ĠPer u
ĠSci ence
de fin
ma z
Ġesp ÃŃritu
Ġsecu encia
Ġdis pone
Ġar ti
Ġacre di
Ġcap aces
ĠA udi
Ġes tric
on os
ic ul
gr an
Ġconte x
Ġincorpor aciÃ³n
v io
ĠUn idas
Ġcuy os
ĠM ientras
Ġpelig ro
Ã³l ico
ul l
ios o
Ġde terior
Ġdi al
Ġau t
Ġorden amiento
Ġdefin ido
Ġfon dos
Ġdispon ibilidad
Ġderech a
Ġadi cional
qu ÃŃm
Ġcontamin aciÃ³n
3 00
ĠM O
ĠXX I
Ġag ente
Ġexplic aciÃ³n
el as
Ġac lar
ĠU til
Ġinde pendencia
c leo
Ġo jos
Ġdeman d
Ġejer cer
ĠCon clusiones
Ġdis puesto
Ġri t
Ġrespon de
Ġefec tividad
c usiÃ³n
Ġm am
am Ã©rica
AD OS
Ġaproxim aciÃ³n
Ġgarant ÃŃa
Ġsal ir
Ġ198 2
T EN
Ġcontinu idad
AR C
ĠI gu
ĠC he
Ġro de
Ġasoci ado
der s
ĠV iv
B R
im p
ĠR ho
ar los
ĠMan ual
Ġpres erv
m ano
Ġ0 4
ca p
Ġunivers al
ĠM ex
ĠS iempre
ĠA br
Ġblan co
ĠG U
Ġhallaz gos
vir on
tin u
e le
ĠCos ta
uc ho
tur os
ID A
Ġobten ida
ĠB or
Ġpri vileg
Ġcompar tir
cri to
ĠOB JE
Ġth is
I ER
ĠEncu esta
ĠEx per
OLOG ÃįA
ĠN ic
f amil
Ġo cul
Ġn ula
- .
don de
Ġten dencias
ĠM ana
Ġconv ir
Ġinter ro
ĠCON CLUSIONES
Ġin g
Ġfrecu ente
Ġme xic
ĠRecur sos
Seg Ãºn
Ġexig e
ĠR ies
Ġev ento
ĠUN IVERSIDAD
Ġsuce de
val o
vi aciÃ³n
T RE
ob je
u almente
Ġneg ativo
Ġdetermin Ã³
ĠM IN
z adas
Ġinici ativa
ĠR ÃŃo
E I
P C
tic e
Ġunivers itarios
z e
ic ales
Ġexpres ar
Ġbus can
Ġp h
tor iales
Ġcomp uesto
Ġex port
ĠAl cal
ug h
Ġcar ta
Ġlle van
Ġencues tas
b ach
o t
fer entes
Ġgener ado
Ġintro ducciÃ³n
n izaciÃ³n
Ġn on
c ra
Ġpar eci
Ġex terna
ab el
del lÃŃn
ĠestÃ¡n dares
Ġgr ados
uc ha
Ġcan al
graf ÃŃas
il ancia
ĠJo hn
g adas
Ġdeb ÃŃa
Ġpo ca
Ġproduc tores
m x
Ġt asas
ĠC abe
ĠIma gen
ĠÃ©s tas
ĠsÃ³l idos
ĠCas tilla
ĠV an
ĠÃ³rgan os
Ġposib il
Ġr urales
In ter
Ġhub iera
Ġmejor amiento
av ier
Ġhog ares
ĠRes umen
S in
mÃ¡ ticos
Ġtribu taria
ĠGran ada
Ġrefer encias
Ġdocument aciÃ³n
Ġimp ul
Ġintegr antes
ier to
Ġv amos
im por
l ados
in formaciÃ³n
u x
Ġutiliz adas
Ġl Ã¡
Ġparti dos
c ord
ĠmÃŃn ima
or ld
Ġex cepciÃ³n
Ġa se
Ġsimple mente
ĠMor eno
Ġunivers itaria
Ġh osp
Ġserv ir
m al
ome trÃŃa
is os
Ġmunicip ios
b lo
Ġexpres iones
g Ã¼
ĠS EG
Ġlle vado
ec has
Ġoc ciden
Ġdom ici
par te
f ord
Ġmedi cam
ac ciones
ĠIn g
Ġmate mÃ¡ticas
pr incip
Ġpublic aciones
Ġpreval encia
ti que
ĠForm aciÃ³n
Ġac er
Ġca tal
Ġm ente
Ġdiscur sos
Ġlleg Ã³
tr ing
Ġaprob aciÃ³n
u tas
ĠacadÃ©m icos
Ġarri ba
Ġher man
tific ado
Ġcon tes
der ÃŃa
Ġ11 3
ĠespaÃ±ol es
Ġcr im
Ġcomb in
Ġrepresent aciones
r ado
Ġv ic
am ba
ĠC ient
EC TO
ti emp
Ġ4 00
ĠC lar
Ġma dera
Ġins truc
Ġno t
Ġac cion
Ġan trop
Ġa trac
ĠJ unta
Ġmo vil
Ġac og
am arca
Ġcor reg
Ġprecis a
Ġdetal le
d Ã³
Ġobserv aciones
do cu
i ores
Ġj orn
Ġes pos
ĠM endoza
ĠReg istro
ĠEs truc
ĠComun idad
Ġespaci al
mb res
ĠP in
am p
el le
or ar
Ġen rique
oci al
tr acciÃ³n
ĠGu ti
Ġesp iri
N I
on s
Ġap un
Ġasum ir
Ġemp ie
Ġcontr as
Ġdeman das
Ġr os
ra fo
Ġcomb inaciÃ³n
Ġin tra
h ip
c ales
ĠEdi ciones
j un
Ġmov ilidad
ĠS ab
Ġperson aje
Ġacep ta
uc ÃŃa
Ġ- -
IZ ACIÃĵN
Ġint ent
c ado
ad minis
Ġrequer imientos
ĠCas tro
Ġcan ales
Ġesti los
ide l
Ġsi tios
ĠL en
Ġindi car
Ġhe ter
ci d
Ġencontr ado
Ġciudad ana
Ġex por
Ġcomp ut
ĠProvin cia
ur g
Ġtr an
Ġmodific aciÃ³n
Ġaband on
Ġllam ada
tu aciones
ĠCons ider
TI TU
ĠDim ensiÃ³n
ti es
ĠdinÃ¡m icas
Ġobserv Ã³
ĠPre gun
Ġman da
Ġcuantita tivo
Ġcontinu ar
ÃŃ rez
Ġapreci ar
Ãĳ A
ĠelÃ©ctr ica
Ġn adie
ig ra
Ġtaller es
Ġexam en
Ġrela to
ÃģL ISIS
an e
qu inas
C RI
ĠMay or
ĠCas i
Ġrecol ec
Ġpermi tido
Ġavan ces
Ġdeclar aciÃ³n
P UES
Ġseman as
h id
te xto
ĠAn al
Ġresal tar
C as
15 0
ad ura
Ã©r rez
Ġci ento
ĠbÃ¡s ico
Ġhici eron
es tas
Ġpro l
z ca
Ġprecis iÃ³n
ĠPa z
Ġex tens
Ġnove la
di vers
dago gÃŃa
ĠMÃ© todo
DIC E
TR UC
ier ro
Ã¡n icos
ta in
Ġm ala
h am
BL A
Ġinfl uyen
abe tes
dr ÃŃa
uc e
ĠV enez
Ġsue los
ĠV is
olu ciones
ig ue
Ġmis iÃ³n
Ġcan dida
ĠV II
en cu
Ġin hib
ĠA t
Ġestableci das
Ġpreocup aciÃ³n
Ġimp uestos
Ġdeb ajo
Ġveg et
Ġse paraciÃ³n
Ġtrabaj a
Ġcir cu
Ġreg ula
Ġtr Ã¡
Ġhis torias
Ġtrans ferencia
Ġdis cre
Ġpre fer
ĠAu to
Ġpos tu
Ġg ub
Ġil ustr
x is
Ġexpl ÃŃci
D S
Ġform ulaciÃ³n
Ã¡c ticas
et ÃŃn
S an
re d
ist Ã©m
Ġcolomb iano
Ġsocio econÃ³m
Ġs tudy
ĠD av
ĠM AN
u an
Ã±o z
Ġdesplaz amiento
id al
4 00
Ġinf ancia
h or
Ġvia je
p la
con f
ĠC Ã©sar
Ġcul tivos
Ġcom ba
Ġindis pens
h acer
ten imiento
n acional
Ġ ign
e mb
Ġcla ves
Ġalmacen amiento
ie d
d x
Ġes ter
Ġprev ios
Ġfemen ino
Ġautor a
Ġcondi cion
TI L
Ġdenomin ado
bl ecer
Ġes enciales
Ġcomple tamente
Ġcomien za
tr on
e ma
paci o
TI N
ĠAndr Ã©s
T AS
o x
tal ia
C l
Ġinterac ciones
Ġconlle va
ad i
Ġa trib
ĠFac tores
Ġfom entar
Ġidenti fica
Ġanaliz a
Ġesc ena
X X
ĠCons idera
b el
Ġro les
Ġcol abora
ĠD os
Ġre in
f ol
ĠU no
Ġcontinu o
Ġsignifica tivos
Ġcol ores
ĠO per
Ġreg la
tan o
pir aciÃ³n
ĠÃ¡ cido
ĠR iv
Ġan g
Ġtra to
it en
Ġconform idad
ĠÎ ²
Ġconstitu ciÃ³n
Ġpropor ciona
il los
d ing
ĠIn de
Ġda ta
Ġcual quiera
Ġpedag Ã³gico
pro fes
ec ÃŃa
Ġigu almente
ĠColeg io
ÃŃs ticamente
ti cidad
m ol
Ġho jas
iz ando
Ġam ar
iÃ©n dose
Ġsolici tud
ĠcientÃŃfic os
r encia
ĠPs ych
al ismo
Ġadministra tivos
Ġhab ilidad
Ġas im
ti zar
Ġir re
Ġalco hol
Ġeje mpl
Ġh os
ĠH i
ĠF undaciÃ³n
Ġdis fru
tu alidad
s ub
H A
ĠG il
ĠCh ina
Ġigu ales
Ġad vers
Ġpe ti
Ġen l
is e
Ġveh ÃŃculos
ĠEn rique
ĠF oto
Ġdemostr ar
Ġin mun
Ġejerci cios
Ġn aciÃ³n
ĠE M
ĠS EC
Ġsaber es
ĠCal i
Ġtemp r
ĠIn no
Ġcre ciente
ĠseÃ±al ado
ĠG a
der Ã¡
ios a
er es
ĠF a
Ġpues tos
ID O
ĠRE G
Ġdetermin adas
or nos
Ġde uda
Ġhum edad
Ġres pal
ĠMunicip al
Ġcomb us
Ġ13 0
Ġc oci
ĠB arr
Ġ198 1
ĠTRA BA
un ciÃ³n
Ġalgu ien
Ġ12 3
Ġpre cip
and ro
ĠH err
Ġexter nos
Ġ19 79
C AP
in di
ĠEmp resa
Ġpa de
Ġtras cen
den as
ĠN ombre
C AL
con ocimiento
Ġ um
c s
Ġ12 1
Ġ14 0
ĠMedi cina
ĠMe dellÃŃn
Ġa lej
di z
Ġcrea tividad
R o
Ġal ma
ĠMunicip alidad
Ġpublic ado
ĠTr abaj
den es
ĠC AM
Ã©r cito
Ġlic encia
ĠA z
Ġde presiÃ³n
Ġprim a
Ġofrec en
ĠCon f
z Ã³n
ĠE du
Ġelabor ar
Ġcu en
ari ales
arqu ÃŃa
ĠAmeric an
Ġagra de
???? ????
Ġdependi endo
ĠMay o
ĠpÃ©r didas
Ġocu pa
uestion ario
uy eron
ĠDis trito
ol encia
Ġfundam ento
Ã¡n s
n g
Ġac a
tr ar
on so
Ġrique za
Ġe dades
ĠEcon om
Ġ0 7
ĠS el
Ġprogram aciÃ³n
Ã¡m ica
ic es
Ġc aja
ĠM el
Ġinform es
per o
Ġs oy
Ġtej ido
OR ES
Ġd ue
Ġterri torios
Ġafec tar
Ġen v
Ġla c
ĠC Ã¡
10 1
GRA F
teg ra
ĠE p
Ġpriv adas
J A
Ġr endi
ĠEn ero
tes t
r is
Ġencontr aron
ĠE je
Ġrepro duc
Ġproce de
Ġas untos
res iÃ³n
Ġpropor cionar
Ġci ta
ĠnÃºm eros
Ġrecl am
T EC
Ġh uel
Ġ11 7
Ġasigna tura
ĠnÃº cleo
ĠL O
Ġe co
te les
Ġlogr Ã³
Ã©r ico
Ġdos is
m ico
10 8
cer tid
Ġmiemb ro
Ġcomp uestos
ĠPa ÃŃs
Ġpermi tiendo
Ġcorrec to
Ġprofesor ado
Ġex ces
Ġex trac
Ġpes os
Ġprove edores
j ur
ĠN aciÃ³n
Ġins pec
e e
im ento
Ġintegr idad
Ġac el
Ġneg ativos
Ġpol i
d ro
Ġsuper ar
ĠPÃº blico
Ġev al
tr abaj
lo ad
Ġmedi cina
pro b
cu enta
Ġra ÃŃz
ĠRes pons
ĠINVESTIG ACIÃĵN
TIV IDAD
Ġrecib e
Ġcel ular
Ġsens ibilidad
tu m
ĠJ imÃ©nez
ĠseÃ±al an
Ġg ro
n ia
Ġrelig iÃ³n
Ġ 000
ĠCa tÃ³lica
Ġauto estima
Ġinterpre tar
ĠIN TRODUCCIÃĵN
Ġtra tado
T T
Ġexter no
ĠB Ã¡s
ĠU R
V E
Ġconform an
person ales
ĠIl ustraciÃ³n
ch es
Ġsig nos
ĠA lej
Ġpsic olÃ³gico
Ġreci ente
Ġrecib ido
Ġad ver
h y
Ġpos tura
AM IENTO
ĠrÃ¡p ida
Ġfac ultad
er te
is s
Ġb acteri
Ġp iel
ĠT emp
Ġ11 4
iz ation
Ġconstr u
c Ã©s
Ġclar idad
in f
ĠAr te
Ġi leg
der as
ĠT ech
QU E
Ġdiag nos
tu alizaciÃ³n
Ġ19 78
Ġg uer
Ġexclus ivamente
we en
et y
ĠS ecciÃ³n
ĠsÃŃ mb
EN TA
Ġdi visiÃ³n
cion ario
Ġr enta
Ġabier ta
Ġhac ÃŃa
Ġrespons abilidades
Ġcoin ciden
Ġofici ales
ĠCom pet
ap lic
Ġconven iente
Ġentr ar
Ġma Ã±ana
10 5
Ġpos iciones
200 9
P EC
Ġcomprob ar
Ġcontrib uye
tr ital
Ġgr ab
Ġsens or
fa el
Ġlegis l
ĠC ha
Ġcam paÃ±a
ĠE E
es ÃŃa
os os
Ġsosten ibilidad
Ġaplic Ã³
ĠR io
Ġno table
Ġprofes iÃ³n
ĠAp rendizaje
Ġpreven ir
v ada
Ġmejor as
i ter
i ados
Ġcas as
ĠC P
Ġejecu tar
Ar t
Ġorgan ismo
Ġte atro
ĠL im
ĠestratÃ©g ica
ĠF uer
Ġd Ã³nde
Ġlab ores
d Ã³n
ĠH ar
lan a
Ġvuel ve
ĠT erc
Ġcomp ens
Ġest ÃŃm
ĠM ir
ĠT ex
ĠE c
le t
Ġn ombres
j unto
fic aciÃ³n
ĠNuev o
ap ro
Ġcons e
Ġparticular mente
tr uir
ĠN or
Ġap ara
ĠInvestig aciones
u das
Ġab og
Ġno tas
ĠSecre tarÃŃa
ĠG lob
amble a
Ġfab ric
ĠN A
Ġasoci adas
g ente
in c
Ġrecor rido
ta mbiÃ©n
v imiento
Ġdemostr ado
Ġcotidi ana
Ġenfo ques
ĠCon tra
Ġproduci do
Ġconsider ados
Ġdig nidad
omb ia
on ÃŃa
Ġ0 9
Ġdisposi tivo
ĠM icro
ĠAlgun os
00 3
Ġmin im
Ġqu al
Ġargum entos
Ġac on
AR RO
A d
Ġadop ciÃ³n
ĠAr quitec
Ġ ia
ĠdÃ© bil
Ġcre e
Ġal cal
Ġpro pa
Ġcons entimiento
tr y
m erÃŃa
on el
Ġ11 6
ĠDe f
ĠÃŃn dices
a gr
Ġanti cip
Ġv esti
k in
Ġte mÃ¡tica
ti bilidad
Ġdesaf ÃŃos
Ġar gen
Ġles iones
Ġver ificar
ĠCr on
ĠT ÃŃtulo
cri bir
Ġcontra taciÃ³n
Ġpos teriores
ec a
Ġobs tÃ¡
Ġ18 0
man ia
ĠL or
Ġocas ion
Ġcor azÃ³n
di g
Ġestim aciÃ³n
Ġcumpl en
ĠTr ad
lic as
Ġale a
os as
Ġc ho
Ġre duc
200 7
Ġsus tancias
h esiÃ³n
Ġb et
Ġre paraciÃ³n
Ġfu turos
Ġmencion ados
Ġtele visiÃ³n
Ġre cepciÃ³n
Ġcur va
ĠArag Ã³n
Ġcircul aciÃ³n
ic en
x o
Ġdefin en
Ġver bal
ar as
Ġpais aje
Ġjurispru dencia
IL L
Ġsig los
Ġcompeti tividad
ĠRe view
Ġde parta
ĠN unca
i di
ĠGu ÃŃa
Ġgub ernam
ĠBI BLIO
esta ble
artic le
e de
U T
s as
ma to
Ġ Ãĵ
2 000
ig en
ĠDav id
RI M
10 3
Ġcoord in
at ÃŃa
Ġin cur
ĠMon te
ĠBuen o
Ġlogr ado
Ġneces itan
Ġv id
pl ante
Ġadecu adas
ci da
Ġfilos Ã³
Ġmor talidad
Ġdependi ente
un tamiento
tr u
Ġdi fun
ex os
Ġnaci miento
ĠCas a
ĠPres idente
ĠfÃŃs icos
Ġrepro ducciÃ³n
Ġpo cas
Ġproduc tivo
ĠenseÃ± ar
ĠCom itÃ©
Ġloc alidad
ĠCub a
ĠÃ³rgan o
ur s
Ġtrad u
Ġmoder na
11 1
ĠReg ular
Ã¡ns ito
Ã© f
seg uridad
B O
Ġcogni tivo
Ġi ii
or ado
Ġsenti dos
Ġtra tados
Ġp ac
rendi miento
ĠRam ÃŃrez
ĠGuti Ã©rrez
OR IA
ĠA do
den tes
Ġol vid
ĠhistÃ³r icos
ĠG ab
Ġcontrol es
ĠH ol
r ia
o der
Ġagr icultura
Ġfavor able
ĠM uestra
ĠPrim era
Ġg ana
Ġade lan
ĠCaracter ÃŃsticas
Ġpsic ologÃŃa
ch as
An exo
Ġindependi entes
ĠO ficial
ĠE f
Ġmatr imonio
Ġbal ance
Ġus a
Ġinterpre ta
Ġterc ero
F ICI
pro ceso
IS TE
w it
ĠT am
i anos
U ER
d ÃŃ
Ġex cep
Ġac tor
investig aciÃ³n
Ġse de
m io
Ġor o
i anza
Ġver de
aya quil
Ġpro tec
Ġmodific aciones
Ġesti ma
Ġequival ente
ĠPers onal
Ġib a
Ġap are
ĠU so
seÃ± anza
Ġderiv ados
col ar
ÃŃn sec
Ġje fe
Ġgus ta
v iendo
Ġmus ical
ide mi
Ġd Ã³
Ġporcent ajes
Ġesto y
Ġlim pieza
Ġvir tuales
ĠMu Ã±oz
20 23
Ġha ga
Ġperten ece
tu den
ĠAmb iental
Ġbuen os
ĠindÃŃgen a
Ġmetodo logÃŃas
Ġsa tisfec
Ã¡ us
ter ia
ci encia
in dic
cons ider
w ard
Ġtecn olÃ³gicos
ĠVenez uela
ĠQ UE
ĠO x
as h
e Ã±a
Ġval idaciÃ³n
ĠR ic
Ġrealiz ando
F in
on i
ĠmÃ© dica
it aciones
Ġmanifes taciones
ĠE MP
FER ENCIAS
Ġocup aciÃ³n
Ġveci nos
an Ã¡lisis
Ġde tecciÃ³n
ĠEx p
P RE
s mo
ĠEstrateg ias
Ġplante ado
ĠB A
Ġvalor ar
Ġ0 6
ĠS A
oo k
Ġviv en
200 8
Ġlec he
Ġvari aciones
f re
um os
10 4
Ġab re
ĠÃģl varez
ĠÃ³ p
Ġmez cl
ĠTecn ologÃŃa
EM A
pro ble
R AS
ĠF ilos
Ġbrin d
ĠMa te
blic as
Ġb omb
Ġfinanci eras
Ġinter medi
ĠF il
Ġbusc ando
Ġcaracter izaciÃ³n
er t
tiemp o
12 5
Ġtrabaj an
F ES
Ġplata formas
Ġciudad ano
ĠC uestionario
Ã³lo gos
yec tos
Ġasoci ada
Ġ12 2
Ġacciden tes
ĠD iciembre
ti mos
Ġ19 70
Ġextr acciÃ³n
Ġimp l
Ġpie za
u fac
Ġhum anas
ĠDO I
ific ado
ar las
enci on
Ġdiscip lin
Ġcos te
Ġpresu pues
10 6
Ġcontrib uciÃ³n
Ġpertin ente
s im
Ġin adecu
Ġf an
gen a
Ġele vado
00 5
Ġmar cas
200 6
en z
ĠB u
Ġcal ificaciÃ³n
g n
ĠR ub
ĠD OC
og ene
Ġacor de
Ġverda dero
e la
ĠfÃ³rm ula
Ġfacil ita
T ADO
Ġcanti dades
Ġrepresent antes
pue de
Ġref uer
ĠH or
ĠEx isten
t un
S C
Ġinf rac
Ġinfec ciÃ³n
Ġadecu adamente
Ġme tÃ¡
ear son
ĠMa triz
n orm
Ġno ticias
Ġconsider Ã³
Ġcontr aste
Ġobserv ado
Ġimpos ible
ar ch
Ġto ler
Ġar mon
Ġal tamente
Ġartic ulaciÃ³n
t ÃŃa
lu encia
Ġman eras
Ġ11 8
Î ¼
tu ar
Ġescri ta
Ġc Ã¡mara
Ġlleg ada
gen da
fici t
Ġci cl
ul ada
ĠK a
Ġadecu ados
cis iÃ³n
Ġdesigual dad
anti dad
Ġentren amiento
Ġinvers iones
tr i
ĠjurÃŃ dicas
Ġcontr ac
ĠA mbiente
Ġmanifies to
Ġrepresent ar
Ġesc la
er da
ĠProvin cial
Ġmu tu
Ġcualita tiva
Ġ13 5
lement aciÃ³n
Ġviv e
habil itaciÃ³n
Ġas ent
ĠOr g
Ġdis pers
ĠcrÃ©di tos
Ġhacer se
Ġps icos
Ġn erv
Ġo posiciÃ³n
F L
Ġcif ras
Ġin ex
FIC ACIÃĵN
Ġsim bÃ³
ing s
Ġcas ti
T M
D ES
terap ia
Ġembara zo
00 4
R eg
um b
ĠestratÃ©g ico
Ġar reg
Ġcuy as
ud al
Ġprop ici
Ġvis ita
Ġtecn olÃ³gica
ĠME TOD
H E
Ġeleg ir
Ġpatr imon
M an
Ġs it
ÃŃm enes
Ġs ho
ÃŃ l
Ġ19 76
Ġre emp
Ġrefer ido
ĠJun io
en ces
pec u
Ġinici ar
qu ie
om ento
ist Ã³
Ġcre ado
Ġelim inar
ĠB ro
Ġl lu
Ġdu das
o per
ĠL og
ĠUN A
L e
ĠCar ibe
Ġsi ente
Ġcon tro
ĠEntre vista
Ġconsider ada
Ġsal vo
Ġarch ivo
Ġcent ra
Ġ0 8
ĠÃģn gel
n s
Ġapre cia
Ġob tuvieron
Ġ12 7
Ġinm igr
Ġrelacion an
ĠF lor
p ublic
Ġfortal ecimiento
id ge
ĠGu ayaquil
Ġin certid
ĠE qui
Ġcom isiÃ³n
Ġtr im
Ġhabi tual
ĠE le
ĠSal vador
Ġrefer entes
Ġvent aja
ĠS anto
Ġadop tar
min aciÃ³n
us s
y c
ir man
Ġfu turas
10 2
ĠPro ces
ro p
Ġlim ita
F ac
Ġque dar
cional idad
Ġestruc turales
Ġ16 0
U A
ĠHe alth
ĠDie go
ĠAl onso
Ġmen ciÃ³n
s igni
ĠVal ores
Ġcolum na
ĠB os
Ġsus cep
Ġcar re
ig h
tr ada
ĠVari ables
v ida
Ġnegoci aciÃ³n
P OS
ĠD ip
Ġcontrib u
Ġap ren
Ġincrement ar
Ġcar gas
b ano
Ġes ca
s ol
ĠvÃŃn culos
C US
Ġin fin
Ġidi oma
sci elo
Ġfu Ã©
Ġjus tificaciÃ³n
ĠIndic adores
ĠAl berto
ĠS te
Ġes encia
Ġsue Ã±o
Ġcon ces
and ar
Ã¡ rez
Ġan tic
Ġgra ves
Ġcompar ar
Ġb ru
Ã³r ica
Ġe mo
Ġarm ado
Ġaudio vis
ci entes
Ġb on
Ġam eric
or ama
11 2
fon so
Ġocas iÃ³n
Ġen orm
Ġop tar
OR A
Ġh u
ĠBol etÃŃn
Ġsex uales
dicional mente
Ġmen udo
Ġinici a
Ġplante ar
ues tro
ĠN os
ĠPrim aria
ĠSeÃ± or
Ġgarant ÃŃas
tec as
CION ES
Ġfab ricaciÃ³n
xim os
ĠdiseÃ± ar
ĠFun dam
Ġconoci da
Ġsu puestos
Ġan exo
Ġrit mo
Ġdirec tivos
Ġpar es
ens ional
Ġdi Ã¡metro
ĠPos teriormente
ic k
Ġmon e
Ġfundament almente
Ġexig encias
ĠAN ÃģLISIS
Ġrela tivo
ĠR A
ĠPar ÃŃs
Ġelec tro
G u
Ġimpac tos
Ġcolec tivos
6 00
Ġcas tel
Ġre tir
Ġex pon
Ġrela tivamente
j ado
Ġmor f
u to
er ra
ĠlÃŃ der
Ġautor izaciÃ³n
Ġ13 1
tu to
Ġh ar
Ġparadig ma
Ġj udiciales
ĠBiblio teca
ĠRom ero
Ġqu ir
Ġreci Ã©n
ri el
Ġacep tar
ĠRa fael
iste m
o ca
En tre
ĠEdu ardo
Ġap enas
Ġapor tar
ĠP OS
ph y
Ġdoc tor
ĠES PA
Ġim pe
Ġve mos
Ġver se
Ġpue do
Ġex pone
Ġcu Ã¡n
as iÃ³n
ĠDirec tor
de mo
Ġcualita tivo
ĠR osa
Ġ12 9
ve la
Ġcier re
Ġverda dera
Ġtitu lar
Ġse l
Ġh arÃ¡
Ġper der
Ġcorrec tamente
ĠDe bido
Ġjus tific
i tivo
el li
ter rÃ¡n
Ġrecord ar
i am
Ġestad ÃŃsticamente
C P
Ġamena za
ĠPro tecciÃ³n
Ġcar gos
Ã³n imo
til idad
ĠLeg is
Ġre duce
Ġlar ga
Ġs en
Ġmode l
Ġjue ces
Ġre mun
Ġcub rir
Ġcu ad
Ġcal cular
Ġdirig ida
ĠO tra
Ġen em
Ġvulner abilidad
ĠPro ducciÃ³n
Ġmate mÃ¡tica
ĠP RES
Ġdel a
Ġte l
Ġtr Ã¡fico
pro p
e u
ĠCas tillo
Ġamb ientes
Ġent ra
br ica
Ġtecn olÃ³gico
Ãĵ R
Ġ Ãļ
ĠR ad
Ġr up
VIS TA
Ġver tical
Ġinici ativas
Ġfacil idad
Ġpro cur
Ġcul turas
ĠL an
Ġdesta can
Ġ12 8
Ġdi eron
Ġsimul tÃ¡n
ĠW al
Ġma pa
P res
F A
b itstream
Ġoper acional
Ġedi ficios
Ġpro vis
y os
ten idos
u Ã±a
ĠW il
ob ili
aliz an
Ġde porte
Ġmedicam entos
Ġt Ãº
Ġestableci Ã³
om end
ĠPr omo
ĠF ÃŃsica
ĠP earson
Ġest Ã©tica
ĠJ avier
com p
v enta
ĠRel aciones
Ġmedi as
Ġent ornos
n eg
Ġ12 4
................................................................ ................
Ġescri tos
ĠagrÃŃcol a
ĠEl aborado
t ones
ĠAcu erdo
ĠCo eficiente
ĠAc tividad
Ġestableci mientos
Ġsim ulaciÃ³n
ĠEspeci al
ĠjurÃŃ dicos
Ġa go
ĠS ar
ĠS istemas
Ġmens ajes
IN G
ĠSP SS
Ġasum e
Ġ1 000
Ġdistin ta
con tra
her e
Ġvincul aciÃ³n
tudi es
ÃŃ ticos
Ġ19 75
Ġmagni tud
ĠcrÃŃ ticas
H O
idar idad
Ġse t
Ġ Ã±
Ġdistin ciÃ³n
ĠVol umen
Ġdej ando
tr ado
Ġsiste mÃ¡tica
Ġdemas iado
Ġne uro
ĠRo jas
Ġsu erte
Ġentrevis tados
tropolit ana
Ġde grad
ĠO fici
an ca
Ġprim or
om edio
Ġdeterior o
Ġk m
2 50
ĠSan tos
ĠJu z
CI A
Ġcorr ientes
Ġ13 3
soci al
Ġvir us
ic aciones
Ġconcre ta
ĠIndustr ial
Ġdi cen
cin di
Ġf lor
Ġpes e
ĠJur ÃŃ
Ġmac ro
Ġsu ficientes
Ġ19 77
Ġdi aria
B o
qu Ã©
omin al
us iones
AT OS
ĠW e
Ġrev oluciÃ³n
Ġmo dal
Ġre tos
Ġindustr iales
ĠP OL
et h
ob serv
Ġsin gular
Ġas esor
Ġest arÃ¡
Ġre vistas
p y
Ġhab rÃ¡
par ticip
ĠT ar
ĠEduc ation
Ġlle gado
L LO
Ġdirig ido
Ã© ticas
Ġapor ta
Ġpar ecer
ĠQ U
Ġpro poner
z aron
Ġcul tiv
Ġtras lad
ĠPro pia
Ġanaliz ados
Ġrealiz arÃ¡
ĠAr m
Ġpuer ta
amb ios
Ġinte lig
g i
Ġs ala
Ġtom ado
br imiento
ĠT ab
ĠacompaÃ± amiento
ĠfÃ¡cil mente
Ġdescon oci
h ora
y ac
es to
Ġem isiÃ³n
Ã¡ z
Ġelec ciones
u taciÃ³n
des arrol
ĠAN D
enci ado
Ġof icio
? .
Ġc ero
ĠPor que
ĠD iv
Ġurb anos
Ġmodific ar
Ġv Ã©ase
Ġins trucciÃ³n
Ġ12 6
Ġcostu mbres
i tu
ĠlÃŃ deres
Ġsignific ados
us ta
ĠH aci
ĠseÃ± ales
ĠM os
ĠFis cal
Ġpresent ada
ĠSeg unda
or r
ĠElec tr
Ġme tal
ens or
Ġmoder ada
ĠAl ta
Ġne ur
Ġbas ados
t bol
Ġan cho
ĠE D
ĠG en
Ġproble mÃ¡ticas
Ġcomple ja
ar te
Ġpo esÃŃa
er amente
AN S
ĠRey es
Ġreun iÃ³n
Ġextre mo
Ã©r icas
teg orÃŃa
ĠDi ario
Ġac ord
ue bles
americ anos
Ġle jos
ĠmÃ¡ quina
Ġf irma
ĠB O
Ġdeber ÃŃan
Ġes pe
Ġimp ro
ĠD om
eb ra
B ER
ĠO C
Ġinmedia ta
Ġar mas
des de
Ġdistin to
de cir
ĠInter pretaciÃ³n
Ġtom an
tr ica
EC U
eg em
000 1
Ġin jus
Ġser ÃŃan
eb ook
ti ende
Ġreun iones
Ġnarra tiva
Ġsim pl
Ġterap Ã©u
Ġinvent ario
car acter
Ġaplic able
Ġper form
Ġbet ween
Ġpob res
l ÃŃ
TO TAL
As ÃŃ
Ã¡n icas
Ġpre f
ĠA F
Ġsenti miento
ol id
Ġho ja
Ġactu aciones
ĠAc tividades
rel acion
tin as
ĠUnivers itaria
ĠF ue
Ġqu iero
ĠI r
Ġev olu
Ġdes per
Ġtu s
Ġen z
Ġasoci aciones
ĠR oma
ĠAplic aciÃ³n
Ġdes ea
Ġda to
Ġdif fer
i fi
P ON
ĠDig ital
ĠÃ© ticos
Ġnorm ativo
Ãĵ G
ĠCas o
oc ar
in ess
do le
ĠP S
Ġcomerci alizaciÃ³n
n ivel
ĠPRO Y
EL L
ĠAc adÃ©m
ĠDE R
Ġdi ver
Ġsol ar
ĠCor relaciÃ³n
Ġdesarroll Ã³
Ġm ito
Ġac ero
Ġref ieren
Ġs s
ĠProfes ional
Ġafec tados
e j
Ġ13 2
Ġmo di
ay o
D IO
ĠP op
ev aluaciÃ³n
Ġtrabaj ando
Ġagreg ado
ĠF ab
ec o
Ġperju icio
u th
Ġso por
ĠB re
Ġpla za
ĠTech n
Ġperten ecen
ĠAlgun as
Ãī S
Ġmil itares
ĠA re
Ġf ues
Ġestad ÃŃsticas
ĠIn te
Ġdeci dir
Ġpl en
ĠA quÃŃ
ĠC N
Ġb rech
ĠMana gement
11 5
Ġex ista
eli pe
me tros
Ġanal ysis
Ġbi om
Ġs omos
Ġalcan za
f avor
Ġsignific aciÃ³n
ĠCar men
10 7
ĠPro puesta
Ġdel eg
Ġresul tan
Ġtendr Ã¡n
k g
ĠF lores
Ġde di
Ġest andar
ri eron
Ġnuev amente
Ġv ino
Ġcurric ular
d l
ĠrÃ¡p ido
mb ra
cep tos
Ġcentr ales
emp eÃ±o
Ġcor rupciÃ³n
Ġon line
ĠH istÃ³r
ula tion
Ġef fec
Ġbaj as
ĠAn dal
in stitu
r y
ĠC Ã¡mara
EL O
Ã³m icas
Ġposi tivas
Ġden omina
Ġmonitor eo
ac tividad
ĠCon ven
10 9
Ġfuer tes
ĠEx cel
Ġtras tornos
Ġen fa
la ga
Ġinmedia to
Ġma terna
Ġprovin cias
ĠD A
Ġdiscur s
Ġreco ge
al imentaciÃ³n
ĠAca demia
Ġhuman idad
Ġestudi ado
ĠQu in
dad as
cu ra
Ġconsider aciones
Ġo ut
Ġplante amiento
s te
Ġesta tales
ĠRe ino
ĠP C
di dad
ĠXV III
Ġcr on
her encia
Ġdefin ida
es idad
Ġlengu as
ĠL es
ĠMus eo
ĠEv alu
ta t
Ġtr Ã¡nsito
Ġperio dos
Ġelectr Ã³nica
Ġpron to
Ġru ido
ĠMor ales
Ġvig ilancia
c t
Ġhorizon tal
Ġal ar
vi era
ĠS en
T P
Ġa qu
op ol
no w
ari edad
re vistas
ĠM Ãī
in dustr
ĠM uc
es ar
ĠmÃ³ dulo
ti za
ĠF ar
ĠAle mania
C al
Ġpod ÃŃan
Y O
ĠCron bach
Cap ÃŃtulo
Ã ľ
g Ã³
Ġlib res
Ġwh ich
Ġprob able
ĠW ill
Ġres tring
Ġdescri to
ĠG ro
v era
Ġindispens able
Ġextra ordin
Ġdis trib
ĠN ie
Ġleg ÃŃ
se qu
Ġpsic olÃ³gica
Ġ19 73
Ġl Ãº
Ġconsider arse
Ġorganiz ar
Ġfinanci aciÃ³n
el os
Ġhi ja
Ġpa gos
ĠV as
d t
ici dio
Ġobten idas
Ġre to
Ġtransform aciones
Ġencar gado
L L
ĠTRABA JO
uc o
p ensiÃ³n
ĠL ec
Ġc ÃŃr
cri be
Ġjuris dicciÃ³n
Ġneg ro
Ġplan os
Ġcomp ren
ĠFilos ofÃŃa
Ġpr Ã©s
ĠÃį tem
Ġs omb
ĠP ues
Ġp il
Ġ iÃ³n
Ġfin alizar
Ġtal ento
Ġadul to
Ġvig encia
ĠVar gas
ri to
Ġrequis ito
Ġfar mac
ue gos
Ġsim ili
Ġw ork
Ġp ene
Ġrecha zo
Ġca fÃ©
CI D
ĠproteÃŃn as
M AR
Ġas pir
fici encias
ER C
Ġelabor ado
ĠArch ivo
ec ular
Ġe uros
ĠPal abras
Ġpriv ados
ĠT I
Ġexpedi ente
200 5
aman ca
Ġrestric ciones
Ġsuper visiÃ³n
Ġperteneci entes
ĠI SO
ĠPo der
ĠDan iel
d y
ĠAs pectos
Ġampl iar
ĠH oy
Ġdesc ans
ĠU ru
Ġa ulas
ĠGENER AL
li aciÃ³n
Ġmunicip ales
Ġint ento
ĠS ÃŃn
P al
Ġabsolu ta
Ġargum ento
ĠNa tural
Ġpl ena
ĠP E
ĠCon venciÃ³n
Ġcoment arios
Ġcomien zo
gr os
in tegr
Ġtom Ã³
Ġcons ciente
M AN
Ġpel ÃŃcula
Ġorg Ã¡nica
ab o
Ġes pon
ĠprÃ¡c ticamente
Ġ13 7
Ġdar le
b Ã³lico
Ġform ado
Ġmanifies tan
Ġru ta
Ġmes a
reg ular
Ġmi x
Ġfrecu encias
ĠW a
Ġparticip an
Ġdes tre
Ġ its
ĠIb ÃŃ
Ġpudi era
Ġto tales
Ġenfr entar
Ġw ere
Ġsoci os
ĠIden tificar
Ġig lesia
a tor
Ġcar ne
Ġm s
it Ã¡n
Ġincertid umbre
ĠPL AN
Ġca ÃŃda
vent ud
ĠV Ã©ase
Ġsem Ã¡n
r eras
Ġca u
ĠB l
Ġconcentr aciones
ĠINF ORM
ĠB on
Ġfinanci amiento
ĠS ierra
Ġfran ces
Ġcorrel acional
an ge
it alizaciÃ³n
ĠQu ito
ur ÃŃa
ĠDoc ente
fr ica
14 0
Ã³di gos
ĠIN D
IC ACIÃĵN
Ġfacil it
Ġcomen zar
por tamiento
BL ES
ĠMar keting
cl ar
Ġfrecu entes
ĠEcon Ã³mica
ru mp
Ġproces al
Ġv ienen
ĠC lin
Ġmostr aron
am es
Ġc ens
Ġdecre to
Ġnomb r
Ġsub si
VAL U
Ġdem ues
ĠP P
Ġ iv
Ġproyec ciÃ³n
ĠEs tÃ¡
ĠSil va
ol es
ĠDia g
IM ENS
C AR
h al
ĠAU TOR
ĠL on
ol os
ĠAc ciÃ³n
Ġdefin iciones
ĠF A
i ona
Ġcomple jos
di entes
Ġtr am
Ġres pira
Ġban da
Ġtrib ut
Ãĵ M
Ġdetec tar
Ġespec tro
Ġaconte cimientos
min o
M ED
RE A
Ġsuper vis
Ġquir Ãºrg
Ġin dag
Ġlle gan
F ICO
Ġa trÃ¡s
TE G
Ġintro ducir
ĠP uerto
Ġreflex iones
Ġhon or
Ġreg ionales
ĠTer ri
IP O
el d
Ġtr op
Ġace ite
Ġdispon er
Ġ13 9
Ġproduc tiva
s iÃ³n
Ġequi p
Ġacum ulaciÃ³n
Ġunivers o
Ġveh ÃŃculo
Ġex hib
Ġ14 5
x x
ĠPres u
ues o
00 7
Ġter ror
ION AL
v ier
Ġcos ta
CRI P
Ġp ur
fil es
Ġemoci onales
Ġintern as
Ġ14 1
Ġtrayec toria
Ã³r ico
cul a
Ġde pos
Ġque dan
-- -
ĠC AN
ig ht
Ġcal les
Ġpas Ã³
UL AR
C OM
un ivers
Ġasign aciÃ³n
Ġplane aciÃ³n
Ġvar ones
ĠVic ente
Ġcomplic aciones
ĠU E
e amente
ĠparÃ¡me tro
ĠCap ital
Ġre formas
Ġconv enci
Ġinvolucr ados
ĠI P
Ġunivers itario
Ġe ds
ĠA tenciÃ³n
Ġle tras
Ġen cam
Ġinvestig ar
duci do
in cu
Ġinform ado
Ġfran cÃ©s
a Ã±os
B S
Ġal f
ÃŃ ces
Ġconv encional
Ġherman os
ce d
r ente
Ġequ idad
Ġpa t
ĠCu ader
ĠM ic
Ġcons istencia
ĠUn i
Ġll en
di ciÃ³n
im ental
Ġconstitu cionales
Ġab rir
Ġelim inaciÃ³n
Ġcon cord
ul ados
Ġconsider able
gres os
AD E
8 00
Ġdetermin an
Ġc he
Ġfron tera
ita t
Ã©f ono
Ġes cog
Ġ19 74
un t
Ġej es
ÃŃgen o
cho ol
Ġfru to
ĠT iene
ĠC us
Ġalter aciones
ÃŃs imo
Ġafec tado
Ġt es
ĠC ho
ĠE C
Ġv oy
IM A
Ġven ido
Ġfis i
Ġpubl ici
m ia
ĠÃ³r denes
ĠJ er
Ġbarr eras
m arc
ADOR ES
ĠÃ© tn
ac ea
13 0
Ġnorm alidad
Ġprofun da
Ã© is
ĠA gua
jer on
ĠCl ÃŃn
Ġcu ento
Ġpar ecen
Ġnumeros os
is tros
ĠG eo
ĠcrÃŃ ticos
Ãī N
Ġs ystem
Ġprob ablemente
Ġrecib en
ĠRe visiÃ³n
ÃŃfic os
11 7
pre ci
Ġanaliz ado
ĠAndal ucÃŃa
Ġviv o
mp le
an i
ud aciÃ³n
ĠAy untamiento
ĠO f
olog ia
Ġsan ciÃ³n
ĠEj ecu
Ġban c
Ġcomen zÃ³
fer ente
Ġpas ando
Ġfavor ecer
Ġcomp ras
Ġex itos
ĠI talia
E duc
ĠOc tubre
ĠDec lar
pec tiva
Ġser ies
11 4
Ġf ores
Ġposicion amiento
Ġpon en
ĠMAR CO
Ġen ga
ĠCI ENCIAS
ON ES
Ġatribu tos
ĠF elipe
Ġ ital
ĠP M
ĠAbr il
Ġinici almente
Ġconsol idaciÃ³n
Ġprotocol o
Ġ6 00
con oci
Ġci ru
ĠB ase
ĠJ U
Ġloc alizaciÃ³n
ĠI M
ĠD ur
T i
Ġjus to
Ġpar to
Ġinterro g
Ġtr o
ĠV ill
Ġest aciÃ³n
Ġdi go
Ġ14 3
c aciÃ³n
Ġpendi ente
Ġah orro
n ar
Ãº car
Ġent endimiento
Ã¡ndo le
ĠBol iv
Ġpot enciales
Ġestad ÃŃsticos
te ga
Ġdis pu
ĠEMP RES
Ġre form
ĠprÃ³ ximo
me tro
b la
Ġcolomb iana
s ess
g io
all y
Ġlogr os
cul ares
Es tudi
ĠGo ogle
ĠM ON
cu ando
ec k
ĠE P
ĠsÃŃn drome
vil a
rec er
Ġsens aciÃ³n
ĠPol ÃŃticas
ĠZ ona
Ġdesarroll ados
0 10
Ġreac ciones
s s
ĠCas tel
12 4
11 6
cri tos
Ġaband ono
b or
Ġlec tora
Ġni Ã±a
Ġneg ativas
ĠAr tes
Ã©di to
Ġafirm aciÃ³n
Ġline amientos
Ġpop ulares
Ġhab il
Ġarquitec tÃ³n
Ġte ch
Ġgrave dad
ĠX VI
te ma
MIN IS
Ġl is
ĠDIS CUS
B N
ĠI MP
br idge
Ġres idencia
Ġvein te
Ġadquier e
Ġ2 20
e ficientes
du jo
Ġapoy ar
G E
uy a
ĠM et
Ġde no
Ġperfil es
Ġincu mplimiento
Ġt ÃŃtulos
Î ²
ĠgrÃ¡fic os
Ġextran jeros
Ġtranspar encia
pro ducciÃ³n
Ġdel ic
Ġb il
Ġ13 4
Ġmascul ino
C S
i tiva
Ġform ales
ĠS os
g et
Ġa fin
clus o
den tro
er ciÃ³n
ĠÃ¡n imo
ĠL aboral
ĠAc tualmente
Ġinclu idos
ĠEstad ÃŃstica
Ġn ueve
F ig
pres enta
ĠCON C
Ġse ver
Ġd ura
ĠUru guay
ĠPRO CES
Ġtempera turas
Ġcarb ono
Ġaz ul
Ġdescri ben
IT ULO
Ġprom ueve
Ġc ÃŃ
Ġw e
Ġemple a
ĠS ector
ĠA f
cur sos
ĠFAC ULTAD
ĠIN GEN
Ġ- .
Ġthe ir
ĠAn tio
am en
Ġaplic ando
ĠM OD
Ġver ific
ĠTen iendo
Ġutiliz aron
Ġdescrip tiva
EN O
Ġprevis to
ĠDia grama
ĠP IB
v ido
ĠDER ECH
Ã¡z quez
Ġas i
ĠPer io
ĠPRO FES
Ġjorn ada
en g
200 4
ĠL uc
ĠE F
Ġch il
Ġdetal les
r im
ĠEstruc tura
Ġc ari
Ġsur gen
Ġper cepciones
ĠTo das
estudi antes
Ġne utr
Ġmon ta
ĠC rea
qu ista
11 3
iv er
Ġflu jos
Ġgus to
Ġcab al
ĠC S
es ter
Ã©r icos
pers onas
Ġdesarroll ada
ĠacadÃ©m icas
Ġr ub
ĠMem oria
A demÃ¡s
ĠP N
cor rec
ri t
Ġmostr Ã³
Ġconstr uye
ed y
Ġsuminis tro
Ġn ucle
Ġalgorit mo
F AC
Ġ io
organ izaciÃ³n
Ġimpres cindi
Ġrecep tor
Ġfue go
Ġf lo
IN O
ĠSig lo
ĠVal lad
man era
Ġpro tes
Ġtitu lada
U J
Ġin dem
abil ity
Ġdenomin ada
fun dam
und aria
Ġman tienen
tiv ismo
Ġadministra tivas
Ġcompon en
R ec
ĠT Ãī
t ment
Ġobserv an
CI O
o ur
Ġfun ciona
, .
s istema
ht m
ĠÏ ĥ
d ÃŃan
Ġsac ri
gun a
ĠPar te
Ġ14 4
ĠSal amanca
ĠgÃ©n eros
ĠAn tes
Ġestar ÃŃa
Ġpart ÃŃculas
Ġf res
Ġdi e
O O
Ġcomp resiÃ³n
Ġc en
Ġti n
Ġpro pon
Ãį C
Ġparticip ante
Ġh ierro
Ã³ x
Ġr aci
ĠÎ »
Ġaisl amiento
Ġocu par
11 9
ĠS ERV
ĠA ran
Ġevidenci ar
Ġsu pon
ĠCri terios
Ġbas adas
Ġes fera
ĠProcedi miento
Ġil um
Ġvincul ados
16 0
Ġpin tura
Ġus ado
Ġrad ic
aliz aciones
ÃŃn ea
Ġse di
ĠMa terial
Ġtre inta
h es
la o
Ġexpres an
ĠLib ro
ĠR amos
Ġtrans mitir
Ġcomp uesta
Ġrad ica
Ã¡r qu
h r
ĠCh i
z i
Ġpropues tos
Ġv io
ĠAl fonso
Ġpercib e
Ġfundam entos
ĠPos t
Ġdro gas
fec ciÃ³n
Ġelev ada
Ġpun tuaciÃ³n
Ġ ente
tan a
Ġre pe
led ge
ha us
ĠA maz
es pec
Ġred acciÃ³n
ĠE R
re y
Ġ14 9
ĠPregun ta
e amiento
Ġempie za
11 8
ĠPue de
Ġsec ciones
Ġins umos
ĠReg iÃ³n
Ġvac ÃŃo
paÃ± as
Ġn eo
Ġprofun do
ĠAg ro
ez ca
Ġsin dic
ie go
Ġev ent
Ġpresent ados
tin os
RE Z
ĠteÃ³r icas
UN D
Ġv el
Ġ15 1
don os
ON A
Ġmodal idades
Ġex ceso
Ġpro f
ĠÃ³pti mo
Ġal ine
Ġcual idades
Ġcurr ÃŃculo
ĠR I
Ġningun o
uen ca
Ġcr Ã³nica
peri encia
ĠTur ismo
Ġro taciÃ³n
Ġreligios a
y u
ient ales
E ÃĳO
Ġgeo grÃ¡fica
ĠEl lo
Ġfi abilidad
Ġven de
di ciembre
Ġpedag Ã³gicas
ĠRec on
Ġcu o
c c
AL L
Ġsig no
Ġex tin
all er
Ġcons igo
Ġh egem
Ġconstante mente
Ġd arse
Ġfac ultades
Ġecu aciones
AN TES
ac u
Ġcomunic aciones
Ġf aci
Ġrevis ar
Ġam igo
ĠdÃ© ficit
Ġart ÃŃstica
Ġpan orama
Ġin da
ing er
Ġex puestos
Ġperten encia
V ol
Ġcom ida
ĠCh ar
Ġinter personales
OM B
g ues
er ales
ĠDoc tor
Ġpa utas
ĠMa teriales
Ġpon der
200 3
Ġes co
Ġa ci
Ġconvertir se
Ġma quin
e ira
18 0
Ġdi abetes
Ġ13 6
F R
Ġson ido
Ġsac ar
ĠAg us
ĠA po
ÃŃgen es
Ġaprovech amiento
Ġmercan c
ĠÃº tiles
Ġjuris dic
Ġentre gar
Ġab ajo
ĠmÃŃn imos
Ġp ra
I mp
20 2
y l
Ġm ide
ĠL U
ĠPu bl
Ġ2 30
Ġfe min
Ġ15 3
ĠV ARIA
ĠprÃ¡c tico
re e
ĠGu ad
Ġreconoci do
Ġ2 25
ĠT ES
d ados
ĠRos ario
ĠS ISTE
Ġinser ciÃ³n
Ġincorpor ar
C D
ĠM ora
ĠdÃ³ lares
ÃŃ var
ĠNorm a
IR EC
Des de
Ġotor ga
ĠO MS
ĠEDUC ACIÃĵN
ĠU d
Ġ14 2
Ġpo deres
ĠAn des
Ġterc eros
Ġre t
Ġcivil es
Ġselec cionar
Ġconver tido
Ġgestion ar
ĠEN TRE
pu t
tex t
Ġ13 8
Ġcons tantes
Ġpre mis
Ġ15 5
ĠArquitec tura
ĠquÃŃm ica
l n
Ġm entales
ĠImp or
Ġre tras
Ġper j
Ġimpl ÃŃci
An Ã¡lisis
Ġar tistas
ĠF U
ĠCon ocimiento
Ġobten iendo
Ġ14 7
Ġcos tes
OM END
ĠP ap
Ġob tienen
ĠCom par
Ġadi cionales
om un
Ġfal le
Ġgener aciones
ĠK ar
Ġreserv a
Ġinteres a
Ġp ensiÃ³n
ĠSO BRE
ies e
Ġe tique
ĠV a
Gr Ã¡fico
M edi
Ġestableci da
i que
Ġantigu o
Ġpol icÃŃa
Ġcateg or
genier o
Ġdiferenci aciÃ³n
Ġb ro
Ġcam inos
Ġespecial istas
Ġemp atÃŃa
ĠGlob al
ĠB lo
Ġinici ales
Ġadolesc ente
Ġemple ar
in ales
con tent
ĠclÃŃn icas
ment ales
Ġrespec ta
Ġmoder no
g lob
D a
i encia
Z O
AS E
ĠHerr era
car ga
Ġacerc amiento
Ã©cn ica
Ġro jo
Ġtendr ÃŃa
ing ton
Ġus an
Ġtur ÃŃstico
Ġemp rende
Ġmane jar
ari ado
Ġdiscipl inas
Ġcogni tiva
a ve
pres entaciÃ³n
Ġsolici tar
ĠA v
Ġefec tivamente
ch ar
ĠAn ti
ĠEstrateg ia
Ġpa que
Ġregres iÃ³n
Ġblo ques
ĠG Ã©n
Ġp iso
Ġincon ven
Ġderi va
Ġpro to
ili encia
se a
Ġsal ario
21 5
que ma
Ġelec toral
Ġsem estre
de los
Ġinfer iores
fa z
Ġlog ÃŃstica
Ġdismin uye
Ġenorm e
i tion
Ġcon cent
E v
Ġexplor aciÃ³n
U U
Ġti ende
Ġab arca
rel aciones
Ġcap ÃŃtulos
Ġpertin entes
ĠCom pr
ĠE CON
Ġidentific ado
ol d
ĠDe be
Ġresiden tes
ĠCorpor aciÃ³n
Ġprovin cial
Ġhorm ig
ĠA ustr
Ġmens ual
ĠMe ta
l ia
Ġmetodol Ã³gico
ol ina
Ġle tra
m ismo
ĠW orld
b s
ĠCam po
ĠR ica
Ġtempr ana
tÃ¡ lo
Ġin quie
Ġsil encio
it ados
Ġt ard
tra tÃ©g
12 2
Ġcl Ã¡us
Ġar tista
ĠM g
Ġre view
Ġmulti plic
may or
ĠInno vaciÃ³n
Ġsent encias
tan to
12 1
Ġac Ã¡
pe dia
I l
Ġviol aciÃ³n
ĠC M
ĠV ega
Ġnorm almente
Ġrad ical
Ġapropi aciÃ³n
Ġsol idaridad
Ġesper ar
ĠF L
ĠOr tiz
s igu
Ġproven ientes
Col ombia
12 8
IV EL
Ġreco ger
Ãį ST
ord inaciÃ³n
Ġep iso
M in
ĠMar zo
om er
Ġf as
Ġliter aria
ĠJuz gado
Ġpl eno
ĠG uer
ĠCu Ã¡les
mo der
Ġc Ã³n
Ġm l
Ġofici na
Ġin tu
ĠA lex
ĠclÃŃn ico
Ġdeber es
Ġv ÃŃ
ĠVallad olid
Ġpun ta
Ġflex ibilidad
Ġester eo
Ã©n dez
a e
Ġin her
er io
Ġmencion adas
ĠCons ultado
I CIÃĵN
ĠEn g
Ġreci entes
Ġc es
ĠMul ti
ĠS am
Ġaudi encia
Ġqu ieren
Ġsuper vivencia
Ġbo ca
ĠP U
Ġaf ili
ci das
ĠP ens
fin anci
y er
ue los
ĠAlej andro
ĠMaes trÃŃa
Ġpan talla
ĠMÃ© todos
Ġplante an
Ġesc asa
Ġres earch
emp resa
Ġquin to
va il
Ġfuncion ales
Ġcuen ca
Ġl Ã³gico
Ġhis p
Ġep istem
Ġp ic
Ġrela tos
ĠC uer
gr ÃŃa
ĠC OS
ARRO LLO
ĠRic ardo
ĠH asta
ĠagrÃŃcol as
ENT ACIÃĵN
Ġju gar
Ġabsolu to
ten dencia
Ġre torno
ĠRES UMEN
Ã¡ndo lo
ĠPh ys
Ġmencion an
im entos
Ġpre lim
Ġincl uido
ĠIg n
ĠS p
ĠlingÃ¼ ÃŃstica
Ġ- ,
ĠRam Ã³n
Ġocciden tal
Ġpro voca
Ġn ar
ĠIs abel
ĠA ra
fi anza
Ġcuantita tiva
s h
Ġcontrib uyen
ĠTri bu
ĠM ercado
Ã¡s tico
ĠA dicionalmente
Ġ19 72
Ġexport aciones
v ierte
ĠCons trucciÃ³n
V AR
Ġsolu cionar
E O
Ġcor rob
Ġins tancias
cul as
ĠAG R
jec t
ch i
L P
ad Ã¡
ĠRE FERENCIAS
TE M
s enti
Ġv oto
ĠDic ho
ĠGu a
Ġaprob ado
Ġact Ãºa
Ġtecn olÃ³gicas
IM IENTO
tur b
Ġrespec tivos
t ti
Ġa segu
Ġconcl uyÃ³
Cu ando
Ġro bo
tan dar
CU ELA
Ġconform ada
Ġmag n
Ġmedi ados
ĠDe mo
tr ico
ĠCl ima
Ã± e
Ġub ica
Ġtermin ar
is po
Ġurban as
Ġsan ciones
Ġterap ia
it ada
oci ales
la yo
Ġac op
Ġhab lan
e tal
Ġcon ocen
gun as
ĠO tras
F IN
Ġdec ÃŃa
Ġfe der
ĠPor tu
con stitu
ĠA T
Ġca t
ĠD ra
Ġconta c
0 20
Ġnumeros as
Ã³ so
AD AS
la ter
di ente
Ġactu alizaciÃ³n
cor respon
Ġcoher encia
is on
ĠA gra
la tivo
ĠMujer es
ĠV el
Ġsir ven
Ġprop Ã³sitos
in idad
Ġf idel
qui pa
Ġpudi endo
Ġlegisl ador
te dr
ent ado
ĠMol ina
titu ciÃ³n
Ġpens amientos
Ġin to
ĠÃ¡rbol es
Ġv iento
on de
ĠDISCUS IÃĵN
Ġin genierÃŃa
Ġayud an
Ġha ve
ĠF lu
ĠD ar
Ġevalu aciones
ĠEdi ciÃ³n
U AL
p ul
Ġinter valo
Ġdecl ara
m Ã©
Ġl Ã©
G ra
load s
m il
Ġmedi aciÃ³n
Ï ĥ
Ġlleg ando
ĠpÃ¡r rafo
ÃŃ dos
Ġgra tu
Ġencontr aba
P ero
ĠC aj
OMEND ACIONES
Ġ17 5
Ġconta ble
Ġfavor eci
Ġcicl os
ĠEnfer merÃŃa
ĠCu ar
Ġtitu lado
Ġm igra
sequ ence
cul tura
Ġfe minis
Ġobje tiva
ĠFac ebook
ord s
T IC
ation s
T AR
Ġden unci
Ġgan ado
t Ãºa
T ACIÃĵN
ĠANEX OS
n ess
Ġne u
Ã¡s quez
Ġ16 9
Ġra ÃŃces
ĠFu entes
Ġre iv
ĠCul tural
Ġf us
ĠvÃ¡l ido
Ġr um
V C
Ġm erca
Ġmetodol Ã³gica
Ġdeparta mentos
Ġcerc ano
Ġsan itaria
ĠSeg undo
aliz ando
ĠM S
p Ãº
ĠC el
z amiento
Ġfoto grafÃŃa
Ġubic ado
iti es
Ġmigr aciÃ³n
Ġeviden cias
Ġcre di
Ġmencion ada
Ġcomun itaria
qu illa
I AS
t arias
w o
Ġartic ul
Ġre iter
Ġred ac
Ġvis itas
ci alidad
Ġh ol
ĠFr ente
ul ario
Ġle ve
un ales
ide os
Ġnutr icional
Ġcons enso
ĠV ida
r s
di ferentes
pendi ente
ER R
an ismo
Ġdeb ÃŃan
Ġintegr ado
12 9
u f
ĠÎ ´
n c
Ġescuch ar
x on
G C
Ġ15 2
Ã¡n d
Ġafron tar
Ġlimit aciÃ³n
Ġg ene
Ġgaranti za
b y
Ġ17 0
Ġintr ÃŃnsec
Ġdi vis
Ġsient en
com ple
Ġin tim
Ġhal la
Ġlimit ado
Ġcereb ro
ta des
G EL
Ġexpor taciÃ³n
Ġsu l
ĠIb ero
Ġreduci do
Ġval e
e val
an n
Ġab uso
0 30
t Ã¡ndose
ĠSupre mo
Ġins ta
Ġti enden
U EL
Ġextranj ero
Ġcorrespon dencia
Ġdesarroll ando
Ġindic ado
Ġem isiones
ĠAdministra tivo
CI MIENTO
Ġresul tar
ol i
Ġsuperfici al
Ġarti ficial
s is
Ġju ven
Ġprofundi zar
cul turales
Ġem is
Ġexcel ente
Ġsex ualidad
Ġmuc h
ta m
Ġs peci
cr acia
ĠCam bridge
Ġlimit ada
Ġc Ã¡
Ġv idas
Ġperman encia
ĠCons ulta
Ġan un
ĠV III
Ġsoci alizaciÃ³n
Ġaut Ã©n
iden cial
ĠS ystem
Ġfir me
Ġentendi do
era tura
Ġperu ano
ĠC ual
OR MA
Ġmanifes taciÃ³n
Di rec
Ġvis ible
Ġne w
Ġa Ã©
Ġintegr ar
ĠD ATOS
ĠINGEN IER
Ġfras e
D F
T he
ap ar
TES IS
Ġarch ivos
ĠMar cos
r ad
Ġdiv ul
dr Ã¡n
t Ã©r
ĠG ESTI
tan der
Ġacces ibilidad
mit h
Ġint enta
Ġdef ender
ĠC ic
GRAF ÃįA
Ã³m icos
divers idad
ĠÃ¡n gulo
ĠrÃ¡p idamente
mit en
Ã©tr ica
ĠproteÃŃn a
o C
k et
c Ã³
P os
Ġpa g
Ġconsider adas
Ġco p
ĠZ am
Ġdemocr Ã¡tica
Ġ16 1
Ã± ar
utr iciÃ³n
Ġotor gar
respon s
Ġin tegra
ĠR EL
educ aciÃ³n
Ġhig iene
ol iber
Ġal o
Ġ16 5
ĠI dem
Ġin cons
Ġbos que
AN CO
fo que
ĠMÃ¡ laga
L OS
Ġ2 10
Ġconsider amos
Ġins pir
er ia
Ġtermin a
Ġil us
Ġdepen den
Ġt ensiones
Ġvari abilidad
ti fici
ĠEs tim
Ġsus pensiÃ³n
Ġvo ces
Ob je
Ġciru gÃŃa
ĠelÃ©ctr ico
Î »
Ġcr is
Ġseg uros
Ġesper anza
Ġclim Ã¡tico
Ġres ca
Ġintelec tuales
Ġampl iamente
z ano
Ġperio d
Ġpar ro
00 8
Ġdistingu ir
d ulos
ted ra
Ġmet ho
Ġno ticia
Ġafec taciÃ³n
r om
i ada
Ġcolon ial
aci n
ĠM is
T e
ĠP I
Ġn ace
V ari
ĠH en
Ġprodu jo
Ġanti gua
ĠcientÃŃfic as
ĠAl fa
Ġproce der
Ġpuer to
it enci
Ġesp esor
Ġsem illas
ĠhÃŃ dr
Ġsi quiera
Ġacel er
P Ã¡g
de d
ĠCap acidad
Ġins a
ĠFamil ia
ĠC antidad
Ġcap as
ta ban
y un
12 6
Ġmon o
ĠRe la
it ante
ĠMedi ante
Ġ15 7
ĠA pro
um er
Ġman ufac
Ġrealiz arse
Ġreal idades
TU AL
z can
ĠBlan co
ĠT an
Ġcuestion arios
P RES
Ġan uales
Ġen do
Ġdes viaciÃ³n
Ġc Ã³digos
Cu adro
Ġde ficiente
ĠHaci enda
ĠPi ura
I OS
p el
D EZ
Ġsegun dos
a tional
Ġreflex ionar
z aciÃ³n
port una
Ġfron teras
Ġver ificaciÃ³n
ĠT el
cion ado
A m
ac ha
ĠA gosto
ĠPRO BL
ĠC uenca
Ġad mi
Ġmas as
Ġproduc tivos
Ġrecha za
Ġcompr ar
Ġimpul so
ĠDim ensiones
ĠPro cesos
Ġdetermin ante
al ia
acea e
ne y
Ġcuadr ado
ĠA dap
Ġhom ogÃ©n
ĠD ado
ĠDon de
encu ent
Ġcontro vers
Ġpri va
Ġvig entes
Ġedi torial
ĠmÃ¡ quinas
tr ales
Ãºm enes
Ġdesap ar
Ġasigna turas
Ġcon tienen
as o
Ġfru tos
Ġdes com
ĠNivel es
Ġob esidad
EN TI
til aciÃ³n
Ã¡l ido
Ġconcep tuales
ĠTotal mente
Ġdedic ado
ĠEurope an
Ġescal as
CI P
Ġmanip ulaciÃ³n
Ġinmedia tamente
ĠRies go
ĠN ACIONAL
Ġdiag nÃ³s
Ġqued Ã³
Ġafec tada
Ġconj un
Ġespiri tual
12 7
Ġmor ales
45 6
Ġindependi entemente
Ġconoci dos
Ġfib ra
mon s
ĠE VALU
id ro
ĠD IMENS
Ġa genda
Ġmec Ã¡nica
14 5
ĠCos to
ICI O
ĠIgu almente
Ġch ar
Ġtr iste
Ġsecund ario
Ġaliment aria
oci onal
Ġpie dra
ĠEn seÃ±anza
n uev
ĠF err
Ġalim ento
Ġpa v
ce la
Ġbiblio teca
Ġgener ados
Ġfal lo
ta bles
Ġdescub rir
es es
ĠCap aci
ĠP AS
Ġfis cales
Ġpr isiÃ³n
Ġencontr ados
Ġin ten
Ġpo eta
ĠDomin go
ĠR an
Ġlogr ando
ĠB il
ĠRe alizar
Ġdispers iÃ³n
ĠPÃº blicas
Ġno vel
Ġh em
ĠO P
teg orÃŃas
ĠJ udicial
Ġ15 9
ĠP ERS
000 2
Ġfi ja
Ġan unci
Ġus e
tu res
ÃŃn a
ĠAs amblea
Ġquiz Ã¡s
ĠK o
Ġci elo
re f
Ġap el
to grafÃŃa
Ã¡s tica
iz acional
ĠNo viembre
ĠFeder al
Ġh y
ĠTe le
igu iendo
ĠOBJE TIVOS
li te
Ġprocedi Ã³
Ġpres tar
Ġgl uc
Ġfra caso
a ted
t encia
in form
ĠOr tega
com pr
ĠB ach
m iso
ĠR en
l ib
Ġcompet ente
P lan
Ġ2 17
Ġinter ven
Ġher mano
Ġprior idad
o a
ĠperiÃ³ dico
os idad
ĠPROY ECTO
Ġconcre tas
ĠCh im
Ġaborda je
Ġri ego
te z
F O
o ks
res ultados
ĠlÃŃqu ido
Ġac os
ECH A
Ġob ede
Ġrespec tivas
Ġ19 71
g estiÃ³n
ens ion
ĠF ol
Ġrecuper ar
article view
Ġ2 80
ĠOfici na
tan ce
ĠEn say
Ġdomici lio
U B
2 20
ÃŃ das
Ġextranj era
ĠH el
ĠseÃ± ora
Ġconf ron
Ġeurope o
Ġcomun itario
Ġempez ar
Ġinvent arios
Ġrepresent ante
c omb
Ġid Ã³n
Ġsab emos
iz Ã³
Ġcre ando
Ġcam paÃ±as
ĠCr is
Ġr is
Ġg ir
Ġ16 3
uer ta
Ġasoci a
qu ÃŃn
Ġpu blica
Ġsens ible
Ġa Ã±a
Ġ14 6
re la
Ġglob alizaciÃ³n
ĠN Ãºm
Ġconstr uido
ĠCh ic
ĠDis trital
Ġconduc e
me d
ĠESTU DIO
Ġpien sa
ci ne
Ġampl iaciÃ³n
Ġliber aciÃ³n
ch os
Ġamena zas
man da
ĠEn viron
ĠVi olencia
Ġcontemp la
Ġon da
Ġg a
T ON
y endo
Ġexter nas
i um
Ġvig or
Ġ19 68
Ġrup tura
Ġneg a
AN EX
ĠTA BLA
Ġ14 8
Ġcon cer
Ãį AS
ĠJe fe
pro ach
ĠF ase
p id
Ġaclar ar
Ġdomin ante
Ġfemen ina
ad res
Ġcon formaciÃ³n
ac tividades
Ġdefin idos
ĠRiv era
ĠP AL
Ġtej idos
ĠÃį N
ĠL is
Ġcontin Ãºa
uel ve
Ġdes centr
Ġinflu ir
Ġmedi ciones
ĠAnte cedentes
Ġexperiment ales
ĠF O
de a
Ġatra ves
ĠI X
ĠT ierra
ĠdidÃ¡c ticas
ol ar
ĠAntio quia
ĠM y
pol ÃŃtica
Ġpa ti
ĠobstÃ¡ culos
Ġt os
Ġesque mas
rÃ¡ ul
TU R
ĠParticip aciÃ³n
Ġcomunic ar
S al
Ġre pu
Ġinstruc ciones
Ġconstruc ciones
ĠB ri
Ġconcre tos
Ġinform al
Ġb elle
Ġrazon able
ĠXV II
er ica
un as
Ġcur s
Ġcir cular
pi te
ĠCom paÃ±
enci almente
Ġnav eg
Ġdoc encia
om isos
ĠT est
Q ue
ĠA V
D el
ci udad
un es
Ġint entar
l ando
Ġdin am
ĠÏ Ĩ
ĠInstitu cional
ĠRec omend
ber t
ĠREC OMENDACIONES
F I
Ġseleccion ados
Ġqu is
r eros
Ġefectu ar
ĠPe Ã±a
adminis tra
Ġcol ecciÃ³n
Ġreno v
Ġsob res
Ġmo da
am ar
ĠB ienes
in ci
ĠquÃŃm icos
L u
ĠM OR
te or
Ġtr ip
Ġper dido
Ġsos pec
Ġgol pe
Ġrepresent ado
ĠESTU DI
fun ciÃ³n
Ġcon t
Ġtar je
Ãģ S
t omÃŃa
ac on
Ġsim ples
dim ensional
Ġa leg
Ġmoder nidad
ĠS OL
Ġalter aciÃ³n
ĠSe p
g ia
Ġmunicip alidad
aci Ã³
F echa
s alud
Ġre habilitaciÃ³n
P o
ĠW h
Ġpar que
P M
Ġcru cial
Ġdo ce
Ġb en
ĠK g
un iden
n aciÃ³n
Ġte mor
ĠcompaÃ± ÃŃas
ig an
Ġpl acer
ĠCarta gena
Ġpres taciones
p ri
ĠGr acias
Ġcoinci de
Ï ģ
Ġpos esiÃ³n
ul d
a a
Ġaqu Ã©l
Ġtras torno
Ġfil Ã³so
Ġ................................................................ ................................................................
Ġejer ce
ĠB AR
ĠOrg Ã¡nica
ĠDirec tiva
Ġdetermin antes
Ġtrad iciones
Ġelim in
Ġign or
Ġdesarroll adas
In stitu
Ġrela tivas
Ġca udal
Ġva por
ĠIgn acio
ĠH y
Ġest aciones
Ãº tbol
Ġdi eta
Ġfavor ece
Ã³ vil
Ġ19 60
ĠMed ina
C OL
20 1
Ġrela tivos
Ġexig encia
Ġfic ha
Ġles iÃ³n
ĠTÃī CN
uc ar
Ġas ist
Ġs iento
Ġtu ber
ogene idad
ĠPro pie
Ġreal ice
Ġge omÃ©tr
Ġ15 4
Ġconv iv
ti Ã³n
Ġre cip
Ġcuad ros
Ġin cendi
tar a
Ġexclus iva
ĠSO CIAL
Ġe man
Ġprev ias
ĠInf antil
ĠDe velopment
Ġ19 69
Ġil ÃŃci
u k
all ero
Ġus ing
ĠA A
M Ã©
Ġcor tes
Ġcircu ito
Ġresta ur
tifici a
Ġindic ando
ĠDeclar aciÃ³n
Ġtri un
Ġsal arios
ĠOx ford
Ġban cos
Ġcon voca
ha vi
ĠPla za
Ġtrans cur
Ġcompar ten
ĠInstitu ciones
an dos
ĠtrÃ¡ mite
Ġalcan zado
Ġoptim izar
ant ÃŃa
ĠJ ap
Ġquer emos
Ġtempor ales
ĠClas ificaciÃ³n
ibil izaciÃ³n
tig io
v ic
ue ven
Ġplante ados
Ġs eno
Ġcons ign
ĠConven io
Ġdes n
a torio
ida e
ĠAD MINIS
13 5
trÃ³ leo
ĠF icha
ĠLe on
p las
fr on
ĠA ug
Ãº me
al s
Ġcuar ta
w in
Ġencuent re
ĠTo da
Ġdemues tran
Ġta m
Ġpudi eran
pe d
Ġmal o
Ġcorre o
ier ten
Ġexplor ar
Ġci tada
ier no
Ġpobl adores
ker t
T ambiÃ©n
ĠPa ul
Ġmaes trÃŃa
ĠJ ac
ca den
Ġcomp e
Fin almente
Ġpe dagogÃŃa
en contr
Ġabsor ciÃ³n
Ġrecog ida
car b
ĠJ uez
Ġliber al
OL ÃĵG
Ġmostr ando
ĠP aci
ĠC Ã¡l
ill era
Ġp le
Ġ17 1
ĠMo del
Ġexam inar
ter no
Ġoptim izaciÃ³n
uc es
Ġdesaf ÃŃo
B OR
Ġproce dencia
ĠBol ÃŃvar
ĠC fr
ĠL ac
organ ismos
jer as
Ġeval Ãºa
or s
Ġsosten er
ĠG obern
Ġinvoluc ra
Ġpar cialmente
Ġgen es
Ġh ec
Ġconj unta
ex per
ÃŃ qu
Ġm ales
vail able
Ġ16 7
ĠmÃ³vil es
Ġ2 60
Ġo portuna
Ġcif ra
Ġpercib ir
ĠAre quipa
Ġcorrec ciÃ³n
ĠL abora
u ario
ĠWill iam
pro yecto
Ġsalud able
Ġj ard
Ġinform a
Ġc ep
Ġpuer tas
Ġdese os
ĠGR ADO
indi vid
ED AD
Ã©n dice
Ġun d
gu i
Ġfuer an
Ã¡m enes
Ġreflej an
Ġemple ando
Ġbar rios
ĠIden tificaciÃ³n
u i
ub e
Ġretro alimentaciÃ³n
g encias
Ġdej Ã³
ri es
Ġpa to
N E
ES CO
B U
Ġdiagnos tic
u den
ĠDocu mento
Ġ2 22
ond res
Ġidentific an
eg ue
Ġaf irman
Ġ15 6
Ġcamb ia
Ġres tos
yec ciÃ³n
Ġpro ponen
Ġd ul
ĠMe tropolitana
Ġref ug
j ero
gen os
Ã¡r mac
Ġsoci almente
Ġtur ÃŃstica
Ġl uch
Ġsin te
N ivel
ic ana
ĠCom ple
ÃŃfic as
Ġconstitu ir
Ġm ara
Ġexpl ora
ĠdiseÃ± ado
Ġma ÃŃz
Ġap unta
ĠA cep
Ġmanda to
ĠSa tisfacciÃ³n
Ġimprescindi ble
Ġtransform ar
ĠInstrum ento
it Ã³
Ġide ologÃŃa
e qu
ta tion
Ġpre c
to ck
ta c
ti embre
Ġdestre zas
Ġau toma
ĠMAT ERI
Ġra za
ach ing
tiv ar
Ġmol Ã©
200 2
G T
Ãĳ OS
GU EZ
Ġ17 3
Ġas c
Ġco pia
Ġc Ã¡r
Ġcoleg ios
ĠLa w
is co
ĠCh r
Ġoblig ado
Ġgar an
Ġvari anza
Ġab aste
Ġcompara tivo
U P
Ġban co
eg os
Ġtu b
Ġdeci diÃ³
ez can
ĠCient ÃŃfica
Ġab us
Ġhis tori
Ġfal la
f fer
00 9
es per
Ġim pone
no ut
ob ar
Ġenl ace
da tos
r idos
ĠLic encia
Ġdoc toral
ĠProble ma
oci tos
Ġfues e
am pa
w ell
ĠD en
ÃŃcol a
Ġdesp li
Ġro pa
Ġap r
ĠSAL UD
f en
ion e
Ġcaracter izan
Ġprotagon ista
ĠSO CI
Ġe dific
Ġempres arios
ic y
Ġvincul adas
p io
Ġt ono
Ġidentific ados
ĠseÃ±al Ã³
ĠIntegr al
Ġgra v
r er
Ġde ficiencias
ĠB ea
Ġtrim estre
ĠO F
ar re
Ġar ren
Ġform ular
Ġper pe
Ġextre mos
Ġplante ada
Ġre vela
ĠPar tido
ARI OS
Ġh el
Ġjus tifica
Ġes perado
Ġpre ferencia
Ġcaus al
tol Ã³gica
Ġsol id
Ġesta bil
Ġexpres ado
ĠLiber tad
Ġfrecu entemente
Ġencontr arse
Ġexam in
Ġdis par
te za
ĠÏ ģ
ĠAC TIVIDAD
eran ÃŃa
Ġmic ros
Ġestu vieron
Ġaz Ãºcar
Ġf os
Ġpeti ciÃ³n
ĠFran co
Ġinteres ados
m ul
ĠEurope o
Ġpare jas
Ġar gentina
Ġbelle za
Ġpel ÃŃculas
Ġimplic aciones
Ġv ector
Ġconcep ciones
Ġapara to
dio vas
ĠI L
Ġex ce
ĠÃŃn dole
Ġ24 0
Ġdese mb
Ġalmac Ã©n
Ġestudi ados
Ġeurope a
ĠAdminis tr
ĠF IG
TI ON
l las
A u
ARC ÃįA
ĠÃįN DICE
ĠDES ARROLLO
Ġagr icul
ig e
f is
uel lo
ĠU b
Ġju icios
Ġinter venir
Ġbor de
ĠESPA ÃĳA
ĠPlan ificaciÃ³n
Ġint encional
c alidad
Ġexperim ento
Ġpe or
ĠJus tificaciÃ³n
Ġfel icidad
TR UM
Ġlec tores
Ġdes as
es tos
ÃŃci les
Ġdi pl
Ġincen tivos
tes tin
Ġmon to
con tinu
G AN
ĠEmp resas
Ġdesemp leo
ĠcÃ¡l culos
ĠdinÃ¡m ico
Ġinterv ienen
Ġrad iaciÃ³n
g uez
Ġpublic ada
Ġdej ado
V O
signi fica
ie mb
Ġcor ta
Ġapar ecer
Ġ15 8
ĠI R
ĠFac tor
Ġprimor dial
com er
Ġdeci de
ĠH UM
Ġc ha
Ġdej an
orden adas
Ġrespon den
estudi o
Ġ16 2
Ġin icios
Ġtra e
al ta
Ġtestimon io
ĠCo opera
S P
Ġrazon amiento
M AS
ĠIN DIC
Ġalim enti
tad ura
ĠCom pu
Ġintegr an
ĠC ENT
cla je
Ġgas es
ĠRe ferencias
Ġ19 2
gru po
derech o
p to
Ġbiblio grafÃŃa
tol Ã³gico
bitstream handle
Ġde trÃ¡s
Ġterri toriales
soci ales
ĠDa ta
Ġserv idores
Ġest an
ĠC aja
h ar
as i
ĠS um
ĠR ED
ĠV ersiÃ³n
Ã³me tro
Ġci tar
ID OS
er ta
ĠCal le
Ġcar tas
Ġp ies
Ġfi jo
d om
Ġcogni tivas
Ġg re
Ġen s
tiv es
ĠdidÃ¡c tico
Ġf es
ĠDel gado
ĠTor re
13 4
Ġflex ible
Ġ17 2
Ġempres ariales
Ġhe alth
Ġpodr ÃŃamos
tr ad
ĠEf fec
gu en
Ġox ÃŃgeno
TIV AS
Ġconstitu ido
am Ã¡
ENT AL
ĠLoc al
Î ¸
ĠP es
Ġprim ario
ĠRespons abilidad
Ġtoler ancia
Ġun e
amb iental
ĠPro tocol
ĠA H
f s
ĠP ie
Es tado
Ġespeci fica
Ġrespe tar
ĠA ÃĳO
Ġidenti dades
Ġvoc ab
ĠP ac
20 3
M on
Ġver b
jer ci
les ias
ĠM P
Ġdia grama
Ġrev olucion
de la
Qu Ã©
Ġhal lar
ue bas
dal yc
Ġconf irma
Ġguar da
ĠPar is
ĠP are
ĠS iendo
erramient as
s ula
am i
g ro
Ġjue ga
Ġte m
Ġsor p
Ġseg mento
Ġc ell
Ġ18 1
T ÃįN
Ġcul pa
ĠCus co
g s
Ġaplic an
ĠO ro
Ġlogr an
ĠA rias
Ġconform ado
Ġre tenciÃ³n
b ito
Ġrecop il
ĠSol o
om al
ĠJ A
au tor
Ãļ BL
Ġpas an
min ario
ent en
l Ã³
Ġveget aciÃ³n
se t
et work
ti al
ĠMun do
Ġs istÃ©m
Ġsus ci
con diciones
a Ã±o
Ġv arÃŃa
Ġpercib en
v idad
A p
lam ent
n acionales
Ġadap tarse
Ġf la
cib e
cog ni
ĠG ir
Ġinfec ciones
Ġr igur
13 2
Ġhabl ando
ari ciÃ³n
ida de
Ġfoto grafÃŃas
an es
Ġposi tivamente
Ġestim ar
po co
Ġir regular
ist ad
Ġv enci
l ing
Ġconex iones
iller mo
ĠEv oluciÃ³n
Ġfrag mentos
ĠSe x
ĠW ork
e mas
GR Ãģ
r enta
ĠDIS EÃĳO
Ġtrans por
Ġp uso
ĠPol it
ĠSan tander
Ġs tr
IS TA
ĠSe bas
Ġma xim
Ġo ch
ĠAn trop
um ento
Ġrecon ocen
ĠI A
a o
ĠMETOD OLOGÃįA
Ġbacteri as
Ġaplic adas
lan os
Ġcon curso
11 11
200 1
gu as
ĠA ren
c ara
I E
ĠFin al
Ġindustr ias
ĠbÃ¡s icamente
er ro
Ġdef ens
ĠProble mas
Ġapropi ado
Ġmigr antes
Ġinform ar
e je
Ġargen tino
Ġpar ed
w ay
Ġaprovech ar
is tiÃ³
T ICA
Ġ19 0
ĠAs soci
Ġpedi r
li que
Ġrecons trucciÃ³n
Ġte a
estruc turas
emp resas
Ġpresu puestos
Ġdestin ados
tÃ¡n ea
Es c
ĠSeg u
Ġeleg ido
ĠT anto
Ġci tas
Ġdes vent
Ġemple Ã³
Ġre bel
Ġom isiÃ³n
ab al
Ġor ÃŃgenes
ĠRes ultado
lic e
ĠPresu puesto
ĠCOM UN
Ġsim bÃ³lico
Ġru tas
r r
pro por
Ġa ver
Ġcor pus
ĠES P
ĠP eso
l ab
O H
ĠÃ³pti ma
Ġdeba tes
ter ales
Ġadi ciÃ³n
ĠI G
14 4
ĠÎ ¸
istr ado
0 50
Ġcircuns tancia
t Ã©s
TRO L
Ġreligios o
Ġconcord ancia
Ġsuficiente mente
13 6
ĠautÃ³n omo
Ġperu ana
Ġcon ducir
ciden te
Ġdeb idamente
am in
ĠRe flex
H z
Ġnorm ales
ĠĠ ĠĊ
y as
Ġ17 7
por que
PUES TA
IL I
ĠUnivers itario
Ġ18 5
Ġnorm ativas
tÃ¡lo go
Ġactiv aciÃ³n
Ġtom o
medi ante
ĠS AC
Ġp ide
ti ro
x a
Ġn aciones
Ġgru pal
Ġterren os
Ġsubje tividad
v s
mun do
tan t
ĠSos ten
br al
Ġprol ong
Ġ17 9
ĠB aja
Ġhormig Ã³n
ĠIn d
Ġpil oto
fi que
Ġcoher ente
Ġpre ferencias
ĠA us
Ġpo tes
Ġt ari
is ion
lor ia
Ġdetal lada
Ġresal ta
Ġdif ÃŃciles
min as
Ġmostr ado
Ġep idemi
fer ence
Ġce mento
ĠNic ol
24 0
Ġne oliber
Ġim presiÃ³n
ĠTE ÃĵR
ĠM es
ON Z
Ġ18 3
ĠDes arrol
ĠR Ã©gimen
ĠBoliv ia
Ġna tur
ÃŃ fer
S M
ĠHu anca
pu blica
C os
Ġavan zar
Ġevalu ados
u tu
n n
D L
Ġm el
Ġdel incu
13 3
Ġubic ada
ace ta
Ġm Ã¡r
Ġdi os
Ġconj untos
Ġpor tu
Ġ8 00
ĠCr isto
ven ida
Ġespos a
Ġb ene
ĠMur cia
Ġ2 11
ĠLatino amÃ©rica
Ġeurope os
Ġhaber se
ĠGESTI ÃĵN
Ġreper cu
Ġsustitu ciÃ³n
Ġdise Ã±os
Ġgubernam entales
in do
Ġdirig idas
Ġper cep
Ġinter disciplin
pro cesos
Ġc erv
ĠcontemporÃ¡n ea
IL LA
ĠClÃŃn ica
Ġfal las
ra z
h ÃŃ
Ġreligios as
Ġde ud
Ġv es
Ġmeta bol
ĠJa ime
Ġvi abilidad
Ġen g
Ġpo ema
es cri
Ġhoriz onte
Ġco eficientes
15 5
Ġ16 8
Ġin duc
Ġsab en
Ġvolun taria
Ġcolabora tivo
Ġdesap are
Ġorient ado
Ġhor ario
Ġantigu os
Ġvia jes
13 8
ĠS N
Ġanaliz adas
ĠGr Ã¡fica
Ġfan tas
C M
Ġe gres
Ġf echas
ĠIn t
Ġj ud
Ġm ent
Ġi os
Ġmarc ado
Ġtan g
Ġrespec tivo
Ġrefor zar
Res umen
ĠD id
Ġdirig e
Ġpublic ados
Ġprob ar
ĠU l
ĠE ds
Ġin c
Ġindi os
ur t
Ġdifer encial
ĠPROFES IONAL
mar ca
ĠTÃ©cn ico
ific ada
ĠN E
Ġimag inaciÃ³n
Ġven der
ĠE ra
16 8
Ġcul min
Ġdirig ir
h l
Ã© ro
Ġim poner
J o
tic ulo
to tal
Ġdeb ida
AR A
Ġcomple jas
ex iÃ³n
Ġamp aro
Ġpropie tarios
Ġemple ada
ĠÏ Ģ
ĠT EC
ĠGu z
d inal
or t
ĠAn alizar
Ġsufr ido
Ġperform ance
ĠD in
Ġgr am
ĠSoci ety
ar nos
Ġacu dir
Ġ16 4
j ada
ĠBiblio grafÃŃa
Ġman age
ĠSu Ã¡rez
ĠAc ta
Ġreg lamento
ve d
Ġa vis
Ġtrans fer
Ġde velopment
reg aciÃ³n
Ġtrib unal
Ġfuncional idad
Ġcon oz
vir us
on da
ĠM ach
Ġotor g
ĠC erv
Ġd adas
ĠLi kert
Ġres iliencia
Ġprom oci
ĠEs quema
ĠL ondres
Ġex cepto
ĠE u
ÃŃ e
ĠTom Ã¡s
ĠS EM
Ġo C
Ġfic ciÃ³n
17 0
Ġmencion Ã³
dal ena
Ġse co
Ġrecu erdo
z co
Ġnaci do
Ġdic ta
er ing
Ġincrement a
Ġju ventud
ĠDic ha
Ġvis uales
Ġpermi tieron
Ġsit Ãºa
T H
ĠN uestra
Ġesc ucha
Ġ19 5
Ġdestin ado
ĠR OD
D R
enci ar
ĠImp acto
in aria
Ġsobre viv
Ġdi as
Ġllam ar
17 5
ĠES PE
Ġcapaci taciones
Ġentendi da
Ġpro xim
ĠTR ANS
cis mo
Ġdemocr Ã¡tico
Ġps i
ecu encia
Ġsol v
Ġin a
Ġconvers aciÃ³n
Ġar terial
ĠCom paraciÃ³n
Ġmon eda
ĠM ec
Ġdis tr
n an
ĠR ural
Ġestudi a
Ġau tos
Ġimp ide
Ġelectr Ã³nicos
Ġargum enta
ĠD ol
Ġescri be
Ġmodi fica
Ġproduc tivas
Ġcons ecuciÃ³n
Ġos ci
ĠEs cri
Ġd arÃ¡
Ġqu erÃŃa
TOR ES
ĠCuader nos
Ġmar g
cons trucciÃ³n
Ġderiv adas
o tras
ĠPol icÃŃa
b ur
ĠPe dag
ĠTi tu
Ġcorreg ir
Ġ- --
Ġdep Ã³sitos
Ġcer tific
Ġquiz Ã¡
Ġex poner
ient aciÃ³n
ro ugh
en fer
ER RA
ĠInstrum entos
per io
ĠIndustr ia
Ġindic Ã³
Ġadolesc encia
Ġcar reras
C i
ĠN Ãº
ĠPatr imonio
r ada
Ġencuent ren
ĠSec undaria
am bre
ĠAl ianza
Ġprotocol os
Ġej Ã©rcito
ir re
j s
ta tiva
p in
ĠTra tado
ac en
pon entes
im er
Ġev itando
Ġdiv ide
is Al
Ġsin t
Ã³ tica
Ġaudi torÃŃa
it z
ĠSupre ma
Ġt orn
Ġproce dentes
AL IDAD
ĠSebas ti
Ġden tal
Ġexp an
Ġ18 9
Ġinspec ciÃ³n
ÃŃs ima
Ġempez Ã³
ent amiento
Ġing les
ĠF ron
Ġnarr aciÃ³n
ĠD M
ĠT omo
ic ciÃ³n
Ġra p
ĠclÃ¡s ica
it t
Ġinterpre taciones
ĠOb ras
uy o
19 0
ĠEsta blecer
P ol
Ġindag aciÃ³n
xim as
Ã©u tica
d urante
ik i
Ġval ora
ole do
ĠaÃ±ad ir
and ra
Ġintro duci
re al
Ġ2 15
ĠT ol
Ġre tom
ver n
Ġper me
ĠINS TITU
ĠCar rera
Ġescri tor
ĠR ÃŃos
Ġsuf rir
Ġtur istas
Ġrespec tiva
Ġprofes ora
Ġre porte
ĠGu ar
Ġimplan taciÃ³n
low edy
Ġha gan
ona to
L ey
iz as
ĠF i
ĠMunicip io
ĠH an
TE L
Art ÃŃculo
gun os
Ġgan ancias
IT AL
Ã¡ ez
ĠestratÃ©g icos
Ġg iro
ĠCÃ¡ diz
Ġextre m
ĠB U
t Ãºan
Ġsenci lla
us as
Ġre Ãºn
uc al
ren o
Ġ19 1
Ġran gos
fa to
l ina
Ġcre an
Ġag encia
Ġ19 3
Ġliqu idez
Ġref iri
ĠPol i
Ġinter f
b ase
Ġliter ario
Ġgu ÃŃas
us ia
Ġar ticular
Ġmaquin aria
2 10
Ġlegitim idad
ĠS IG
Ġo v
ar me
J os
ĠPro ce
, -
Ġ16 6
as s
ve y
Ġex haus
m ec
ĠÃ© tico
Ġanaliz an
Ġconvers iÃ³n
Ġorient ada
Ġ3 50
Ġrefer ida
Ġvuel ta
ĠespaÃ±ol as
Ġpro li
ĠBar ran
Ġdes tina
Ġpos turas
Ġdirec tos
Ġus ados
ĠNav arro
ĠN um
Ġcentr ado
ĠAgus tÃŃn
Ġarreg lo
Y A
Ġp uente
Ġquin ce
u rez
Ġpas ivo
Ġsuperfici es
IZ A
Ġdegrad aciÃ³n
Ġinici Ã³
te a
ĠC ob
ĠVI H
ĠPrim ero
Ġde fecto
ĠAgr icultura
Ġn u
uls iÃ³n
ĠIn vent
ĠestÃŃm ulos
Ġcolum nas
Ġcomple tar
uca ult
Ġorganiz ado
es tÃ¡
ĠS ac
Ï Ĩ
Ġilum inaciÃ³n
an im
Ġpun taje
ĠPon tificia
Ġac oso
Ġper i
Ġ19 67
ĠhistÃ³r icas
il iar
Ġdi arios
Ġtras lado
ĠSe ptiembre
s crip
ĠperÃŃo dos
tiv ista
ĠPue blo
Ġhec tÃ¡
Ġecos istemas
Ġtrans i
ĠF ERN
ve je
i us
ĠC op
Ġf re
Ġuni forme
Ġparti endo
og en
Ġllev aron
Ġar ena
w eb
Ġ20 2
20 24
Ġreemp la
Ġexplic an
Ġaudiovis ual
13 1
ter ri
Ġcub ierta
ĠAc ceso
ues tas
Ġ2 23
Ġdibu jo
Ġtra tan
P s
Ġsal e
ĠNi Ã±o
aci miento
te des
ĠS M
Ġsan itario
Ġr amas
Ġcompr omisos
21 4
ch er
Ġte mÃ¡ticas
tic ales
Ġasegu ra
Ġfavor ables
Ġestrech a
Ġtan tos
later ra
Ġsub ray
comun icaciÃ³n
ĠS tudies
Ġclas ificar
Ġpropor cional
ĠJ orn
Ġcom mun
Ġafec tadas
Ġfund aciÃ³n
a fec
m Ã³s
Ġcapital ismo
Ġem er
Ġopera tivo
Ġab ar
enci ada
er se
Ġconserv ar
Ġpudi eron
pue den
Ġu ti
Ġfuerte mente
Ġmar gin
ibr aciÃ³n
oso tros
ĠIb id
ion s
isAl lowedy
Ġmanage ment
oy a
Ġinm ers
Ġcalcul a
Ġsu cesos
Ġgrad u
ĠEl ena
TA M
ic ar
Ġaplic ados
Ġher e
ĠI a
Ġtur b
ĠQu ÃŃm
uc ciÃ³n
Ġmam Ã¡
Ġd orm
til las
Ġrestric ciÃ³n
ĠV ie
ĠCons erv
Ġindirec ta
var o
Ġdirec tivo
Ġf lores
ÃŃ t
Ġl adr
r am
Ġr ÃŃos
Ġpla zos
14 6
ĠU P
Ġmate mÃ¡tico
tan g
B E
Ġsegu ida
Ġins cripciÃ³n
com pet
g ica
ĠTra tamiento
Ġoper adores
con cepto
Ġest ando
Ġbrech a
Ġla teral
p lo
ec ÃŃan
Ġgener Ã³
le v
is ter
In s
ĠA PL
ĠN IVEL
78 9
13 7
Ġcar di
ĠPrim er
ti tis
mu jer
Ġpobl acional
es colar
Ġplante Ã³
ĠDis cusiÃ³n
14 8
Ġencam in
es en
13 9
Ġ19 7
Ġapar te
Ġ18 7
Ġad vierte
Ġmeta f
ÃģN DEZ
adr ado
m ado
cl uye
ĠSala zar
Ġconta bilidad
Ġbiblio grÃ¡fica
Ġs ic
ĠsÃŃmb olos
ĠG ARCÃįA
Ġ eros
ĠINS TRUM
Ġden uncia
Ġvisu alizar
b ro
ĠcÃŃr culo
his toria
F C
EM BRE
val os
Ġconven io
Ġrecur rir
Ġcar encia
ĠDERECH O
ĠC esar
Ġllam ados
h en
Ġacciden te
Ġsu poner
qu era
Ġprim as
or ios
Ġma pas
Ġencontr aban
ist ÃŃa
Ġparticip a
gu age
Ã¡lo gos
Ġprop uso
Ġdep Ã³sito
Ġah or
tic es
Ġev olucion
ĠclÃŃn icos
Ġdific ul
ĠBÃ¡s ica
Ġeconom ÃŃas
gu aje
i anas
Ġle al
Ġ2 21
ps ic
Ġcul p
ĠAD N
cul aciÃ³n
n y
Ġtrans mi
Ġpatrimon ial
Ġjun tos
ĠM UN
re vista
Ġemp rendimiento
ps ia
Ġpre para
Ġprove edor
jun io
ĠPres entaciÃ³n
as p
ĠVic toria
Ġhig h
Ġllam adas
Ġen d
ĠPro gram
ĠG ol
b it
Ġcor ona
ĠPar que
ĠF ebrero
Ġpreven tiva
Ġ20 5
Ġviv os
Ġpor ta
S a
Ã© p
Ġpl aca
Ġsimili tud
me dad
Ġserv idor
Ġsan cion
ĠN eces
ĠGÃ©n ero
ter nidad
Ġn m
Ġcre Ã³
Ġadquir ido
us ieron
F ran
Ġtur ÃŃsticos
Ġpredomin ante
Ġim posiciÃ³n
estruc tur
Ġprob abil
Ġe u
dad or
v oc
ĠDES CRIP
Ġ17 4
Ġreci entemente
ĠS Ã³lo
V er
Ġestableci endo
ĠC in
Ġveg etal
ic ular
ĠSig ni
mbr ana
Ġci tados
Ġt y
ĠRe f
Ġact Ãºan
ĠChic layo
ĠT RI
p m
ash ington
or ias
Ġafron tamiento
Ġfer ro
org es
Ġdi entes
Ġpron Ã³s
ĠJo a
u era
ĠR ich
ist encias
ĠNa tional
Ġreca udaciÃ³n
Ġm ando
ii i
Ġle arning
Ġhace mos
23 0
Ġ19 66
ĠdidÃ¡c ticos
de be
F ORM
Ġcri anza
ĠChe m
Ġno ciones
un idad
su per
f ia
ĠCor tes
Ġli teral
ÃŃn sula
Ġdeclar aciones
14 3
Ġcu entos
ĠS mith
tiz ado
Ġimagin ario
pres a
Ġvideo j
ĠAgu ilar
Ġanterior idad
Ġvid rio
dis tin
el Ã©ctr
tuden ts
pes o
Ġestado uniden
Ġapari encia
ĠGu illermo
Ġrep ublic
Ġf Ã¡rmac
ĠV ig
ent ando
ĠT F
illera to
Ġm uros
Ġfo tos
aci os
ĠUs ted
tra tos
b ajo
Ġnum eral
21 3
Ġproduci dos
Ġsenci llo
ĠPortu gal
Ġin capacidad
ĠC ambio
Ġhis torio
Ġder ro
Ġpe trÃ³leo
Ġa ves
Ġbi olÃ³gico
Ġa vent
Ġn ominal
form es
Ġme tales
Ġresul tÃ³
000 3
es tad
ĠM apa
Ġaten diendo
ĠautÃ³n oma
Ġt rea
Ġvincul ado
paci os
ĠSISTE MA
po der
ĠP RIM
m us
ac he
Ġevidenci an
Ġsob eranÃŃa
Ġca denas
ĠS S
B ILIDAD
ĠGuer rero
Ġo don
ell idos
Ã¡ndo los
Ġpose er
Ġd aba
ĠL ar
ĠH acia
ĠNa turales
Ġimpor te
Ġreno vaciÃ³n
T ÃįC
ĠO PER
Ġde cor
ĠSi tuaciÃ³n
ĠIn ici
Ġc Ã©
Ġdis co
or cio
R OS
Ġpre ocu
on ancia
ild ren
ti ga
Ġbrin dan
Ġaument ando
Ġdescon ocimiento
Ġno tar
14 7
ĠM I
Ġdemostr Ã³
ci pe
Ġfrac ciÃ³n
Ġver ano
Ġdesen v
Ġf amos
tiv ity
Ġh in
laz amiento
ĠA par
UN IVERSIDAD
Ġf ig
ran as
Ġac o
15 4
Ġform ando
ob l
ĠE J
Ġglob ales
Ġintro duc
ĠS pa
Ġsome tidos
Ġs h
Ġv ideos
AN DO
Ġpar am
ĠCOM P
Ġgan ancia
ĠC V
Ġcaus ar
Ġplante adas
Ġcin cuenta
Ġp rag
w p
Ġqu ie
Ġvulner ables
Ġnove dos
tr icidad
Ġexperim entos
UL A
Ġ17 6
Ï Ģ
EG O
Ġrefer irse
ĠS C
Ġqu i
Ġas er
Ġh echa
Ġcap itales
Ġperman ecer
Ġis la
Ġf Ãºtbol
Ġcon m
Ġcastel lano
Ġacum ulado
Ã³ b
Ġorient ar
Ġarro j
ĠCal lao
Ġquer er
ĠLi teratura
Ġf oco
en zo
Ġprecis ar
CAP ÃįTULO
Ġa er
Ġpro ba
ĠI B
Ġinci de
Ġcur vas
ĠS or
Ġ18 2
B iblio
g ulos
7 00
Ġjer arquÃŃa
P H
Ġestudi an
Ġacep table
o ut
log y
ĠPro yectos
Ġhe mo
Ġpare des
u le
Ġcu a
Ġmil es
ĠP arÃ¡
Ġcon cu
i tis
Ġrepeti ciÃ³n
g amos
Ġagro pecu
ĠEntre vis
us ias
Ġmoder ado
y en
Ġper mis
Ġagre gar
Ġpermi ti
Ġingres ar
ĠEs a
Ġcl or
is tic
r ales
Ġres um
Ġfib ras
est Ã¡n
ma te
ĠG in
t ta
Ġpl ural
ci ende
m ero
ĠTi pos
Ġcre er
Ġintro duce
ĠT U
Ġins ul
Ġlec turas
14 2
Ġrecop ilaciÃ³n
ĠE T
Ġcu ader
ÃŃc tor
Ġs ci
Ġaprendi do
Ġan emia
ol s
Ġrecu erda
ci entos
ĠCatal uÃ±a
Ġ2 24
ĠAC AD
Ġper if
Ġposible mente
ĠÃ¡ l
Ġadecu aciÃ³n
Ġtra tarse
ĠD IREC
v ideo
Ġse ca
Ġbas ta
Ġofici nas
Ġcas e
ĠPo demos
ĠE U
Ġh Ãºme
Ġbos ques
Ġw a
Ġata que
Ġadap tar
c alizaciÃ³n
Ġsegu ra
ĠDef ensa
ĠEmp res
Ġincom ple
ĠT oledo
g ma
Ġtr amo
fic aces
ĠM ill
Ġcu idar
Ġreci biÃ³
ĠNeg oci
Ġ17 8
Ġlocal idades
Ġtu tor
Ġinvers a
Ġpa tologÃŃa
Ġsecund arios
Ġinda gar
ĠDes empeÃ±o
Ġconces iÃ³n
Ġde dica
ĠFIN ANCI
Ġconf un
Ġins ec
Ġfac h
Ġ20 3
Ġconstitu ida
ĠCons ul
Ġmin erales
Ġoportun o
Ġprogres iva
Ġagres iÃ³n
ĠUr ban
Ġafec to
f ar
Ġper miso
15 6
Ġca er
ĠC Ã¡r
Ġpati ents
E B
ĠInte ligencia
AC H
ĠV ent
Ġagr ad
v ieran
ĠCompet encia
Ġdes favor
Ġpol ar
ĠP rac
Ã¡n tico
Ġmedi ana
h asta
M or
ĠM ich
Ġobserv amos
ĠEs tÃ¡n
Ġpedi do
ER OS
Ġesta tu
Ġan ci
Ġqu iera
ra fos
G arcÃŃa
Ġin seguridad
esta bilidad
ient a
15 9
20 5
ĠIntern acionales
Ġsug ieren
ĠCu mple
Ġorg Ã¡nicos
Ġestudi adas
Ġbenefici arios
Ġespeci alidad
F F
ĠEn ergÃŃa
Ġsolici ta
Ġtraduc e
Ġjer Ã¡rqu
Ġto p
ĠUn ido
GRA MA
Ġex ca
ĠM aria
uy ente
cib ido
Ġolvid ar
H H
M adrid
Ġemo ciÃ³n
ĠD IA
Ġp ura
ur ia
ĠF eb
y Ã³
n l
ox id
og ar
ĠPers onas
fic as
A hora
ĠL ÃŃ
Ġar cil
ĠBus iness
ĠGer encia
Ġbar ras
Ġpier de
in osa
Ġpatr ia
Ġclar as
Ġencar ga
Ġsal v
Ġter res
ĠUr b
Ġcarre tera
Ġexcl u
ĠD ivers
Ġfil tro
Ġinv is
ĠMar ina
Ġcons istente
Ġtom aron
D D
Ġno venta
ĠÎ ³
Ġin gen
ĠImp uesto
of f
ĠLe arning
hid ra
ĠPr omedio
Ġenerg Ã©tica
ĠLon don
ĠE fecto
ĠAg encia
Ġc ajas
ĠSecre tario
emp le
Ġf ec
t ho
d ula
Ġhid rÃ¡ul
Ġc recer
Ġb is
ue ble
Ġn ul
Ġregis tra
IS MO
ens os
eg as
Ġre cal
me mor
Ġtrans curso
Ġexcel encia
re dalyc
Ġadquir idos
Ġv endi
Ġmol ecular
Ġdes trucciÃ³n
Ġclar os
Ġla vado
Ġsal va
Ġseleccion ado
Ġpe lo
ĠplÃ¡s tico
Ġllu via
Ġprohib iciÃ³n
ĠNo v
16 7
Ġemple an
Ġfer til
FIC AS
ĠA vailable
Ġtur no
ili ares
Ġdeb ilidades
Ġsecu encias
Ġo ther
ĠEs e
ĠMa x
Ġinter faz
Ġprov iene
15 3
de f
Ġ2 19
TR OS
Ġdeb iÃ³
erv a
c tion
Ad minis
22 5
ĠPop ular
Ġcoloc ar
14 1
ĠEje mplo
Ġco yun
14 9
Pal abras
Ġexper to
Ġpsic olÃ³gicos
Ġhab ita
Ġje fes
Ġleg alidad
ĠCons umo
es trateg
Ġses enta
ĠEle mentos
Ġfi jos
ĠD C
Ġimpuls ar
ĠN ingun
Ġprop iamente
as t
Ġbi olÃ³gica
Ġevidenci Ã³
Ġr ue
Ġparticip aron
err ano
Ġhab iendo
Ġplen amente
Ġex pe
Ġsust ento
ĠRes puesta
Ã¡m aras
ĠEcon Ã³mico
Ã¡ndo la
B uen
ĠN I
l ara
tem ala
Ġpotenci ar
Ġllegar on
ĠOper acional
ti ci
Ġcom eti
iz e
Ġextra er
am Ã¡s
ĠCom mun
up loads
p oblaciÃ³n
dic amente
Ġreconoci dos
es tado
F orm
Ġtu bo
15 8
ENCI ÃĵN
Ġsu pre
Ġcomprendi do
Ġas cen
Ġson idos
Ġcercan os
Ġ Ã¼
G G
les i
ĠAr que
dem ic
ĠcompaÃ± ero
aliz Ã³
Ġl ong
I ma
derech os
Ġdr ama
ĠCon diciones
S erv
Ġparticular idades
Ġval le
Ġ19 65
Ġexist ÃŃa
Tr ans
Ġhum or
Ġcelebr aciÃ³n
Ġjus tificar
g entes
Ġc Ã³
Ġtom adas
ac t
AD RO
ĠDic cionario
Ġgr is
Ġre ino
Ã¡b amos
ĠJ UR
Ġv os
blic os
Ġci en
ĠImp lementaciÃ³n
Ġpec ul
ĠEqui po
Ġnutr ientes
Ġpo table
ĠE A
ĠEstudi antes
Ġr ama
Ġfu tura
ĠCompaÃ± ÃŃa
ir io
ĠNav arra
ĠC EP
mo vil
15 7
Ġdefin idas
Ġti me
Ġes cu
l iz
Ġorient adas
IDAD ES
ĠTer esa
guar dia
Ġho tel
man ente
Ġampl itud
Ġ2 13
Ġimpos ibilidad
Ġmicro bi
Ġtribu tario
Ġver des
Ġid Ã©n
16 5
ĠJ an
Ġar ras
ina to
Ġapoy a
gener al
O B
Ġdes ple
Ġang us
Ġfom ento
ĠF igu
ĠDiag nÃ³stico
ĠCo vid
Ġparal elo
Ġsus tancia
ĠEs tratÃ©g
ĠEsta tuto
Ġapor tan
Ġresid uales
al da
Ġpens iones
Ġd as
Ġman us
Ġger encia
Ġcerc ana
Ġdipl om
Ġam istad
OMB IA
Ġecu ator
D er
m id
ĠBur gos
m aciÃ³n
trÃ³ geno
sess ment
ĠAn n
Ġ2 12
ios os
Ãº e
ĠJ OS
u z
G UN
Ġad mir
ĠV en
ĠEn erg
ĠAl um
ĠRob erto
AR ES
Ġreci cl
Ġinterac tuar
I OR
t ter
ĠT ER
Ġdetal la
Ġfortal ezas
Ġcon fes
Ġta mb
Ġmanten iendo
obili ario
ĠFo ucault
ĠS oc
Ġcu ra
ĠCaj amarca
c Ã³n
Ġ 0000
Ġintegr ada
Ġcompens aciÃ³n
ĠSer ie
15 2
Ġarmon ÃŃa
Ġe uro
Ġre pos
Ġco hesiÃ³n
til l
Ġan a
Ġhac ÃŃan
pon ente
18 5
Ġvulner aciÃ³n
dis mo
tan ci
ĠÃ¡ cidos
Ġgen Ã©tica
Ġagr u
ĠIbÃŃ d
Ġ19 64
Ġj a
Ġconcre tamente
Ġregistr ado
d n
P EZ
ĠP y
ĠCaracter izaciÃ³n
Ġexpres amente
Ġbi olÃ³gicos
ĠEs o
ĠG ONZ
Ġcu rios
ĠRad io
!! !!
am pl
Ġcorrespon da
Ġaplic ables
Ġre ce
aca o
Ġestudi antil
Ġenunci ado
u as
el los
Ġos cu
Ġib an
Ġemp oder
Ġdur ing
Ġinsu ficiente
me dades
Ġ18 4
centr aciÃ³n
Ġconsul tas
Ġpedag Ã³gicos
Ġcons cientes
Ġcer teza
Ġb ras
Ġcrim inal
Ġman uales
ici onales
ambi ente
Ġb ul
ĠAn gel
Ġcan tÃ³n
Ġo u
Ġimplic an
: -
Ġart ÃŃstico
h ua
fic ar
ĠL l
now ledge
Ġfras es
Ġpr ome
Ġex Ã¡menes
ĠAcadÃ©m ico
serv icios
ĠM U
ĠS D
Ġsubje tiva
20 4
ĠI E
Ġmin istro
Ġv ial
ĠI t
di ales
cur s
ub er
Ġmal trato
re cursos
Ġincorpor a
ĠT ro
Ġv illa
Ġ19 50
PL E
Ġcampes inos
era tivo
f ue
ĠU ri
Ġdescu brimiento
R ERA
Ġtan tas
15 1
aliz ador
Ġbiblio grÃ¡ficas
Ġpan el
19 9
Ġsatisfec ho
Ġentr adas
Ġreglam ent
Ã©m ica
crip ciones
Ġcons igue
Ġno dos
fi le
Ġconcent ra
y an
Ġcon ti
ĠÃ©po cas
ine ering
ĠT res
t to
ĠCar b
Ġine vi
Ġcompeti tiva
i Ã¡n
m ios
in k
in ing
oc as
Ã¡c tico
i jo
ĠTES IS
Ġreal icen
Ġr entas
ĠacompaÃ± ado
Ġpen ales
ĠES TRA
Ġatra vi
ĠComer cial
ĠM EN
Ġperfec tamente
ĠGuz mÃ¡n
ĠT IPO
og ÃŃa
Ġu p
reg ulaciÃ³n
Ġprecip itaciÃ³n
ĠU SA
tions hip
ĠE ta
f ra
Ġimp u
1 000
ad uras
ĠRecomend aciones
Ġdesigual dades
ĠPRO DUC
D o
produc tos
ĠCompet encias
Ġmanifes tÃ³
ĠperiÃ³ dicos
genier os
ĠAl b
ĠÃ³p tica
Ġprotagon istas
Ġmul tic
Ġinmigr antes
Ġfi jar
16 4
Ġocup acional
ur ar
Ġcogni tivos
ĠUN ESCO
Ġhub iese
Ġest ancia
pa tr
Ġocur rir
Ġin ac
Ġqued ando
Ġinf laciÃ³n
B C
Ġp ico
ĠsÃŃmb olo
ĠM ario
ĠclÃ¡s ico
Ġbeb idas
t Ã©cn
for nia
Ġte c
Ġl um
ĠGab riel
Ġvent ana
ĠE t
Ġcris tal
Ġblan ca
ĠColomb iana
Ġsemej ante
econÃ³m ico
plic aciÃ³n
Ġn or
Ġsuces iÃ³n
Ġcombus tible
Ġtra te
ĠI z
C ED
Ġneg ra
Ġsentir se
Ġent usias
Ġvari edades
ta tivo
ĠfÃ¡ brica
ĠVir gen
re za
Ġ ÃŃa
V IN
Ġabaste cimiento
Ġcump la
Ġcon fin
ts ci
Ġfi esta
ĠJe an
Ġdiffer ent
tr acto
ĠB OL
c encia
Ġpresent arse
famil iar
ĠIn cluso
ces s
ĠW ashington
form idad
O tro
B ar
Ġsin dica
p ha
Ġen com
25 5
Ġcre ativo
ANEX O
ono grama
Ġcontrac tual
in te
Ġen marc
Ġmus icales
f ora
ĠP el
in ario
con tin
Ġus tedes
r entes
se x
ĠCon cep
ĠP ra
v ias
Ġrequer ido
Ġrefle jo
17 4
Ġp ilares
ĠV id
Ġespeci alizados
ĠMAR TÃįN
Ġproduc ciones
ĠE g
ĠHum ano
a por
Ġmarc ada
Ġpol vo
ĠMag dalena
tal le
pa tÃŃa
c ab
ĠLe e
Ġpresent adas
Ġale mÃ¡n
Ġagu da
Ġ20 9
ĠEdi tores
Ġsal idas
Ġencar gados
Ġar ran
Ġver emos
ĠRe vis
Ġcurric ulares
Ġh uev
ĠAu tores
ĠIng laterra
Ġt onel
w th
Ġorigin ales
ĠD NI
ue cos
16 6
Ġtestimon ios
Ġle j
ĠB au
ĠmÃºlti ple
Ġc uello
Ġren al
ĠG reg
ĠL L
ER G
ĠCÃ¡l culo
Ġc f
Ġcaracter izar
ĠsimbÃ³ lica
ĠE mb
Ġespecific aciones
Ġqued ado
Ġm L
R END
se d
ĠRev oluciÃ³n
Ġcompr ens
b ida
ĠEr ror
ĠR ico
Ġequil ibr
Ġcon oc
Ġ19 6
ĠR U
Ġafec tivo
Ã³ tico
ta mo
Ġcerr ado
Ġher encia
Ġsubje tivo
Ġac ent
Ġpregun tar
21 8
ĠTrans porte
ĠaÃ±a de
ĠH ill
Ġaf ro
an ces
ran za
Ġocup an
Ġdi ciendo
Ġr ÃŃg
anti les
mÃ³s fera
Ã± Ã³n
cis iones
Ġ3 60
In troducciÃ³n
V II
Ġmodific ado
Ġcar diovas
ĠHuman idades
Ġconv ierten
Ġesta tus
ci eron
Ġconse jos
Ġl la
ĠLib re
truc ture
Ġher mos
econ om
y ente
M ag
Ġa x
G ener
ĠmÃ³ dulos
in tendencia
ĠAntrop ologÃŃa
ĠE fec
Ġcapital ista
Ġidentific Ã³
ĠMar ta
olÃ³g icamente
et s
Ġtitu laciÃ³n
Ġalf abe
Ġen la
om or
ino za
ĠS IN
Ġestudi ada
c ambio
ĠPro b
Ġelev ados
al i
Ġtribut arias
Ġcons agr
US TI
F E
ĠE co
ĠG E
N acional
di se
Ġcon ducciÃ³n
as ÃŃ
fer as
Ġentender se
Ġ9 78
Ġps ÃŃqu
16 3
Ġi f
Ġdes in
Ġapar tados
Ġexig ir
Ġimpe dir
Ġca tÃ³
Ġpre dis
ues tras
ĠJ ar
Ġque hacer
ĠMon tes
Ġjus ta
ju dic
A U
c Ã³p
ĠV ÃŃctor
D C
ÃŃn guez
Ġanti gÃ¼
Ġgus tarÃŃa
Ġtrabaj ado
Ġmi ra
AT ORIA
enci oso
ĠPsych ology
Ġinci so
Ġforma tos
z aba
a quel
Î ³
Ġcump lan
n m
Ġprovoc ar
ĠR ol
Ġvi able
Ġtom ada
il le
Ġ18 8
M M
ĠSel ecciÃ³n
Ġesti p
ĠEs t
Ġcre en
Ġcandida tos
enti fic
Ġresul tante
ĠMan ejo
ĠNorm as
ĠA ce
ĠO bl
Ġset enta
igur aciÃ³n
Ġt as
Ġmoder nizaciÃ³n
ĠFamil iar
y ug
Ġconside ro
Ġres tantes
Ġabier tas
Ġmane j
ti Ã©ndose
ba o
Mar tÃŃn
Ġexplic aciones
a po
am or
impor tante
ĠEVALU ACIÃĵN
Ġdel iber
AG O
Ġregistr ados
caracter ÃŃsticas
Ġcar ece
Ġno ble
m uestra
Ġnorma tividad
................................................................ ................................
ch em
Ġide ales
20 9
ĠCam pos
ĠIgu al
con stitucional
le vancia
ier re
col omb
Ġpre grado
Ġcre encia
Ġplan eta
ĠTechn ology
Ġminim izar
ĠIns pec
CION AL
Ġconside re
ĠL ÃŃnea
m uy
ĠsocioeconÃ³m ico
19 8
Ġdependi entes
Ġmus eo
Ġde ca
ĠCal der
Ġla zos
ĠX I
3 50
Ġmar cos
Ġcomerci antes
Ġimp ug
Ġorganiz ada
Ġ20 7
ĠR AM
ĠLa ura
scrip tsci
Ġmicro organismos
ĠTEC N
Ġheter ogÃ©n
Ġdomin aciÃ³n
Ġapor taciones
ĠT C
Ġver ti
0 40
Ġmir ar
Ġconten er
al can
ti mas
ĠC og
N Ãºmero
Ġhosp itales
Ġimplement ado
fici dad
Ġcoci na
ĠCon tr
Ġmon taje
Ġpresent ando
Ġd or
ĠS oftware
AB ILIDAD
Ġras go
Ġre qui
ros s
ĠAnal ysis
Ġco dific
Ġc obre
Ġrad i
pid S
Ġ18 6
G B
Ġmin erÃŃa
Ġ24 1
Ġveget ales
ĠPer eira
Ġrefer idos
on ado
IS A
Ġpen as
ĠEs pacio
cl as
Ġorganiz a
ĠDetermin aciÃ³n
Ġpl ur
Ġla t
W h
os is
ĠPl ante
ĠU su
Ġcumpl iendo
tel la
ĠP adre
ĠM C
lo cu
l ac
21 6
c Ã¡n
h istÃ³r
Ġlig eramente
ĠR M
Y o
lan tes
ĠPROBL EMA
17 8
Ġb uro
Ġban das
Ġenfr enta
Ġmetodol Ã³gicas
ĠT OR
ĠB R
ol v
Ġmejor ando
ill ado
Ro dr
Ġobliga toria
gru pos
Ġanaliz Ã³
omun icaciones
Ġrelacion ar
ĠTEÃĵR ICO
Ġfundam enta
al la
ian zas
Ġdi arias
Ġencar gada
Ġdis oluciÃ³n
Ġconstr uyen
l ico
Ġd anza
Ġvocab ulario
Ġgener ada
Ġj ub
ĠS pr
Ġconvenci onales
Ġd ren
Ġdirec tores
tori amente
ĠLegis lativo
Ġregistr ar
Ġra tio
19 99
Ġperiodis mo
Ġcr imen
k es
bo te
Ġtrans forma
Ġestim ado
ĠCOM O
Ġemple adas
ĠX II
ĠCons truc
Ġcre ada
Ġr io
20 6
ĠMar x
Ġfuncion ario
pan ish
uy entes
lic to
e i
Ġbusc Ã³
S U
Ġcar tera
19 5
ĠObserv aciones
ĠestÃŃm ulo
ĠValor aciÃ³n
ĠCON TROL
ĠT M
n io
Ġdescar ga
Ġpendi entes
Ġcompar tida
S ub
Ġv ag
Ġun der
Ġcer tificaciÃ³n
Ġan ces
qu ÃŃa
Ġre mi
Ã¡n donos
Ġocur rencia
us t
Ġcl ub
amb ientales
Ġreconoci da
Ġprelim inar
Ġobliga torio
ĠSebasti Ã¡n
Ġnarra tivas
Ġopera tivos
33 3
Ġdedic aciÃ³n
ANCI A
Ġto po
Ġpertin encia
16 2
Ġoch enta
Ġn ano
ĠP ach
N e
Ġconf igura
Ġpresent en
Ġenferm eras
Ġmus cular
Ġenfr entan
Ġa zar
Ġtrata ba
me todo
ĠAr gen
ĠprÃ¡c ticos
ĠP ÃļBL
ĠV Ã¡zquez
Ġsome tido
Ġinterc ambi
Ġinclus ive
Ġque br
Ġb ios
s ino
Ġa val
ĠM ERC
ici da
cam po
Ġsurg imiento
Ġ19 4
ĠMil itar
Ġalcan zÃ³
Ti po
b iblio
ome tr
0 11
Ġsepar ado
Ġv aya
16 9
ĠRies gos
Fac ultad
bo ok
Ġespec tador
Ġconven iencia
log s
Ġal fa
G onz
Por centaje
Ġconsul tar
Ġinfl uen
Ġex puestas
ĠFinanci era
Ġproduc tor
Ġpercib ido
im es
ĠEjecu tivo
os ta
Ġconoci das
l Ã³n
fi abilidad
ĠCon tabilidad
Ġracional idad
I TA
Ġprom ul
Ġform ada
Ġforma tiva
Ġest rel
Ġas isti
Ġmin or
ĠPre venciÃ³n
Ġdel ante
id Ã³s
Ã³me tros
e aciÃ³n
Ġdiferenci ar
ĠES CUELA
ĠG usta
tan ol
Ġdi pu
Ġeduc ation
lu gar
Ġresta uraciÃ³n
Ġconf usiÃ³n
ĠX III
quil ibrio
Ġme mbrana
Ġimpor ta
m ercado
Ġcompar ado
Es tos
ĠB L
Ġrig or
EC CIÃĵN
Ġsust enta
Ġpropie tario
Ġcolec tivas
Ġdesc enso
Ġjus tamente
Ġcon dena
T en
Ġvincul ada
veje cimiento
Ġapar ente
v enciones
Ġempres ario
Ġob reros
ĠI de
Ġpres ta
Ġman tuvo
Ġcomp ac
ĠCos tos
Ġafec tando
Ġd up
Ġemple ador
Ġdenomin aciÃ³n
OR D
ran e
ment a
ri Ã³n
ĠLu gar
Ġex ponen
ĠNe uro
Ġvers iones
2 80
Ġmuer to
19 4
Ġemerg entes
Ġpre cedente
Ãī M
Ġco ordenadas
pro cedi
Ġt Ã³p
Ġargum entaciÃ³n
Ġtrib unales
Ġinclu idas
ens es
Ġsie mbra
Ġdic tadura
ĠAgra de
al do
Ġ.. .,
Ġmercanc ÃŃas
Pr im
ens is
Ġgr ano
ev alu
t adora
r ÃŃ
Ġcasti go
Ġ20 4
ĠprÃ³ ximos
ore ma
Ġmovil izaciÃ³n
Ġrode a
Ġsitu ado
Ġplante amientos
ĠVil lar
ĠH abilidades
Ġpon iendo
ĠC f
ĠP ED
Ġla p
an dez
ĠS co
Ġmedi ano
ĠCon ocer
Ġespec tÃ¡
Ġplan ific
ĠcÃ¡r cel
Ġon e
H a
ĠIS BN
l um
ON AL
Ġti enes
Ġenerg Ã©tico
b uen
ĠPeru ana
Ġmad urez
cas os
ĠIndic ador
18 4
ĠCu Ã¡n
ĠS US
Ġins tante
olu tion
Ġper segu
Tr abajo
Ġgan ar
Ġespeci alizada
Ġalgorit mos
Ġsome ter
Ġse p
Ġan at
ĠPROCES O
Ġpen itenci
18 8
ĠLu z
Ġderiv ada
Ġvol Ãºmenes
ĠJap Ã³n
ĠM Ã¡r
UR S
Ġcap tur
ide m
Ġcoloc aciÃ³n
Ġpun tuaciones
n t
Ġespeci alizado
en ciÃ³n
Ġpro gen
Ġreduci da
ĠL IB
ĠAs ia
In vestig
pec tivas
cle os
Ġintim idad
jur ÃŃ
ĠS iguiendo
Ġin o
id uos
ĠCo operaciÃ³n
Ġsuger encias
Ġdemand ante
ĠObserv aciÃ³n
Ġanal ÃŃtico
ĠH on
Ġinterrog antes
k en
ĠApo yo
Ġc ans
ĠAm erica
Ġpres encial
Ã©tr ico
na tural
Ġfru tas
ĠAn g
Ġges tantes
CH EZ
20 8
ĠEX PER
ĠB ul
vers a
ĠEDUC A
res pecto
ĠL una
Ġpas ivos
ĠtÃ©r mica
Ġin oc
ĠTecn ologÃŃas
Ġfel iz
Ġadquier en
IN S
ĠP ilar
ier tas
TOR IA
Ġcomunica tiva
ĠseÃ± ores
Ġpre ju
Ġocur rido
ĠF ORM
Ġsalud ables
al um
Ġcaracter izado
Ġcontribu ciones
ĠIn icial
sor ciÃ³n
ĠMÃ¡s ter
pro tecciÃ³n
ĠC it
Ġproce dente
Ġrecep tores
Ġfortal eza
Ġ25 5
Ġsob er
Ġnutr iciÃ³n
ĠsÃ³l ido
ĠCon ferencia
Ã¡ vez
ĠP RI
Ġs Ãº
s ch
ĠG am
Ġmens uales
ĠIn v
Ġtesti go
Ġemp rendi
ĠdomÃ©s tico
Ġtra er
Ġmater nidad
ĠempÃŃr ica
Ġenem igo
Ġjun ta
Ġde ducir
Ġconven ios
Ġliber tades
N a
Ġejecu tivo
Ġe ficaces
Ġhid rÃ³
dez co
fre do
18 6
ĠGua temala
ĠGran de
Ġe mitir
j era
ĠTerc era
ĠAl l
Ġ19 30
Ġde pres
O T
ke y
E mp
as oci
ĠÃģ frica
Ġl ados
Ġefec tivos
ĠA ten
ma terial
b es
ĠExper imental
Ġb el
Ġproces s
17 6
Ġmu ro
Ġreligios os
Ġproporcion an
for o
Ġrepresent ada
ĠV ista
ĠI m
Ġinter rump
Ġv ita
di as
Ġsub ordin
n ada
ĠT ea
ĠLabora torio
0 25
Ġconta ba
Ġv ec
Ġcontribuy entes
Ġcap tar
ĠAssoci ation
Ġcos echa
Ġm era
ĠGal icia
Ġfrag mento
ĠZ h
Ġpes ca
Ġpro cl
Ġpotes tad
ĠComun idades
Ġno tificaciÃ³n
go ogle
Ġa i
Ġperman entes
Ġdistin gue
19 2
ĠCur so
Ġdescans o
Ġet no
ins trum
Ġdef ien
medi os
Ġconsul tado
val ores
Ġdis tancias
Ġinform ales
Ãģ CT
Ġdisc usiones
Ġtan ta
Ġtermin ado
Ġliqu idaciÃ³n
Ġprol on
ĠPromo ciÃ³n
enci aciÃ³n
ĠAl terna
Ġart ÃŃsticas
r ica
at ch
D im
p ado
tr icas
Ġinstrum ental
Ġcuar enta
Ġges taciÃ³n
Ġmor ir
Ġv ice
ĠAn im
ĠViv ienda
ĠON U
C r
ig uez
ĠLA BOR
9 00
Ġp ea
Ġabier tos
Ġreserv as
Ġtr ama
Ġor to
ĠMo tivaciÃ³n
ĠRes istencia
Ġsan itarios
ĠW ang
Ġk il
Ġcompon e
Ġcumpl ido
ĠDIS TRI
Ġcul to
Ġl ider
ĠI d
Ġsocio demo
-------------------------------- --------------------------------
Ġpo Ã©tica
ĠPER Ãļ
ĠL t
ĠH al
ĠPrincip ios
en za
Ġbiom asa
Ġde fectos
Ġcoopera tiva
Ġpre tensiÃ³n
C AS
Ġpul mon
Ġe ficientes
av a
ĠCali fornia
No ta
C am
Ġizquier do
enefici os
Ġgro up
ĠF ra
Ġpublic Ã³
Ġsuf ren
ĠCa uca
Ġper turb
ios as
ra el
Ġopera tiva
AC TER
ĠProtocol o
Ġestric tamente
Ġescas ez
m ÃŃn
Ġextre ma
ti dades
ex pres
Ġestar Ã¡n
ĠH ig
Ġinconven ientes
Ġap os
16 1
Ġ ie
Ġfi el
Ġat mos
Ġsufr imiento
ĠC le
Ġcre ativa
er tos
ĠIns tal
on ar
ĠCON TEN
Ġfrances a
Ġindem nizaciÃ³n
Ġap proach
Ġajus tes
c ob
Ġsup era
C AN
je to
car ril
ĠMet ho
Ġacos tu
Ġin correc
Ġrel acional
Ġprepar ar
Es to
mej or
tor ales
en io
K E
17 9
Ġorganiz acionales
u ci
ti gar
Ġestereo tipos
ver iana
ĠEj Ã©rcito
Ġb ach
IN E
Ġth rough
Ġrequer imiento
Ġinv as
n d
ĠF ood
Ġres oluciones
Ġlac tancia
Ġbiblio tecas
Ġinteres ado
on io
ĠEn foque
ĠAmb os
ama Ã±o
ĠRe des
T iempo
ĠEm erg
Ġubic ados
ma x
Ġdivi dir
Ġa ero
Ġactiv amente
Ġcontamin antes
ĠCre e
Ġinter medio
Ġampl i
Ġtip ologÃŃa
Ġprevis tos
Ġcontradic ciÃ³n
l amiento
es pacio
Ġfij aciÃ³n
Ġro bus
ĠFun ciÃ³n
Ġderi vado
Ġrecl u
u j
Ġgu iar
Ġsos tienen
Ġatrac tivo
Ġejempl ares
ĠFoto grafÃŃa
ĠAl f
tr Ã©s
Ġimplic aciÃ³n
ĠCris tina
ĠProfes or
ĠJoa quÃŃn
ARI AS
ĠPer fil
Ġcoopera tivo
ĠTh is
ĠV OL
ĠMic ros
Ġay er
f usiÃ³n
Ġquer ido
idad os
Ġc ad
ĠCon duc
Ġcap tura
ĠAm or
Ġmoder n
ĠantigÃ¼ edad
om p
form aciones
Ġconv iene
wit ter
ĠV Ã©
un i
Ġcorpor ativa
Ġo cio
0 12
Ġda Ã±
Ã³ dulo
ĠPa idÃ³s
Ġcan cel
S ERV
Ġllev ando
Ġvari ar
D eb
ĠcontemporÃ¡n eo
Ġ4 50
Ġinteres antes
Ġde duc
du ra
Ġsus trato
ĠM ad
Ġcol a
Ġnega tivamente
Ġrendi mientos
Ġseg mentos
Ġtrans acciones
Ġemp a
Ġoper ador
Ġante cedente
pe ta
Ġt wo
Ġec olÃ³gica
as ure
Ġefec tivas
culos is
Ġrel ieve
ĠT asa
tuden t
pl ied
J uan
Ãºs ica
Ġexcep cional
Ġinform aciones
Ġcaracter es
Ġapreci aciÃ³n
Ġmin eral
Ġarro z
22 2
par ticular
22 3
Ġta bl
ĠE V
ele mentos
Ġestim ul
ad illa
Ġr Ã©
ĠSe a
Ġal a
iz arse
ĠAd ri
Ġcarb Ã³n
Ġjun tas
ĠRodr igo
ĠNicol Ã¡s
Ġcons ejo
Ġag encias
Ġar ra
Ġinter cultural
Ġmo ver
Ġver bo
ĠC ER
Ġpreserv aciÃ³n
Ġat mÃ³sfera
ĠCh ap
ĠN utr
d remos
Ġtel Ã©fono
D ocu
de x
ĠO cup
Ġcontin ente
H e
ĠFor tal
ĠCONC EP
ĠNÃº Ã±ez
Ġconv oc
Ġp eg
proble mas
ĠS G
no v
h on
Ġhor arios
17 3
Ġabund ancia
ĠLe tras
Educ aciÃ³n
ICI OS
re v
ĠC RE
Ġf ren
Ġsuf re
se udo
Ġlogr aron
ĠEs ti
Ġexac tamente
Ġjuven il
ĠMED IO
l los
Ġac omo
gr as
cal e
Ġdes pe
Ġdeb ilidad
al iment
ĠgrÃ¡fic as
e fec
Ġdes vi
ac tiva
Ġas istir
ag es
Ġespeci alizaciÃ³n
ĠhÃŃ br
Ġaconte cimiento
Ãį S
Ġdesap ariciÃ³n
Ġdo Ã±a
ĠInf luencia
Ġdel os
Ġbas an
Ġl lan
Ġtrabaj Ã³
ĠOb ra
F ICA
Ġinform Ã¡tica
Ġdetal lado
Ġcompor ta
ĠLen gua
ĠC omb
ĠHab ana
ĠCent ros
peri encias
Ġilus tra
Ġpres iones
b ran
seg Ãºn
ĠS T
Ġconvir tiÃ³
Ġad s
Ġti enda
ĠGe ografÃŃa
Ġbra zos
que o
Ġdesen caden
IL LO
E V
Ġcolomb ianos
ver tir
Ġreiv indic
ag ro
ĠMedi das
Ġtra tando
Ġaten didos
b ack
Ġexten der
tr icos
Ġale grÃŃa
ĠPer cepciÃ³n
scriptsci art
D urante
Ġdial Ã©c
Ġc usto
Ġ23 5
se gun
Ġlim itar
cre to
op h
Ġinf lam
ĠmÃŃn imas
ĠG O
Ġcol oca
Ġpremis a
Ġ7 00
ĠL abor
! ,
r ÃŃan
Ġ23 1
con duc
ĠPre cio
Ġsuper aciÃ³n
20 7
17 2
Ġpre dicciÃ³n
ĠCOL OMBIA
Ġrespe tando
Ġ iso
Ġviv ido
eg el
Ġha z
Ġrel l
ĠL ab
Ġabs trac
cu idado
ĠF el
P T
ri al
er ci
Ġap rende
tens iones
in stitucional
Ġdi lu
ĠPAR TI
17 7
ĠH z
ex istencia
Ġmate mÃ¡ticos
Ġjer arqu
Ġdesp rende
Ġle vel
Ġpol icial
Ġvie jo
Ġdirec ciones
ĠC T
Ġus ada
testin al
Ġcambi ado
ĠMuc has
Ġcri tic
ĠC ant
el y
Ġconserv a
Ġdes echos
Ġmotiv aciones
n is
ĠM ap
an der
Ġconce bir
Ġdescri tos
Ġim pon
Ġjug adores
ĠFeder aciÃ³n
Ġcan ciÃ³n
Ġorient a
ĠS errano
Ġad j
27 0
am entos
Ġcon quista
Ġinver tir
Ġencuent ros
19 6
pa ÃŃs
ĠR OS
ĠT aller
Ġsoci ologÃŃa
Ġha go
ĠEsc obar
Ġfr ÃŃo
ĠCa tegorÃŃa
Ġexpl ici
Ġ22 7
Ġes con
Ġestim ulaciÃ³n
Ġ20 6
Ġev ita
li x
te ch
22 4
Ġtele vis
estig os
ĠIn dia
ĠSU B
ĠC y
Ġrequer ida
ve do
Ġad herencia
Ġmuer tos
Ġescri b
ĠC UL
ĠP ul
Ġpre ma
Ġacces ible
ĠB ap
Ġanal ÃŃtica
com paÃ±
Ġas al
18 2
0 15
ĠVAL OR
Ġpres tigio
ĠV in
Ġanaliz aron
Ġpreven tivas
ĠCon tin
Ġcoopera tivas
Ġf usiÃ³n
gra fo
Ãī R
Ġvis itantes
Ġe dificaciÃ³n
Ġ24 5
ĠCr Ã©dito
Ġtran qu
7 50
Ġhis tor
ĠA tl
Ġchar acter
Ġdes cen
e k
Ġent ero
Ġ19 63
Ġne ona
ĠM ÃŃn
ĠH all
fic ado
in cl
Ġconduc tor
Ġros tro
Ġreflej ado
Ġver te
um an
Ġinclus iva
tra tamiento
ĠPa ulo
Ġex tiende
l fo
Ġcomunica tivas
d amiento
Ġproduci da
Ġasign ado
ĠFal ta
ĠINTER N
ĠProcedi mientos
ĠINGENIER ÃįA
quis itos
ĠUn idades
ĠP ros
19 7
Ġcotidi ano
Ġcob rar
T ra
Ġpla zas
Ġparticip ativa
ul ner
ur amente
ĠRe forma
y mp
Ġp y
se vier
Ġcap taciÃ³n
af irm
ĠB ien
Ġrelacion arse
Ġ2 16
om Ã©
Ġ2 14
ĠH ern
ĠInter no
ĠT ay
Ġacon se
L U
Ġrec ta
et ti
Ġau ten
Ġpecul iar
Ġg am
ĠGener ales
ĠPal ma
Ġsustan cial
aj us
Ġconfi able
serv icio
uy an
N C
Ġ19 36
D IG
22 7
ĠAnd ina
Ġs om
21 7
Ġcomba tir
ĠPr Ã¡cticas
Ġprom edi
UR IDAD
Ġpsicos ocial
Ġporcent ual
ĠCar r
Ġz apa
ĠR is
Ġsan gu
Ġdesarroll aron
Ġpas e
Ġidentific aron
Ġnul idad
Ġ19 62
Ġinvestig adora
Ġenunci ados
Ġser ia
Ġent es
iz ed
ĠhistÃ³r icamente
Ġdestin adas
Ġsal Ã³n
Ġch icos
18 7
Jos Ã©
Ġ23 3
TÃįC ULO
u ter
id an
ti f
ĠD ir
temp orÃ¡n
18 9
Ġd ados
Res ultados
Ġ20 8
ĠG aceta
ĠPal acio
ĠH IS
ĠCom ent
ion ado
Ġpar o
ĠFran k
Ġmol de
Ġcome tido
Ġ zo
ĠCrea tive
Ġv alidad
Ġincon dicional
Ġremun er
Ġconsider ablemente
tin er
Ġconsol idar
ĠDes ign
ĠMex ico
on Ã©s
Ġcaus ado
AR D
ĠAc tas
Ġdirec trices
ĠJur is
Ġdirig idos
Ġme mb
Or gan
den tal
ĠV Ã¡squez
Ġes encialmente
m omento
pa z
Ġejer cen
ce des
r ent
ĠRE VISTA
ĠCor ona
Ġenferm era
Ġperteneci ente
U s
m el
Ġremun eraciÃ³n
Ġconcep tu
ĠPan amÃ¡
Ġtele f
oc aciÃ³n
Ġver Ã¡
Ġo ver
Ġgr ama
Ġar co
en amiento
ĠCla udi
h el
mbi to
Ġinter s
Ġprove er
Ġsub yac
Ġinfrac ciÃ³n
ĠPs ico
Ġbio diversidad
Ġg ama
ĠBil bao
Ġmo tores
Ġorg Ã¡nico
aplic aciÃ³n
Ġconta bles
ĠCom mons
Ġse xto
mo delo
Ġmar ido
ĠsimultÃ¡n eamente
ece p
ĠDes p
OL A
L I
americ anas
ĠCam p
Ġen viron
Ġal ude
Ġ27 0
Ġp ed
Ġdestac ado
ĠBienes tar
Ġimpor taciones
Bo gotÃ¡
Ġtr on
tedr al
PÃ¡g ina
Ġl Ã³gicas
ĠLor enzo
Ġtex tual
ĠG ene
Ġb ri
Ġt esor
Ġposibil ita
Ġpsic olÃ³gicas
???????? ????????
emen ino
ĠMo vimiento
Ġpp m
Ġlegisla tivo
Ġcereb ral
M u
Ġcristi ana
ĠAn exos
Ġviv encias
19 98
ĠIn versiÃ³n
ĠSU PER
i tores
err y
Ġconf iden
Ġsolici tudes
23 5
Ġdesarroll arse
Ġo jo
pres ente
s el
Ġmo tiva
Ġexperiment aciÃ³n
Ġde ten
Ġenfer mo
par tir
Ġdomici li
Ġle e
Ġdeclar ar
Ġhi jas
ari ta
ĠP un
Ġtra uma
Ġcotidi anas
ĠO S
Min isterio
Ġordin ario
Ġ19 61
ĠOrgan izacional
ĠL iderazgo
und amente
ĠCon tenido
m icos
ier tos
Ġne to
ĠAM BI
ĠF irma
Ġproduci endo
fic os
Ġperfec ta
ĠĠĠĠĠĠĠĠ ĠĠĠĠĠĠĠĠ
Ġresid ual
Ġvoc aciÃ³n
Ġfl uc
Ġrom per
ĠPlan ta
ĠS oto
ĠEconom ic
Ġproli fer
quÃŃm ica
Ġsac erdo
Ġvincul a
Ġvo tos
Ġenfo ca
ĠR R
19 3
ĠEduc ativo
Ġcostu mbre
min g
Ġt ÃŃ
ĠestratÃ©g icas
content uploads
Ġcons tancia
ĠA un
Ġent er
2 11
ch en
ĠV era
Ġch i
Ġ22 9
ĠB ru
Ġter mo
Ġpato logÃŃas
Ġest acion
ĠL le
Ġac tivas
ĠH U
yn am
Val or
Ġdibu jos
s p
ĠPri vada
Ġal iv
Ġcalcul ado
ĠL ine
ĠEs per
ĠCAP ITULO
ĠOBJE TIVO
Ġmercan til
AN ZA
ay an
G RES
Ġsens ores
m ens
Ġmaes tra
Ġtrans mis
tos is
fun ciones
Ġdis puestos
ĠS ue
d d
Ġflu ido
n Ãºmero
Ġet n
Ġubic an
Ġre port
und in
ĠES TADO
Ġhum il
Ġba talla
Ġm ero
Ġinevi table
B a
ĠM esa
ĠUri be
Ġm y
Ġdific ulta
idal go
Ġcomien zos
ĠRecu ento
Ġtonel adas
ĠRob ert
s tas
tr ados
d Ã©
Ġcon tÃ³
pi Ã©
Ġestim ular
Ġher mana
t te
jer ÃŃa
v ig
ĠInstitu te
rac ciÃ³n
ĠAl can
Ġsomb ra
di go
ĠBIBLIO GRAFÃįA
Ġdes gas
ten se
Ġlibre mente
Ġindic aron
ĠInform Ã¡tica
ab s
ĠU GEL
Ġvar ÃŃan
cu b
Ġecos istema
p ic
Ġdescri b
Ġrepe tir
emb argo
ĠtÃ©r mico
Ġtu m
ĠG i
Ġum bral
ĠDoc toral
n um
Ġca tÃ³lica
J un
ĠPe ter
Ġa den
17 1
X I
Ġmales tar
ĠP uente
ĠprÃ©s tamos
Ġfortal eci
ĠCalder Ã³n
ac y
pec tivo
con junto
ada p
Ġvari antes
Ġexperiment ar
f an
c Ã©n
ĠexplÃŃci ta
R el
Ġcu Ã¡ndo
ĠS uc
Ġcar ac
Ġprov ienen
ĠC asta
ĠS R
Ġam ong
D IS
Ġalo j
Ġb ut
Ġpedi dos
Ġmet Ã¡l
ĠP H
ĠH A
iz ador
ci ent
ĠACAD ÃīM
Ġvis tas
EE E
ÃŃ metro
m icas
Ġatrib uye
Ġsex os
v ados
vers iones
pe bitstreamhandle
utu be
Ġrecur rente
Ġsobres al
ĠProduc to
Ġad judic
Ġocur riÃ³
ier i
ĠAB C
b ien
Ã¡s ticos
E JO
RE G
Ġres ide
23 4
Ġluc has
tin encia
Ġpl acas
ĠR oc
18 3
ĠRich ard
Ġac cionar
Ġmexic ano
ĠR endimiento
profes ional
j al
Ġadministr ar
Ġevalu Ã³
Ġvis ibilidad
Ġlig ado
ĠsÃ³l ida
ĠA van
ĠRe positorio
Ġdeud or
UD AD
Ġs yn
ĠCh Ã¡vez
2 60
r n
C Ã³mo
M L
f lu
scriptsciart text
Ġcr Ã³nicas
Ġantrop ologÃŃa
C OS
ĠeconÃ³m icamente
iden tes
Ġf Ã³s
ĠDid Ã¡ctica
Ġescas os
Ġmor e
ĠFundam entos
Ġindustr i
Ġor aciÃ³n
Ġguer r
Ġbe en
Ġanaliz ando
ĠmolÃ© culas
Ġs alu
ĠOR GAN
Ġec lesi
ĠS tudy
TA BLA
Ġvolun t
ĠColomb iano
Ġsin cr
Ġevalu ado
re vis
Ġvi tro
Ġdef endi
Ġmer ece
Ġplan ificar
he d
Ġc able
Ġal quil
Ġconci liaciÃ³n
era py
Ġge ometrÃŃa
18 1
Ġserv ido
Ġas soci
Ġnaci dos
de os
De fin
ĠG A
Ġveci no
ĠMate mÃ¡tica
ĠenseÃ± anzas
Ġreg ÃŃmenes
Ġin ca
on do
ĠCic lo
ar ly
N i
Ġerr Ã³n
Ġescas o
ĠW ar
ĠSu p
As imismo
ĠECON ÃĵM
n era
Ġacep tado
z z
ĠnÃº cleos
ĠB oy
pol i
ĠM AD
Ġvers us
S H
Ġ19 58
Ġsan eamiento
Ġcine mato
ĠclÃ¡us ula
Ġdiscu tir
OL U
Ġal ianzas
fol io
ĠForm a
ĠQu iÃ©n
ra estructura
esti ona
Ġgr asa
Ġter ra
Ġcompet entes
Ġimplic ados
Ġp uro
ĠPar lamento
Ġn ec
qu Ã©s
tos a
Ġequival e
l us
Ġapropi ada
Ġin ducciÃ³n
tu lo
havi or
ĠBap tista
Ġperj udi
ĠInter americana
posi tivo
fici e
cri ta
Ġhab ido
Ġpercib ida
Ġimpor tar
ĠIndi as
Ġcom itÃ©
Ġmantener se
H o
Ob serv
Ġn ie
ph ic
ĠhectÃ¡ reas
Ġsecund arias
Ġfen omen
Ġelectr icidad
Ġcr ist
Ġon ce
er ÃŃas
2 12
ĠG ri
Ġalcan ces
Ġconver gencia
Ġr am
x s
ĠGusta vo
ĠfÃ³rm ulas
O l
Ġmar x
Ġh Ã©ro
Ġ24 3
Ġy ear
G OS
ĠT oma
ĠCab rera
ĠDe p
Ġgobern ador
Ġinvestig ativo
Ġhal lan
Ġmal os
ĠSuper intendencia
Ġay udas
Ġref rig
igr aciÃ³n
ĠcomÃºn mente
AN OS
ĠAl lÃŃ
bo a
ĠUb icaciÃ³n
Ġsim bol
a x
Ġocur ren
ĠsemÃ¡n tica
Es paÃ±a
A b
ter ÃŃas
ĠThe ory
Ġsu pl
iz antes
Ġni trÃ³geno
Ġagres ividad
Ġenfer mos
Ġtrascen dencia
los a
igur as
ĠQ ual
Ġmar ÃŃ
Ġdeb il
the ma
ĠÃī tica
ob o
Ġur gencia
ĠCar re
Ġconjun tamente
Ġrepor tes
Ġconvoca toria
po ca
n cia
Ġpreten den
Ġautor ÃŃa
Ġcol o
Ġint enciones
Ġpro visiÃ³n
ĠSim Ã³n
Ġdi lig
ĠAr ro
ĠM adre
ob lig
Ġrefuer zo
Ġdescrip tivos
s che
ĠV ER
Ġter cio
Ġ23 7
pro ces
Gra w
av era
erg io
Ġcon o
Ġcoment ario
V EN
ĠVas co
Ġj amÃ¡s
ĠB ay
ob s
Ġespaci ales
Ġdedic ada
m uc
Ġfic has
Ġgran os
Ġse para
ĠJurÃŃ dica
ĠLa tin
Ġpres cripciÃ³n
ĠCom portamiento
ĠG AR
di ll
Ġalcal de
aj eros
Ġpaci encia
c ÃŃa
Ġmexic ana
Ġanti biÃ³
Ġac aba
Ġsol dados
Ġcompar tido
ĠN ar
ci dades
Ġoblig ados
ĠS ul
Ġb ec
omÃ©tr icas
ang el
ĠB ene
ly ing
ĠIntegr aciÃ³n
Ġt estigos
Ġdesemp eÃ±a
Ġexac titud
ĠES TAD
Ġcon no
econÃ³m ica
erc ados
man es
f ras
rie go
ub o
Ġcontac tos
ĠS elec
er dan
Ġexperiment ado
Ġal b
tic le
l ace
Ġus Ã³
R a
Ġpaque te
ĠTerri torial
ye que
cendi entes
Ġw ill
pon der
ĠPara guay
gr ada
Ġequ iv
vi al
S ÃŃ
Ġjurisdic cional
Ġfacil itan
Ġhabl amos
Ġinclu ida
ĠMonte video
Ġgu ard
A unque
ĠpronÃ³s tico
Ã¡ndo les
Ġindic aciones
Ġcomunic arse
Ġsu prim
Ġrecha zar
Des arrollo
ĠAs esor
Ġadop tado
MI ENTOS
0 13
Ã©r pre
Ġven tilaciÃ³n
ĠQuÃŃm ica
Ġsemej antes
ĠV AR
Ġileg al
ĠP uno
Ġmal la
neces ario
Ġal usiÃ³n
ĠUni ted
Ġint entos
Ġan Ã³n
ĠN UE
ĠtrÃ¡ mites
Ġun itario
dis tribuciÃ³n
F U
O P
ĠUN IVERS
jerci cio
Ġqu o
QU IT
in ts
Ġcre emos
Ġcomple mento
Ġrespal do
Ġcatal og
an idad
Ġpreocup aciones
H is
Ġtrayec torias
Ġ2 18
ĠDom ÃŃnguez
ur y
ĠPr uebas
Ġpsicos ociales
ta Ã±a
Ġdescri ta
tu a
Ġcon cibe
Ã¡m ico
Ġcuo ta
Ġf um
ud ar
Ġlig ada
4 50
D ER
Ġprom ueven
Ġlleg ue
cil ia
Ġgr ues
Ġabog ado
J OS
40 1
ĠP AT
Ġfin a
Ġextin ciÃ³n
des e
Ġus ed
Ġam ig
Ġtab aco
Ġabor to
Ġpap a
Ġrespon diÃ³
Ġafirm aciones
ĠJos ep
ones a
Ġorient aciones
cus iones
uc he
t ha
B B
ĠEvalu ar
Ġres ol
Ġv itales
ĠhÃ¡bi tat
Ġextran jeras
Ġvac un
Ġs tudents
ur ado
ion istas
amba yeque
c ano
col on
ĠEMPRES A
Ġorg ul
Ġprovis ional
ĠN acionales
Ġlos as
Ġvol taje
i fes
Ġdiv iden
id urÃŃa
ĠC ro
tra vÃ©s
min os
Ġcep as
tim izaciÃ³n
Ġper for
Ġaccion ante
e qui
G AR
Ġvisu alizaciÃ³n
Ġdifun dir
quis iciÃ³n
ĠCuer po
ĠCre aciÃ³n
cri b
Ġoper ar
Ġthe y
Ġp tas
ICI ONES
Ġidentific adas
Ġadver tir
ĠprÃ³ xima
an ta
ic ho
ĠC AB
ĠF UN
ĠV o
ID AS
ĠTh omas
comun idad
ĠP p
Ġcuadr ados
Ġapr ueba
ha y
Ġpre vistas
Ġguar dar
rie to
Ġexplic ado
ĠEsta ble
ĠCu enta
bo oks
ĠPe dagogÃŃa
D EL
ĠPOL ÃįT
Ã¡s ico
Ġinfer ir
ĠtÃŃp ica
Ġbra zo
ta gram
oc al
pl icidad
ES C
ĠT EM
0 24
Ġdesarrol los
Ġdepor tiva
ĠH ace
Ġad ulta
ĠIbero americana
ĠMir anda
ĠS ens
Ġrecre aciÃ³n
Ġtr igo
ĠChim bote
Ġno do
Ġacum ul
ĠSe de
ĠSci ences
ĠMo delos
Ġqual ity
Ġespecial ista
ĠfilÃ³so fo
ĠTecn olÃ³gica
Ġcan ciones
Ġinter con
s tr
Ġinv ita
Ġcam p
Ġextr acto
Ġcontinu amente
23 9
Ġm ach
ment ar
Ġcorrel aciones
mar t
Ima gen
Ġfa una
OM BRE
ĠCo ordin
particip aciÃ³n
D entro
Ġinm uebles
ĠE qu
in om
Ġfi estas
Ġestra tos
Ġrecib ida
ĠEj ecuciÃ³n
Ġjue gan
Ġajus tar
produc to
soci edad
ĠS IM
Ġdig na
0 14
Ġdistr itos
Ġcentr ada
Ġven ir
Ġaf ric
ĠO riente
Ġro le
ica tion
al ter
Ġsuscep tibles
ĠINDIC ADORES
ĠL ista
inter Ã©s
Ã³g icamente
ĠGal le
ĠCr ÃŃtica
Ġperiodis tas
ĠMej ÃŃa
F T
Ġent en
la za
P U
ĠCon tinu
Ġobserv ados
Ġrespon dieron
ĠIn geniero
Ġ25 1
19 97
Ġcontex tu
Ġcrim in
Ġpor ciÃ³n
Ġconstruc to
Ġdivul gaciÃ³n
ĠPo co
Ġanaliz ada
Ġverb ales
V III
ĠC RI
OR TE
Ġestra to
Ġbarr era
22 8
Ġmal as
M ES
dig ital
Ġdi r
Ġcercan ÃŃa
undin amarca
Ġutiliz arÃ¡
Ġmin era
Ġto x
Ġsol es
tol Ã³gicos
ĠCh ia
Ġsecre to
Ġgeo grÃ¡fico
omÃ©tr ico
Ġform ula
g ger
ĠHistÃ³r ico
Ġproven iente
ĠM ira
Ġe i
ĠON G
Ġsurg iÃ³
Ġe ti
tre m
Ġque de
ific aciones
ĠUnivers al
Ġinnov aciones
ĠK e
Ġdes ac
Ġprev Ã©
Ġdr am
ĠUnivers itat
ĠVal idaciÃ³n
h ace
Ġreco gen
19 1
Ġcandida to
Ġl n
ĠC LA
it adas
Ġpl ac
ĠZ apa
in io
Ġs ÃŃs
ĠFlu jo
ues tros
ĠQ uer
Ġhom os
m g
Ġ19 59
23 2
ĠBar b
Il ustraciÃ³n
x y
Ġlongitud inal
Ġex ci
g on
Ġde formaciÃ³n
Ġs tock
ĠH O
E di
ĠEspec ÃŃficos
0 60
Ġtempor ada
Ġhosp it
ĠRI ES
Ġ25 3
g ando
EC ES
Ã¡ rea
p era
Ġsin g
Ġdestac ando
it ariamente
ĠForm ulaciÃ³n
Ġgubernam ental
Ġaum entan
ĠAl var
aj os
ĠDis tancia
Ġyo u
ĠT ÃįTULO
P ers
Ġa gar
ĠD Ã©
AM A
Ġpas aje
ĠLicencia tura
e ficacia
Ġpre cedentes
ĠAlcal de
ĠT ara
Ġgobern anza
Ġpreserv ar
ĠAb og
ĠlingÃ¼ ÃŃstico
Ġordin aria
Ġfin ca
ĠS AR
Ġorden ar
Ġal udi
Ġs of
Ġmatr imon
Ġcolabor ador
Ġad hesiÃ³n
30 5
Ġ23 4
Ġexces iva
ĠelÃ©ctr icos
ĠElectr Ã³nica
Ġparro quia
ogra f
Ġespos o
Ġdirec tas
bas ed
ĠOc t
C V
er i
ĠCh ica
Ġorden aciÃ³n
z ob
ĠK m
ĠmÃ¡ ximos
Ġ23 2
Ġlim p
Ġcompar te
23 8
Ã¼ edad
Ġ3 11
Ġsab ido
Ġemple os
Ġestim aciones
ĠF ECHA
Ġaut omo
Ġte lec
pas o
Ġi ones
M AT
eje mplo
il s
Ã³ cra
Ġorient ados
Ġn as
S D
Ġsubsi di
un cias
30 8
ton omÃŃa
Ġline ales
G ru
istÃ³ teles
Ġco dificaciÃ³n
R ecu
art ÃŃculo
ci liaciÃ³n
ĠRel ig
Ġdes po
par t
ĠPac ÃŃfico
Ġ23 9
ĠPublic aciones
ĠSÃŃn drome
enez ol
27 5
Ġor ales
ĠS ha
ab ar
br icas
ĠF Ã©
P e
ĠI ES
ĠD R
don ado
Ġsurg ir
FAC ULTAD
Ġ22 8
ĠHis p
Ġconsider aron
Ġfac tible
h echo
Ġtradicional mente
ĠOperacional izaciÃ³n
Ġad je
Ġdesen vol
Ġmone taria
ĠCon cl
Ġtu mor
ĠOp in
Ġg eno
ĠSpa in
vari ables
ici das
Ġata ques
Ġsu ponen
l om
ĠPrincip io
ĠseÃ±al ando
Ġra yos
Ġsue Ã±os
Ġsiste mÃ¡tico
Ġsub terrÃ¡n
Ġindirec tos
Ġrequer idos
ip s
Ġperiodis ta
Ġv ieron
Ġespeci ficidad
Ġarm ados
ĠBuen a
Ġdise ase
Ġde udas
ys tema
ĠSosten ible
Ġpropa gan
Ġencontr adas
Ġval idar
ĠG es
Ġmanifes taron
ĠenseÃ± a
ĠOn line
ĠM M
0 16
is tics
ENT AS
Ġep ÃŃ
Ġviv a
ĠC AT
Ġme tro
S alud
Ġ27 5
ter es
Ġv iendo
Ã©r amos
Ġj ap
ĠTrad ucciÃ³n
ad Ã³
pti mo
Ġper dida
22 6
Ġina ug
ibil izar
123 456
impor tancia
ĠUR B
ĠEs colar
ĠRe present
ĠF l
la y
Ġg oce
Ġof icios
ĠLeg al
Ġci to
ĠG RA
Ġher men
Ġ. ,
Ġas in
25 4
cor e
Ã©u tico
cul ino
Ġconfirm ar
enci ados
Ġre mite
Ġflex iÃ³n
ĠIn tro
ĠOC DE
Ġesper ados
Ġll eno
Ġlar gos
fici ales
Ġsum amente
ĠAdo lesc
pedi ente
Ġinvolucr adas
isti an
Ġsol edad
Ġ24 7
Ġestrech amente
ĠA I
ĠB ases
Ġcorpor ales
duci da
ĠE QU
Ġantigu as
Ġagre ga
Ġge ografÃŃa
Ġren unci
Ġescri tores
ĠPlan eaciÃ³n
ĠL ongitud
ĠMon itor
Ġcla us
Ġleal tad
Ġi on
Es tas
Ġobserv aron
de pendencia
Ġpre decir
Ġexac ta
Ġa mo
ĠM Ã©ndez
Ġllam an
ric ular
Ġdestin ada
Ġdue Ã±o
ĠX IV
Ġoper an
or cid
Ġelabor ados
Ġorig ina
pres s
ĠMan tenimiento
Ġmar car
cu ito
Ġint Ã©rpre
Ġcom enta
t una
ĠEnsay o
! .
am ent
Ġdi co
Ġcel ulares
Ġ.... .
Ġin estabilidad
Ġdisfru tar
UL ACIÃĵN
ĠÃī l
Ġretras o
Ġparticip ativo
Ġsel f
ci t
Ġderi van
IT OR
Ġpar cel
Ġrepor tado
Ġrecib ieron
ĠG an
Ġs abor
ĠSe xo
Ġrap idez
Ġanun cio
FIC OS
tig aciÃ³n
Ġfeminis ta
Ġaument ado
Ġde ficiencia
Ġsindic al
Ġmuer tes
ĠCon ta
ĠT ener
Ġaf ter
tre po
Ġ Ãĳ
ĠJorn adas
por ts
Ġabund ante
Ġincl uyÃ³
Ġpe le
Ġadministr ador
Ġinv ierno
C Ã³digo
Ġnegoci aciones
29 0
Ġcomen zaron
tur alidad
ĠRe presentaciÃ³n
G H
Ġte cho
ex p
ĠOl iv
Ġesco ger
Ġapor taciÃ³n
Obje tivo
ĠMaes tro
Ġcal ifica
ĠGas tos
Ġrecog idos
gar se
ĠT re
P ES
ER AS
Ġalcan zan
ĠME J
Ġt on
ĠEm ilio
Ġapara tos
EM PO
Ġhiper tensiÃ³n
Ġsob r
S ig
Ġinter locu
Ġrepresenta tiva
Ġequip amiento
Ġen vejecimiento
Ġexp los
ED A
il ia
uel to
Ġdesp acho
H ay
Ġproto tipo
Ã³x ido
eÃ± ar
Ġv ea
men or
Ġh ilo
22 9
Ġim peri
R Ãį
Ġe ch
ĠCapaci taciÃ³n
A Ã±o
D P
ĠEste ban
Ġmec Ã¡nicas
Ġro cas
Ġejempl ar
Ġfin o
ĠPr om
der amente
Ġnacional idad
Ġd uro
Des cripciÃ³n
ĠEng ineering
ab as
Ġci ber
Ġ22 6
AN E
Ġproces ales
pers ona
Ġpropa gaciÃ³n
Ġar re
Ġaux iliares
P AL
Ġpa tio
ide ro
Ġenfoc ado
Ġger ente
in er
Ġhomos ex
x ido
23 6
Ġto ca
Ġ25 6
Ġnaci Ã³
pro pie
Ġex puesta
ĠRES PON
os s
Ġaudiovis uales
ĠS chool
Ġf Ã©r
ul es
24 8
Ġenl aces
26 4
F e
Ġmemor ias
Ġconduc tores
pen den
Ġel ig
ĠFre ud
Ġconsum ir
Ġaument Ã³
Ġsu yo
lec tual
ĠEl la
Ġrepres iÃ³n
i ol
ie lo
Ġincom pa
ud amiento
Ġdispu ta
ÃģL EZ
end ario
Institu to
Ġv eo
Ġdecir se
n ec
Ġdese ado
ĠGr am
cu ales
Ġma trices
ime trÃŃa
Ġregistr Ã³
ĠF AM
du d
Ġnove dad
TA MIENTO
ĠCon cepciÃ³n
ĠEx tra
Ġsigu iÃ³
Ġma x
Ġay uden
pens ar
Ġau ge
ĠF ores
ĠP VC
Ã¡ ce
e Ã±os
ĠCol ecciÃ³n
Ġtrea tment
ĠP ese
Ġcob ro
26 5
la tion
ĠlÃŃqu idos
Con trol
Ġpar ciales
30 4
a demÃ¡s
Ġjurispru den
Ġsensor ial
ĠMar g
Ġol vido
f ace
ĠNorm al
ĠA quel
ĠImpor tancia
AB OR
ĠO don
Ġpar ecÃŃa
au to
Ãĵ PEZ
ĠJ ames
Ġque m
pos ible
Ġdispon en
Ġcomien zan
Ġdescri tas
23 3
tr Ã¡n
qui al
Ġp acto
Ġsocio cultural
00 000
Ġfavor ecen
Ġexis tan
ĠSoci ologÃŃa
Ġ24 9
Ġh echas
Ġmane ja
Ġad her
ĠInter venciÃ³n
ĠVir tual
Ġ25 8
Ġcomun itarios
Ġagricul tores
tiz ada
itu lo
tiv al
ĠHuanca yo
ĠDesarrol lar
Ġh ones
ĠCan adÃ¡
Ġepiso dios
G N
senti do
Ġent ran
Ġa tre
ĠdesempeÃ± ar
Ġve cin
quier e
19 95
Ġoperacional izaciÃ³n
ĠJ USTI
Ġinter valos
ide gger
tr ina
Ġmoder nos
Ġagreg ados
REND IZA
TO L
ener aciÃ³n
Ġtermin al
ĠM ES
24 5
ĠCom peti
ĠDes crip
Ġfrag ment
ĠTea tro
Ġeman cip
pe dag
Ġv Ã©r
ĠH ur
ĠMar ÃŃn
Ġentrevis tado
ĠAl mac
Ġcorrel acion
Ġdes gr
ĠVARIA BLES
N ombre
Ġpreven tivo
Ġde tener
Ġpar as
S on
ĠÃºn icos
Ã¡ ticamente
Ġregul an
ĠO L
Ġincu b
Ġestric to
ĠSeÃ± ora
ĠS ing
ĠT ac
amil lo
disciplin ar
u jo
ĠProduc tos
Ġcercan as
trabaj adores
Ġpromo viendo
ĠEL EC
Ġestad io
Ġdefini tivamente
Ġmanifes tar
m acia
V ER
l is
Ġequival entes
IS O
Ġc eb
Ġpre vista
Ġde ter
Ġdul ce
Ġeduc adores
Ġtri ang
Ġprim arias
Ġc acao
ĠDESCRIP CIÃĵN
Ġluc ro
Ġpue des
ingÃ¼ ÃŃstica
truc ciones
100 7
Ġconten ida
Ġmix ta
S obre
Ġs ar
Ġfuncion an
Ġmi xto
Ġne gros
ĠSe mana
Ġsem illa
Ġvideoj uegos
Ġperman ece
Ġac ta
ĠS TS
Re v
S AL
n ica
Ġad mite
ĠADMINIS TR
quÃŃm icos
ĠCar ras
Ġc Ã¡maras
Ġpar lament
Ġ26 5
Ġfuncion ar
l idad
ĠP LA
f ran
Ġrepar to
x ia
Ġsens aciones
b amos
I F
ĠH ombre
Ġenvi ar
Ġabsolu tamente
ĠMuc hos
Ġc y
v ing
ĠZ e
Ġab ra
Ġi ter
ĠÎ¼ m
Ġa ti
E r
ĠMicro bi
ĠM AS
ca tegorÃŃas
er ador
Ġobserv arse
Ġinstitu to
ĠN uestro
duc to
ĠGR Ãģ
Î ´
s iempre
Ġesti gma
ac os
ĠCON TRA
Ġdetal l
ĠGro up
Ġbas ed
Ġtech n
Ġdi Ã³
ĠDE FIN
Ġabandon ar
in ares
Ġde ro
c mo
ĠE fectos
ĠT esor
to pa
Ġm ama
p ales
Ġlog re
20 30
j i
Ġcru z
v iene
ĠHis tory
Ġcivil izaciÃ³n
Ġrub ro
Ġpa ula
Ġ24 2
Ġconm igo
Ġdig amos
gen era
ab ra
ĠS t
ĠESTRA TEG
ĠBern al
ĠAc ciones
ĠCas as
Ġpra xis
ĠK im
Ġ26 1
Ġeffec ts
ĠAl fredo
Ġestadouniden se
Ġhabi tualmente
Vari able
Ġb arra
ĠS esiÃ³n
Ġincl in
Ġmi tigar
S er
ecu encias
Ġpa tÃ³
Ġmas iva
ĠmetÃ¡ fora
ĠK ant
ĠCh il
cion arios
mujer es
Ġpr u
Ġavan zada
ici as
ÃŃ metros
Ġrefer idas
gr ados
Ã¡s ica
ĠF OR
ĠSEG URIDAD
Ġfach ada
m L
Ġcl in
Ġex cepciones
ĠN ro
co c
Ġres tante
Ġele var
Per Ãº
ĠK ol
ĠMin istro
Ġamar illo
M arÃŃa
com es
Ġcal iente
ĠIND US
P N
ĠquÃŃm icas
Ã³g rafo
ĠB erg
Ġti endas
n ico
to x
vie do
De termin
qu ismo
ĠEstad ÃŃstico
Ġcal cio
Ġmg L
ĠPolit Ã©cnica
Ġkg cm
Ġlabora torios
ĠPo wer
ind d
RES UMEN
dise Ã±o
ĠSta te
Ġcer tificado
ĠES PEC
ĠM AL
ĠMÃ© dica
ĠVARIA BLE
Ġaj eno
Ġnorm ativos
ĠD S
ill ones
Ġafec tiva
D M
ÃŃ pro
I s
Ġab out
Com un
G S
ĠPro p
ĠFuer zas
P as
ĠIn terior
ĠL ambayeque
tz sche
Se Ã±
ĠGonz alo
Ġacom paÃ±a
Ġest Ã©tico
Ġ- ----
Ġir r
ine te
Ġconstru ida
Ġges tos
Ġad mitir
Ġreduci endo
ĠCab allero
ĠM UES
Ġrela j
o tro
Ġhuel la
25 6
Ġsolici tÃ³
Ġplas ma
Ġpresent aban
abor ar
Ġconseg uido
ĠPatr icia
Ġconvers aciones
b los
Ġe go
Ġestructur aciÃ³n
Ġcompeti tivo
g g
ĠT ap
Ġ19 00
Ġen vas
3 40
des p
ĠTex to
Ġtempr ano
ĠAdministra tiva
d ora
ĠM ens
ĠEu gen
a ga
ĠNe u
Ġle v
Ġ19 57
ĠCI UDAD
el s
ĠPRO PUESTA
Ġcos mo
Ġre util
ĠO pen
Ġrepor ta
v ero
Ġreemp laz
Ġhab itaciÃ³n
qu ero
ĠPal acios
ĠfÃ¡rmac os
lement ar
m ien
Ġcons istiÃ³
Ã© e
Ġl ici
p unto
ĠS ob
ĠBlan ca
Ġdescon oce
ĠcÃŃ v
vol ta
Ġap uesta
ĠempÃŃr ico
Ġabog ados
Ġ19 45
Ġpar ado
T ICO
Ġ19 48
Ġvol viÃ³
Ġaj ena
bil ity
Ġpav imento
ur b
Ġeduc ar
b ras
Ġestableci eron
Ġdirec tiva
us al
Ġacog ida
k al
ĠPr Ã¡ctica
ĠClas e
GR ADO
Ġnucle ar
ĠE th
Ġintens a
Ġfal se
Ġpuer tos
Ġ27 3
Ġdemostr ando
ĠVal idez
Ġpsic omo
Ġdeclar Ã³
Ġm ari
C an
ĠXX X
S ol
E con
ĠAc osta
M OS
Ġpr in
Ġre a
Ġdes orden
tu oso
are la
Ġcompeti dores
Ġ. -
Ġsens ibles
Ġfeder al
c ando
Ġsegu idores
ĠRecon ocimiento
Ġllev ada
Ġreg al
ĠLe v
Ġ9 00
ul aciones
ĠCom para
Ġmul titud
iemb ros
ĠIns tagram
T esis
Ġph ys
ĠSoci o
ĠBIBLIO GRÃģ
Ġdesarroll en
ĠConsider ando
ĠLatino americana
ĠE PS
proble ma
ti ones
ag n
Ġimpor taciÃ³n
Rodr ÃŃguez
ĠCAL IDAD
Ġinm ueble
Ġder r
Ġadap tado
scriptsciarttext pidS
Ġno c
ĠSal as
URS OS
ri ed
Ġadop ta
Ġlis tado
Ġgluc osa
ES OR
G AS
ĠAnd rea
Ġro di
30 3
Ġcuantita tivos
Ġhabi tuales
Ġval iosa
com par
ca piÃ©
Ġth ese
estruc turaciÃ³n
Ġedific aciones
Ã¡m icas
ĠmÃ© rito
ri tos
Ġvac ÃŃos
v imos
ĠGre en
Ġpropor ciones
es tes
Ġbur gues
contr ib
Ġegres ados
Ġca tÃ¡logo
Ġth an
d ada
mis ma
Ġvers os
ag er
ĠPR IN
ĠEn e
Ġma tric
n to
Ġas umen
ĠdiagnÃ³s ticos
Ġdetal lan
us os
ĠCh en
Ġf ie
ca u
ĠCor reo
T a
ĠH IP
men os
ĠSe minario
Ġin tang
ĠC ay
mb ras
ec os
Ġmay ormente
ĠCar olina
Ġcomplic ado
Ġsistema tizaciÃ³n
Ġaisl ados
Ġdeclar ado
Ġpublic ar
Ġp is
los o
OM A
Ġcomb ina
Ġresul ts
c era
R EC
Ġso dio
E J
M uy
rec ciÃ³n
Ġgener ador
icro bi
Ġmon opol
cen ario
Ġseleccion adas
th y
ĠobstÃ¡ culo
Ġprotagon ismo
ĠCor rea
ĠCerv antes
ĠP ES
Ġdeci dido
Ġme teor
ĠAr istÃ³teles
Ġpol ici
ara gua
Ġs trateg
b ilidades
Ġgener alizada
Ġpap Ã¡
ĠFeder ico
Ġfun da
docu mentos
ĠP CR
Ġinfer encial
ĠBen j
Ġvir tudes
Ġ26 3
D oc
M i
ĠV entas
Ġprior idades
ĠMc Graw
Ġinsu ficiencia
L AS
ic an
Ġcontras tar
Ġhallaz go
Ġlatino americanos
ĠhÃ¡ bil
Ġreper cusiÃ³n
Ġtitu lares
ita tiva
ĠZ o
Ġsopor tar
ĠL T
ĠEmp leo
Ġhab itan
Ġinici ado
Ġdepen derÃ¡
ĠUr bano
ĠFU ENTE
iz aron
Ġsu c
esti m
ĠInvent ario
Ġprodu zca
Ġfa tiga
Ġs n
F IG
Ġpol ic
y m
23 7
ĠT H
l aboral
Ġliber ales
Ġ3 20
ĠCo un
w ar
Ġris k
Ġagrade cer
Ġdepor tivo
ĠCre o
ĠcuÃ¡n to
Ġdesplaz amientos
Ġinter personal
bl ece
Ã¡nd ome
ĠF I
Ġ19 40
ÃŃn cipe
aliz arse
Ġes feras
Ã©ndo le
AT OR
Ġbas Ã¡ndose
Ġ25 2
Ġsalva guar
p uso
Ġs oc
Ġ25 9
ĠCAR RERA
Ġ19 55
ĠBo ur
Ġfal los
ver de
Ġsitu ada
d ras
Ġcomplement aria
Ġc anto
gu Ã©s
ward s
Ġgener e
ĠMari ano
ĠTrabaj adores
ĠBal ance
Ġconden s
ĠCor respon
Ġforma tivo
ĠInform ation
ĠK r
ĠAGR ADE
ir ia
23 1
Ġli fe
Ġ.... ..
ĠseÃ±al ados
Ġan omal
ĠR S
cop io
Ġaten u
ĠEstad ÃŃsticas
Ġpas iÃ³n
Ġmedi eval
pre gun
Ġpresent aba
ĠLo zano
tu ario
ĠI F
Ġtribu tos
estudi os
Ġjuz gar
ĠCon cepto
lo y
ĠSecre taria
ĠprÃ©s tamo
lan des
ĠhÃ¡ bito
Ġresuel ve
Ġinfra estructuras
ing res
Ġec olÃ³gico
escri tura
Ġdese an
ĠOc cidente
Ġlengu ajes
ĠU V
Ġsab idurÃŃa
ĠBra vo
Ġpapel es
ĠB ib
tr ia
ĠUS D
cion an
rig ht
and om
Ġtal la
ĠTam poco
ĠPens amiento
Ġc Ãº
ish ing
Ġr s
c ados
Ġmetodol Ã³gicos
Ġde duce
ĠS ergio
tecn ologÃŃa
Ġcuader no
Ġl lor
Ġdup lic
ens as
ĠfilosÃ³ fica
Ġmanufac tur
or os
uer te
25 3
Ġleg almente
ĠL ur
re present
emp res
ĠMedi ciÃ³n
tim amente
Ġne um
Ġn acer
Ġdi la
Ġmezcl as
Ġinde fin
Ġp ilar
Ġi p
Ãī REZ
Ġdis tanci
ier nes
inter nacional
Ã³r icas
ame work
d c
Ġaplic arse
T er
ĠMej ora
Ġh omb
36 4
ĠSo uth
Ġdiscrim ina
Ġexpedi ciÃ³n
: .
Ġprepar ado
ps is
Ġ3 33
Ġba Ã±o
Ġ19 20
26 7
24 3
Ġesta bles
Ġven ÃŃa
Ġin und
25 8
Ġcuo tas
Ġeduc andos
Ġpo emas
ĠT HE
fil os
ĠRub io
es tro
Ġpredomin io
ĠCONS TRUC
ĠV elas
ĠA Ã±os
fica tion
Ġcer e
Ġexpres ada
s ig
Ġempoder amiento
Ġcomprob aciÃ³n
ĠK ey
ag ra
Ġextens a
Ġbr on
D EN
ĠI EEE
Ġcualita tivos
Ġbar ro
ĠmÃ© dicas
ĠCon de
Ġpens ando
ĠK en
fuer zo
I FICACIÃĵN
nes to
Ġinter vin
ieve d
ĠC itado
Ġal so
ac ÃŃa
obje tivo
Ġap ego
ar le
ĠR D
H U
Ġneg aciÃ³n
ĠÃģl varo
M ER
ĠH idalgo
Ġconsol id
ac om
ĠI MC
Ġm uebles
Ġplas m
Ġasc enso
Ġsosten ido
cis amente
Ġinflu encias
0 80
ĠPas o
n ea
Ġpro be
ĠCon ference
Ġincon stitucional
Ġi ra
Ġel abora
Ġdivi dido
Ġll ena
Ġmues tre
Ġre tros
ĠquÃŃm ico
do wn
Ġapar entemente
Ġins piraciÃ³n
Ġsir va
oci ones
26 8
ĠC amil
Ġpien so
Ġsu ceso
ĠAn uario
O tros
ac ep
Ġdestin os
ĠGuad al
tiz aciones
b ia
Ġd uc
capaci dades
Ġestructur ado
ĠD N
Dis eÃ±o
Ġlin f
Ġital iano
Ġsec ado
Ġcol s
Ġ23 6
ĠF E
H ill
iz ante
Ġidi omas
ĠclÃ¡s icos
R S
I den
am ado
Ġis s
ĠS ara
Ġmon um
ĠTemp eratura
30 1
Ġt esta
Ġcaus ales
om ar
24 4
Ġno tific
Ġ25 7
g eo
Ġproduci das
Ġ23 8
Ġgr acia
ĠAp Ã©ndice
ĠS L
Ġasist encial
Ġdefini tivo
ĠRE AL
Ġr ico
Ġrecu erdos
ĠCr im
Ġmotiv ar
ĠDe talle
ĠTerc er
s ab
Ġaf uera
ĠEsp inoza
Ġal ianza
ĠV Ã¡lido
Ġhisp ano
ĠAudi encia
Ġluc es
Ġcam a
ac Ã¡
va tion
ac adÃ©m
Ġpropor cionalidad
tas e
Ġadap ta
Ġescen as
CAL A
QUIT EC
ten iendo
famil ia
fuer on
mun icip
ĠT witter
Ġangus tia
ĠGreg orio
Ġde venir
ĠMUN ICI
ĠPU BL
p ica
Ġmarg inal
R C
Ġbri tÃ¡n
Con stitu
25 2
ĠEta pa
Ġvis iones
Ġinter iores
pe handle
Ġmin isterio
Ġaf ian
Ġaux iliar
Ġadvers os
DIG O
Ġus adas
ĠC ine
ĠJ UN
Ġsig las
om y
c Ã¡
Ġdespli egue
portun idades
Ġdesp ido
ĠES TA
d omina
Ġcar ecen
ĠUnivers idades
Ġtu bos
Ġges to
ma teriales
Ġle ÃŃdo
Ġper on
Ġ24 4
ĠCog ni
cion ada
v Ã¡n
Ġv enezol
ÃŃfer os
Ġdomin ios
Ġtama Ã±os
Ġagrup aciÃ³n
E cu
ĠAL TO
Ġpostu lados
Ġpre ce
ĠCÃ¡r denas
icha el
Ġavan zado
ĠDIMENS IÃĵN
mb er
ICI ON
Ġrecomend aciÃ³n
ĠPro gramas
ĠAgu irre
Ġch ildren
Ġespe jo
Ġpre cepto
Ġlevan tamiento
ĠMa uri
i Ã©
Ġnarr ador
ĠEduc ativas
Ġto car
ER ES
in v
P D
iden cias
Ġbo de
ĠIndi vid
ĠAlcal Ã¡
Ġver ifica
ĠProces al
l iber
Ġtarje ta
Ãº en
Gonz Ã¡lez
ÃŃ es
O n
ĠR ay
S o
Ġrepresent ados
Ġestr es
Ġperju icios
I AL
Ġ3 15
ĠPen ÃŃnsula
Ġfil tros
Ġvuel ven
ĠDOC UM
AR DO
Ġlatino americana
ĠMATERI ALES
ÃŃs mo
Ġproxim idad
Ġfir mas
Ġest Ã¡s
ÃŃs ico
Ġsus pendi
TE X
3 60
ĠR azÃ³n
Ġdes tr
0 18
Ġpu ri
Ġentendi endo
26 6
ĠO RI
Ã©r col
Ġmer amente
pon ibilidad
Ġis las
Ġutil idades
an go
Ġelec torales
ĠB AS
Ġgr ueso
Ġrepro ducir
Ġgener adas
Ġp eces
Ġlegisla tiva
Ġor aciones
ien ce
Ġca Ã±a
Ġsacri ficio
Ġobserv ada
ÃŃs o
Ġenem igos
RI Z
TO DO
Ġurban izaciÃ³n
ĠPlan o
Ġ19 56
ĠCENT RO
ĠTay lor
Ġcuidad ores
Ġextra Ã±o
Ġvis ibles
con ta
m ic
Ġcircu itos
Ġpres unciÃ³n
Ġfin anzas
Ġcredi bilidad
L Ã³pez
g us
carb uros
ystema tic
pres entan
Ġconcep tualizaciÃ³n
ĠP unto
lic ante
Ġap oder
ÃįN EA
N orm
ĠZh ang
ĠH idro
m Ã³n
ÃŃn eas
Ġcristi anos
Ġimper io
Ġsolici tado
Ġinvoluc ran
eg uridad
or i
ĠQu is
ĠR N
Ġjug ador
L i
ol la
ĠES T
a h
d Ã©s
Ġtex tura
Ġn Ã³
ad ir
ĠmÃ¡r genes
Ġmon et
ĠB ran
A V
inc Ã³n
Ġcom isiones
t ch
M un
ĠN ada
Ġdirig entes
Ġil ustraciÃ³n
Ġgratu ita
Ġinher ente
ur is
id s
il lar
Ġacon di
pe da
Ġexces ivo
Ġsab ÃŃa
Ġca fe
ĠJ UL
apro pi
Ġtu viera
al to
ĠRa Ãºl
te xtos
Ġatmos f
Ġperman eci
ĠW ol
Ġpunta jes
Ġsub asta
Ġse mbr
Ġni Ã±ez
Ġr icos
Ġco un
B ajo
ACI O
ĠL and
Ġpre di
Ġorden ador
Ġpro pos
Ġresul te
; ;
uc v
Ġde ven
Ġreun ir
ĠP rieto
com portamiento
Ġele vaciÃ³n
Ġdi ab
Ġ26 7
re alizar
Ġsuje ta
ĠcÃ³ mp
or ient
fa ult
Ġcor on
ĠR og
fon os
24 9
Ġapren den
Ġatrib uir
Ġconsider aba
co un
Ġcompren den
dad ura
Ġf lec
Ġago tamiento
ĠIn c
Ġoc ta
Ġpur amente
ĠL C
ĠcÃ©l ula
ĠEx posiciÃ³n
Ġm io
in fl
y ing
ĠL IMA
Ġinv al
Ġar an
plic ar
B r
Ġpareci do
Ġpien san
Ġsu icidio
Ġex teriores
m all
24 6
ĠPeru ano
Ġap plica
Ġcre ce
Ġinadecu ada
Ġcontrib uyendo
ĠEl Ã©ctr
Ġsecre tario
ĠdesempeÃ± an
ĠCoopera tiva
2 19
Ġinher entes
Ġasim il
Ġs am
ĠlingÃ¼ ÃŃsticas
Ġseg uramente
iz ales
ĠR i
Ġcerr ar
Ġli tera
Ġejecu ta
Ġbras ile
g Ãºn
Ġen el
Ġre tor
domin al
ĠC ano
Ġfom enta
0 17
Ġmus eos
ĠApro xim
n am
Ġsal as
Ġepiso dio
Ġfactor s
qu erÃŃa
C OR
Ġjorn adas
a unque
ÃŃo do
y p
Ġ25 4
Ġcabal lo
Ġcu alidad
Ġescla vos
Ġh ueso
ĠBarr io
encuent ra
Ġcu antÃŃa
ac tivo
Ġpotenci almente
ĠP D
ĠA ma
ent onces
ĠH emos
ĠMej or
sigu ientes
Ġdivers a
Ġcer em
v ilidad
pol ÃŃticas
Res pecto
ĠA prob
hid ro
Ġperfec to
ciden tal
Ġterres tre
ern e
Ġcontrovers ia
ici smo
Ġar ma
Ġcontribuy ente
40 4
Ġexig en
ĠNi Ã±os
I TO
Ġm ueve
ĠP ag
Ġmanten ido
Ġe a
Ġev acu
Ġprof undamente
ĠAl varez
ĠClar idad
Ġprovin ciales
ĠDocu mentos
ĠGer ente
Ġtom ados
ĠEsta tal
Ġjard ÃŃn
Ġquin ta
ĠMedi os
Ġn omin
Ġcomba te
Ġresiden cial
Ã¡ bi
Ã©di tos
Ġcurios idad
ĠOp era
RENDIZA JE
Ġ19 39
ĠM D
Ġverda deramente
pru dencia
Ġelabor ada
Ġre ta
Ġ3 10
Ġ29 5
m ientras
Ġdesconoci do
ĠSystem s
ĠL ÃĵPEZ
Ġri tual
ĠAgro pecu
respons abilidad
Ġ3 65
ĠP unta
Ġnomb rar
C entro
ĠGonz ales
je z
TI DAD
a gua
Ġcambi ando
Ġbusc aba
b res
Ġaprob ada
Ġpre ceptos
M Ã¡s
Ġdefin iÃ³
ES TR
ĠMÃ¡ ximo
ĠS tr
H S
Ġregul aciones
Ġcomplement arios
ĠTÃīCN ICA
Ġeros iÃ³n
0 70
Ġllev arÃ¡
ĠIbÃŃ dem
D OS
Ġprim arios
ĠPro por
an c
ĠPrincip ales
ĠH om
ĠCÃ¡ tedra
h acia
r t
Ġperten ecer
ĠL ibr
30 6
Ġvis itar
Ġocup ado
Ġes cul
ri ty
ol ecciÃ³n
pre cio
Ġdeb iendo
G L
Ġ24 6
Ġanti oxid
Ġm esti
ĠPRO GRAMA
qu ito
Ġpl us
Ã± ado
ĠT V
Ġprovoc ando
ĠR usia
Ġhub ieran
Ġd ans
Ġ27 1
w ords
Ġv on
Ġ26 9
Ġmorf ologÃŃa
ĠÃģ vila
ĠM Ãºsica
Ġtransvers ales
p Ã¡g
Ġnomb rado
un e
ol as
Ġtran quil
Ġeurope as
Ġexclus ivo
Ġsuscep tible
ĠEcon Ã³micas
Ġagrad able
Ġprac tica
ĠO viedo
mÃ¡ ticamente
ĠPro cur
Ġmutu o
ws ki
Ġtr en
ÃģN CHEZ
inter pre
ĠAl go
Ġes pa
ific ados
Ġwa ter
ĠMer cedes
Ġd c
Ġempie zan
ĠIns trucciÃ³n
ĠT uc
ĠvÃ¡l v
Ġpro posiciÃ³n
Ġcolon ias
Ġcob ra
Ġmec Ã¡nico
Ġ24 8
Ġrequer ir
Ġabord an
ĠEstudi ante
ent amente
Ġs ana
ĠCOM ER
ĠYo u
Ġre tiro
Ġelabor Ã³
pro grama
Ġ27 9
Ġdesas tres
Ġdedi can
ti ciÃ³n
J a
Ġs pp
Ġmoder nas
s ur
Ġtermin aciÃ³n
Ġcontin gencia
Ġguer ras
ĠEl iz
ĠEs cal
ĠPor to
Ġescri tas
ĠT ir
cu adrado
ga te
Ġprogres ivamente
Ġcoment ado
ĠAn ual
Ġ30 1
Ġpermitir ÃŃa
ĠRe ci
Ã¡ Ã±ez
Ġinde x
ĠR ib
cons umo
Ġ29 3
ed s
us ter
19 96
d ÃŃas
Ġre lo
Ġ28 1
Ġllu vias
Ġsosten ibles
Ġconec tar
Ġb ici
Ġro ca
ĠTribu taria
Ġbomb a
Ġn ue
Ġrefer ir
de bido
og a
Ġatra er
Ġh ambre
Ġlimit an
le ma
Ġdismin uyendo
Ġb l
ĠContr eras
Ġsus pen
30 9
Ġexperim enta
cul ado
neces idades
Ġnoc tur
i ja
Des puÃ©s
Ġhe p
Ġsta tus
Ġa ma
ac tivos
ros is
Ġpun tual
ĠÃįtem s
ĠGONZ ÃģLEZ
Ġacent u
ti er
ĠRes ta
Inter pretaciÃ³n
ĠRe ferencia
Ġp ion
uer tos
Ġprior i
Ġdescom posiciÃ³n
Ġac Ãºs
y entes
Ġr on
Ã©tr icas
Ġres is
u v
Ġa rag
Ġo este
ĠCol ec
Ġprob abilidades
24 7
ĠRio ja
ĠPar ra
k ins
cr Ã¡tico
Ġdemo cra
le to
Ġpa ga
ĠAl ba
ĠMon to
dis ta
Ġdel la
in cre
29 4
ĠT un
ile y
Ġcol i
ĠarquitectÃ³n ico
Ġindirec tamente
ĠQu iz
ci dencia
Ġv ayan
Ġvelo cidades
ĠVari aciÃ³n
B as
Ġan orm
U PO
ĠINSTRUM ENTO
ĠCompr omiso
Ã©n ico
Ġalfabe tizaciÃ³n
Ġaccion istas
ĠP uesto
g mail
Ġinform Ã¡ticos
ĠDe porte
Ġdi ariamente
Ġheter ogeneidad
s ional
ĠM EM
ĠEnviron mental
Ġdepor tivas
ad ing
2 21
26 3
Ġps ych
G ran
Ġdelim itaciÃ³n
Ġrig e
Ġintelig ente
Ġserv irÃ¡
TOD OS
ĠEx periencia
Ġenerg ÃŃas
ĠPRO VIN
ĠI T
Ġp isos
ĠH E
Ġactiv ity
ĠL EG
ĠAn th
ha ts
ĠFun ciones
ĠA go
Ġoscu ro
ĠfilosÃ³ fico
s ter
ĠSoci edades
0 35
Ġrepu taciÃ³n
si tuaciÃ³n
Ġprolifer aciÃ³n
ĠROD RÃį
ĠP ic
Ġorden ada
ĠNuev as
Ġl iv
Ġrec ÃŃpro
Ġdisfru te
ens idad
Ġmanifes tado
ĠVer de
ca tegorÃŃa
Ġ28 5
ĠOr ientaciÃ³n
Ġautom Ã¡tica
Ġpulmon ar
u dos
industr ial
25 7
IN TER
Ġapoy os
Ġpresupues tal
Ġes por
ĠH am
ĠP edia
Ġfund ada
Ġpre tensiones
Ġ3 13
tor iedad
Ġver acidad
ĠNo tas
Ġinnov adoras
Ġcontr aria
ĠCol or
Ġindi cios
EN DA
ĠAmeric ana
ĠRes trepo
tal las
Ġ28 3
Ġrela tionship
ĠelÃ©ctr icas
den s
ĠJa veriana
Ġdesgas te
Ġcu bre
ĠJa Ã©n
Ġbas ura
Ġobje tividad
Ġedi tor
Ġ ue
les s
co pia
Ġpractic ar
Ġrig en
ab ia
Ġcau te
ĠTom ado
Ġubic adas
erg on
Ġsever idad
w iki
MartÃŃn ez
ED U
ĠC F
al gunos
Ġemp render
Ġel as
ĠT amaÃ±o
y r
Ġ30 3
an cial
Gru po
Ġse vera
dad ores
ti gu
Ġpor tal
Ã¡c eres
UER DO
cr Ã¡tica
Ġenv ÃŃo
ĠP Ã©r
J U
Ġtra g
Ġsa tur
Ġadministr adores
25 9
Ġexpecta tiva
ĠT era
ĠvÃŃ deo
tiz ados
ĠclÃ¡us ulas
s ÃŃ
Ġad mis
v adas
Ġman io
ob ia
Ġtribut arios
omÃ©tr ica
Ġcar as
Ġi tiner
28 6
Ã¡me tros
Ġofer tas
Ġtradu cir
Ġconoce mos
ĠGener aciÃ³n
Ġne ta
posi tivos
Ġreci claje
ĠBro wn
Ġtrabaj adoras
tiz an
Ġhall Ã³
ĠCar acas
ide a
Ġtrans mite
ĠRODRÃį GUEZ
Ġmedi anas
an co
Ġneg ar
ĠA mpl
Ġh ues
Ġso portes
ĠES TRUC
ĠH as
Ġpreju icios
Ġtra um
El aborado
19 90
Ġcar e
Ġtex til
ĠO IT
ĠEmp le
ĠUN E
Ġs ano
con ocer
z arse
ad ol
ĠS panish
Ġescri biÃ³
Ġtriun fo
Ġinadecu ado
val encia
Ġl istas
ĠIden tidad
Ġhab it
Ġproce derÃ¡
Ġcon de
ĠRes ulta
Ġdepen der
Ġos cil
ĠS Ã¡
ro om
Ġin gre
ĠCon oci
30 2
ĠAlvar ado
Ġta xon
lic tos
Ġpos grado
a i
D onde
ĠCl ub
RE TO
Ġpermitir Ã¡n
UL OS
ĠIn cre
Ġsu ple
ĠH acer
Ġcombin aciones
Ġ30 5
Ġb ucal
ĠPue bla
ĠM L
ĠMal donado
27 4
Ġorganiz ados
19 94
29 5
Ġentusias mo
Ã©ndo lo
Car acter
TER IO
Ã¡p ita
ĠGar cia
Ġconfiden cialidad
ĠBarran quilla
cas a
ĠAr turo
ig er
Ġs chool
tem s
Ġur gente
ĠT UR
TR AS
Ġsepar ados
Ġsens ibilizaciÃ³n
Ġ26 4
ĠEN FER
Ġalterna tivos
Ġidentific ando
es tar
Ġgu i
ĠCon fiabilidad
ci elo
ĠJU AN
ĠEn ten
Ġcontra tar
Ġhin capiÃ©
Ġpar ques
Ġalum inio
per mite
Ġpromedi os
C orte
De partamento
Ġprobabil ÃŃstico
cu mplimiento
Ġparti d
ĠIn tens
Ġide olÃ³gica
ĠBO E
Ġconv icciÃ³n
ie te
Ġpaque tes
C ENTA
Ġdi l
Ġ3 12
Ġemp u
28 5
educ ativa
Ġser io
Ġcan cer
os e
ĠM ental
Ġcorr er
Ġenc ab
ĠEconom ics
a tenciÃ³n
H ernÃ¡ndez
Ġt here
Ġten encia
g estion
ĠEcu aciÃ³n
Ġterror ismo
Ġubic ar
iÃ©n do
Ġinter media
Ġrenov ables
ĠÃ© ticas
ĠHu go
t ÃŃas
Ġapoy an
ĠOr ig
ĠFIG URA
EC O
Ġelev adas
Ġdomin antes
Ġlle ve
ĠEstudi antil
Ġpas tor
Ġre b
Ġdepor tes
Ġases orÃŃa
24 1
ang es
ĠS tan
AS A
Ġliter arios
POR TE
Ġsubs istencia
Ġenten demos
elo cidad
Ġses go
ĠEsp inosa
27 8
di eu
ĠNeg ro
ĠInde pendencia
27 3
ĠV IV
ĠdÃ©bil es
Ġdenomin ados
es os
ĠCant Ã³n
ĠL I
Ġcontrib uido
Ġcomun itarias
z ona
al lo
IC H
Ġprotes ta
Ġprepar ados
ĠMÃ© dico
M AC
Ġminu to
h ÃŃa
ĠSci entific
Ġrig idez
ri ta
ĠDu que
Ġrecon oz
Ġnar co
Ev aluaciÃ³n
ĠA E
G estiÃ³n
Ġin yec
fic encia
ĠM T
Ġti ro
Ġantic uer
26 9
Ġos cur
ĠV isiÃ³n
J AS
ĠEr nesto
Ġacostu mbr
ĠRe ina
ĠJur ado
Ġ27 7
ĠFin anzas
Ġdel as
Ġcomplement arias
Ġcolabor ar
ĠP av
ĠOR CID
Ãį ndice
ĠParÃ¡ metros
C EP
Ġnovel as
ĠCu entas
Ġespon tÃ¡n
ues treo
obje tivos
Ġgus tos
ĠFer re
Ġing esta
Ġregistr aron
ĠintrÃŃnsec a
Ġcontradic ciones
ros o
Ġ3 40
d amente
Ġno v
0 19
Ġtor re
ĠRe levancia
ca t
ton e
per mi
C re
ign aciÃ³n
Ġaca demia
Ġproces ar
Ġfl ora
Ġins tan
Ġgr os
ĠCl ara
Ġsepar ar
tisfec ho
and ante
ĠT L
Ġimpres o
Ġdistribu idos
ĠAd ul
Ġincl inaciÃ³n
ĠD B
ĠAn der
33 4
Ġrefer imos
Ġdes erciÃ³n
Ġlar gas
Ġqued aron
ten a
ac ucho
tu la
ĠHo w
ĠR as
Ġprofun das
ĠE ficiencia
Ġvulner able
ĠT S
p ub
Ġtri Ã¡n
ĠDe le
Ġcari Ã±o
Ġrecons truir
Ġrecolec tar
Ġacab ado
AT UR
Ã¡ndo las
Ġo lig
28 8
ĠvÃ¡l ida
ĠSen ado
cre a
ĠCh in
ĠFERN ÃģNDEZ
Ġexpedi entes
Ġrom ano
ĠACADÃīM ICO
ĠA licante
erramient a
ĠClin ical
Ġdedi car
ĠH and
es u
ac um
3 10
Ġampl ios
T or
ĠtÃŃp ico
Ġmarc adores
la je
ĠB las
Ġperi fer
Ġex posiciones
Ġun ido
27 9
dor as
Ġvuel to
pro yectos
S istema
a ta
Biblio grafÃŃa
27 6
ĠCer ro
ĠDip utaciÃ³n
Ġal ber
ĠOper aciones
Ġgener en
ĠCEP AL
ĠCor tÃ©s
Ġplane amiento
Ġpene traciÃ³n
0 21
ĠO FICI
Ġcoleg as
ĠC undinamarca
Ġcoyun tura
Ġa mino
ĠJos e
ĠIV A
Ġdren aje
Ġ30 4
ĠS EP
ĠÎ¼ g
Ġ26 8
ĠRodr iguez
ĠPregun tas
Ġtranspar ente
Ġconsta tar
ach er
ĠUN IDAD
ĠhidrÃ³ geno
Ġmayor itariamente
fac tores
p ico
ĠPol icy
Ġsil ves
ĠN S
ĠÃ¡n gulos
ĠCon texto
eo ple
it Ã©s
ĠLec tura
ĠCAR ACTER
Ġpermit ÃŃa
Ġincorpor ado
Ġ3 39
posi tiva
Ġrevel an
Ġinform ation
25 1
Ġ26 2
Ġs Ã¡b
ma yo
ĠL Ã¡
ĠP Y
99 9
ve ment
Ġcru zada
ĠL OC
Ġa que
Ġc enso
f Ã¡l
Ġsir viÃ³
it ch
ĠAlcal dÃŃa
br ado
istr ados
ur ce
vi ol
ĠS H
am ina
en ess
ĠG C
pol is
Ġgas tron
Ġrepresenta tivos
Ġval ioso
Ġde dos
Ġcaracter ÃŃstico
ar res
Ġd ual
tur almente
Ġfra ude
Ġa tiende
ed ings
Ġseleccion ada
Ġru tina
ĠVelas co
an ual
ĠBi ologÃŃa
ĠF iguras
onal d
Ġtriste za
Ġnerv ioso
ĠAs tu
Ġeffec t
ca y
Ġbrin dado
12 69
24 2
Ġponer se
Ġ15 00
Ġcon ferencia
Ġret Ã³rica
Ġrepresent ando
Ġcos tas
in to
ton io
Ġbol sa
ti miento
Ġmon te
r ador
ĠMex icana
Ġdiscrim in
co z
ĠECON OM
Ġdis trital
ĠÃ³ sea
ĠDi ana
Ġ7 50
io terapia
Ġdis per
jo urnal
Ġdes liz
ĠC B
Ġpros per
Ġp echo
Ġdi je
Ġvent anas
Ġsient a
ĠAy acucho
Ġagru par
k u
Ġpie dras
Ġencu est
Ġca tas
temp or
Ġagr aria
Ġan exos
Ġre du
Ġab arc
ĠG AS
ĠMich el
gr ar
ĠCon ce
istÃ³ bal
B ol
b is
Ġden uncias
Ġsal en
Ġacu den
ĠSta tis
es as
ĠD uraciÃ³n
an ismos
ib us
ĠHe idegger
Ġutiliz arse
ĠESTUDI OS
duc tion
Ġ28 7
Ġespec tros
ĠNic aragua
prim era
ĠM ET
Ġresuel to
or um
Ġh ard
ĠMicros oft
ho t
Ġcuan tos
Ġneoliber al
ĠESPEC Ãį
tr ieved
29 3
ĠacompaÃ± ada
Ġmad uraciÃ³n
ĠIn gresos
Ġfidel idad
edi encia
Ġcolon ia
Ġinform ativo
Ġpre mio
ĠL ara
cion ados
Ġ3 30
Ġaver igu
Ġviv encia
Ġequiv oc
Ġo puesto
ĠB Y
gu Ã©
Ġlo te
Ġo le
Ġedi ciones
ĠIs rael
u is
Ġnum ero
Ġacab ar
Ãļ M
Ġviv iendo
Ġcan on
Ġdeno ta
t le
Ġblan cos
Ġinhib iciÃ³n
ĠP ÃīREZ
te gui
Ġrecop ilar
Ġpr endas
ĠP UN
ĠFran cis
toma tologÃŃa
Ġrecomend able
ĠEmpres arial
d le
Ġdescentr alizaciÃ³n
Ġconec tividad
Ġmun dos
Ã¡g ico
ĠCal das
com e
ci ta
Ġx x
ĠR oy
Ġcap itÃ¡n
ĠDoc entes
ders tan
Ġcoord inar
r Ã³n
Ġpriv acidad
Ġm ur
un iÃ³n
ib ra
l ante
Ġgana derÃŃa
Ġ19 31
Ġevalu adas
Ġcomunica tivo
ĠH erramientas
Ġproyec ciones
ci mo
Ġdistrib uir
Pro yecto
Ġprogres ivo
ĠPres idencia
Ġt Ã³
Ġtranqu ilidad
ĠAN AL
Ġvolun tario
ĠseÃ± alizaciÃ³n
Ġemb ar
ĠSOCI ALES
Ġregis tran
Ġ29 1
ĠBl ack
ĠOB SERV
ĠCre cimiento
Ġmin as
Ġthe ory
Ġviol aciones
0 22
Ãĵ TESIS
Ġfores tal
ĠVAL ID
e um
ĠV IR
der aciÃ³n
Ġhon gos
F IL
Ġconstitucional idad
ĠAdministr aciones
ĠBIBLIOGRÃģ FICAS
gu erra
Ġs tudies
Ġunivers itarias
ĠdiseÃ± ada
an amente
ĠC IV
Ġdeman dado
ĠZam ora
Ġpotencial idades
ÃŃ v
ĠDe parta
MÃ© xico
Ġexist ÃŃan
Ġpar Ã¡
Ġcom entar
Ã© tera
ci tos
j ando
h ub
ib ilidades
ĠPh il
Ġvalor aciones
es p
ĠIn icio
Ġorient al
Ġ29 9
Ġregistr adas
Ġsol ub
Ġn aran
ĠMate mÃ¡ticas
de ri
Ġsan itarias
Ġsobre peso
terrÃ¡n eo
Ġinciden tes
Ġevent ual
Ġremo ciÃ³n
Ġreflex ivo
33 5
Ġautor as
Ġtrans ferencias
uel ta
29 9
Ġconform a
f ÃŃ
Ġacer car
IT OS
ĠC av
Ġpar cela
Ġtuber culosis
ĠJar amillo
ĠP EN
Ġp uls
ĠCar ga
inter es
Ġafirm Ã³
ĠNatural eza
ale la
Ġperju dic
Ġnaveg aciÃ³n
per u
Ġasent amientos
Ġmonta Ã±a
ĠBur nout
ĠPropie dad
Ġinci dir
ap el
Ġinde termin
determin aciÃ³n
Ġmi tos
Ġasesor amiento
Ġprovoc ado
b urg
UN A
ĠINFORM ACIÃĵN
di ag
ĠquirÃºrg ico
ĠP AN
Ġinvestig a
Ġhar ina
ĠCon clusiÃ³n
Ġla terales
Ġautor re
l p
Ġqu im
Ġpe trol
Ġde tr
i tivas
Ġabord ado
Ġcr ÃŃmenes
Ġpas iva
Ġconstr uyendo
Ġclas ifica
Ġesta tuto
Ġfol low
ĠG om
an ts
ci nas
Ġre fin
ES TA
ĠCan al
Ġ27 2
Ġarquitec to
Ġre tar
TI NA
Ġcor tos
Ġreglam entos
Ġenfa tiza
L uego
T ras
Ġl ento
Ġpro fer
Ġcar encias
ible mente
h dl
Ġsystem s
Ġpers igue
D ÃŃa
Ġabs tracto
ĠterapÃ©u tica
ĠI DE
ĠUR L
u mp
Ġ29 0
w atch
Ġpun tuales
Ġsu ave
Ġorden ado
tas a
Ġdescrip ciones
ex periencia
ud ales
aliz as
tes e
ĠdomÃ©s tica
Ġcolon izaciÃ³n
29 6
ĠF emenino
Ġobs ta
n ell
Ġproduc tion
Ã¡s ticas
Ġve jez
3 75
rec en
ĠDiv isiÃ³n
ĠH uel
Ġdocument ales
Ġsal iÃ³
ĠCap itÃ¡n
ĠM ichael
Ġ27 6
ab eth
3 20
Ġp Ã¡
tandar d
ĠIn fec
tu osa
hos p
institu ciones
Ġbrech as
ĠC Ã¡n
M as
Ġinter relaciÃ³n
50 5
Ġre ina
ĠquiÃ©n es
Ġher ed
Ġ3 25
Ġvas o
Ġencontr ando
Ġinterac tÃºan
Ġfac torial
Ġimp le
29 8
Ġacus ado
Ġproteg ido
b ios
Ġan tim
gres iÃ³n
29 7
Ġenti enden
Ġestructur ada
ĠMA Y
ab es
ĠIN TE
Ġm elli
Au tor
Ġcardiovas cular
preci aciÃ³n
Ġdesarrol le
V V
CI MIENTOS
Ġdi Ã¡logos
igh ts
dor o
av ent
Ġautom Ã³vil
3 78
Ġcer Ã¡mica
30 7
Ġarbitr aje
K ey
gu er
Ġdedic adas
Ġ19 54
ĠEl los
Ġmode lado
Ġdes ag
ac hos
ĠD L
Ġcomp u
Ġmedi do
cre cimiento
ĠAR QUITEC
Ġagrade cimiento
Ġox idaciÃ³n
Ġse con
ĠSEG UN
Ġameric ano
Ġasign ados
Ġo ÃŃdo
P on
ent er
in ici
ĠNie tzsche
Ġalcan zando
Ġ28 9
ĠD OM
Ġexis tiendo
28 4
eg an
ĠC ell
ĠC ES
Ġre pÃºblica
pa ge
Ġfemin ismo
Ġto l
ET ÃįN
ib re
ĠRes erva
Ġtrop as
Ġinsa tisfacciÃ³n
f c
Ġpre domina
d ur
Ġlig ados
Ġinterv iene
ĠEqui pos
ce lo
conoci mientos
emp leo
g obierno
Ġfacil itando
Ġbor des
Ġ3 75
Ġ19 53
ĠN osotros
ga z
ie w
Ġes bo
ĠTecn olÃ³gico
ĠSan z
oma to
log ia
AT URA
fac tos
man os
ingÃ¼ e
Ġespeci alizadas
da ta
estrateg ias
Ġofreci endo
ĠdialÃ©c tica
Ġul tra
ĠAc ces
gu al
bi tral
gl omer
ĠInd ÃŃgen
Ġcambi an
Ġmin is
Ġatribu ciones
Ġaudi tor
ĠF UND
Ġseg regaciÃ³n
ĠaÃ±ad ido
Ġ29 7
ĠMin is
Ġasum iendo
Ġgrad ual
ĠD Ã¡
ĠEduc ational
ri b
Ġcal entamiento
Ġconsecu ente
ĠUNIVERS IT
n ales
l t
Ġplur alidad
ici na
ĠPO BL
ĠA qu
Ġlic encias
Ġm enti
Ġsuce dido
ĠDi abetes
ĠR T
ĠV IS
Ġ27 4
Ġh arÃŃa
all en
Ġestar ÃŃan
Ġh ero
Ġdue Ã±os
ul osa
Ġer es
Ġproces ado
Ġesper an
Ġsho w
Ġb acter
tisf ac
uev ara
ĠTA BL
Ġdetermin aron
Ġhospital aria
ĠlÃ© xico
ĠA ÃĳOS
Ġci lin
Ġ3 45
Ġcusto dia
Ġman z
Ġeleg idos
Pro fes
26 2
pro pi
Ġf em
Ġpro per
Ġgal le
Ġ19 46
il ios
li ar
public aciones
Ġob ispo
ĠSal inas
Ġnota bles
ĠG or
qui Ã¡
ve da
Ġrepresenta tivo
D ia
C las
Ġsuel do
Ġdesvent ajas
D r
ĠS ÃģNCHEZ
ĠP T
ĠÃģ reas
Ġconfigur an
B AL
li quen
ĠR ecep
igan cho
ĠG l
pe to
Ġtrans port
Ġformul ario
Ġdeb o
Ġg riego
Ġpremis as
econÃ³m icos
re mo
ĠAu x
ÃŃfic amente
ĠPar do
r ados
ĠBA JO
Es peci
ĠF C
con tenido
S Ã¡nchez
rit m
Ġaran cel
im nas
Ġinf il
Ġ3 23
Ġtener se
es paÃ±ol
Ġdo tar
Ġin jer
Ġreg ulares
Ġsal to
ĠL ong
Ġsustent able
Ġcre ador
in da
Ġr ica
ĠA la
Ġvec tores
Ġincendi os
Ġacredi taciÃ³n
ĠV E
Ġincen tivar
Ġre quiera
ex iste
Ġpro posiciones
Ġo dio
tur ismo
B OL
Ġaspir aciones
Ġta x
ĠlegÃŃ tima
Ġreconoci endo
Ġa ra
28 9
dra de
Ġusu almente
Ġsustitu ir
ĠJ ane
w ood
Ġasim ilaciÃ³n
Ġnotable mente
Ġas amblea
Ġgro wth
ĠCuar to
Ġasign ar
Ġrefuer za
Ġguar de
gu ra
ĠACTIVIDAD ES
Ġsuce diÃ³
Ġ19 49
Ġcalific aciones
yo utube
medi da
mÃ¡ genes
40 5
Ġauto evaluaciÃ³n
Ġdemos traciÃ³n
Ġmascul ina
ĠPo t
Ġrestaur antes
gan o
ĠD ial
lo t
Ġfrag mentaciÃ³n
Ġt Ã³x
Re ferencias
fi eld
Ġa tracciÃ³n
Ġcontra tista
Ġtarje tas
ĠChica go
Y a
ĠPa ula
Ġantic on
Ġfal so
col ec
ad is
Ġin er
pol ÃŃtico
se ver
ĠAug usto
ti p
Ġre pite
tr en
Ġas istentes
Ġmara vil
Ġpol im
Ġmotiv ado
Ġcontempl ar
Ġte la
Ġleg ado
c ern
Ġobserv adas
ĠB ANCO
Ġbeb Ã©
Ġinterrog ante
Ġamp ar
Ġexplic Ã³
U Z
G al
ec era
tÃ¡n do
Ġpens ado
Ġparadig mas
s iendo
des puÃ©s
ĠdiseÃ± ados
Ġtu ve
ĠPu blica
ĠLE Y
ĠJu ana
Ġinv ol
Ġform ados
Ġacces orios
Ġhid rol
Ġgeo grÃ¡ficas
Ġtrans acciÃ³n
form ance
ĠVi ol
ay as
Ġver ticales
Ġresta urante
Ġkil Ã³metros
us se
ĠCal vo
ĠespectÃ¡ culo
Ġ3 21
ÃŃcol as
Ġcel da
Ġfru ta
Ã©m ico
Ġtra zado
Ġconf ort
Ġre plante
ĠLib ros
uer tas
ĠIz quier
tin e
ĠAn s
PAR TAM
inter o
Ġpatrimon iales
Ġc uch
Ġatravi esa
Ġt Ã¡
l ler
aliz ation
P F
ces a
ĠreÃºn e
QU EZ
Ġcon ferencias
28 3
des a
ĠSERV ICIOS
Ġrell eno
Ġcab all
Ġpan eles
ĠAgu as
IN D
Ġotor gado
Ġsatisfec hos
Ġempez aron
ĠVÃ© lez
27 7
ĠMARTÃįN EZ
ĠM Ã³dulo
Ġcompar aciones
Ã± ones
Ġac aso
ĠSÃŃn tesis
Ġpropici ar
Ġacor des
Ġemp e
Ġreper cusiones
Ġajus ta
PL EM
Ġro ja
ĠGre cia
Ġspeci es
ĠFÃ© lix
Ġcon tando
AC A
ĠFuer za
44 4
36 6
Ġinfin ito
p ensa
b enefici
Ġconce der
ar th
ÃŃ i
Ġren uncia
ant ÃŃas
Ġca e
Ġfir st
Ġafin es
irio ja
Ġedi tores
mi as
ĠR OM
Ġinvestig ado
enci ana
Ġcari es
v ino
Ġcal ibraciÃ³n
Ġpar ental
Ġpat ente
Ġvari adas
Ġartes anal
ĠIs la
Ġdirec tivas
Ġ3 35
ru g
B AR
Ã¼ r
ĠB ec
go ta
Ġcuan tificaciÃ³n
Ġcon gel
Ġtrabaj adora
Ġen marca
Ãĵ L
Ġque jas
Ġcon tent
ĠAP RENDIZAJE
Ġin dud
cul turalidad
ĠImp renta
ĠF acil
34 4
sub je
Ġguar dan
Ġ20 30
ap p
ĠE che
Ġpre dios
var d
Ġm ural
Ġnum Ã©rica
or ig
Ġver os
ili tud
002 000
to da
Ġsuperfici ales
Ġnarra tivo
Ġreflej ar
ĠOr al
d uras
Ġasoci an
ĠSERV ICIO
vi ta
tas io
ĠC Ã¡ceres
ĠAm ar
Ġinquie tudes
ĠSol ici
Ġprov idencia
ĠF recu
ĠL EC
ues ca
Ġasent amiento
adÃ³ j
Ġfidel izaciÃ³n
BI ER
integr aciÃ³n
Ġalterna tivo
u te
p un
Ġ28 8
ni ente
ra te
Ġexten so
Ġ Č
Ġhuev os
Ġimagin arios
ĠTRI B
he im
ba te
H ab
Ġg ira
Ġtrim es
ON O
Ġsurg ido
ĠA mp
ĠPerio do
L ima
ci encias
Ġhipo t
ĠNingun a
Estudi o
Ġpes cado
Ġre mon
U r
Ġexpres arse
Ġap titud
RE VISTA
Ġllev aba
re os
m encion
28 1
Ġanal y
Ġalea toria
Ġfal sa
Ġqu iso
Ġinterc ambios
ograf ÃŃas
s ector
ĠCri terio
Ġ26 6
ĠESPA Ãĳ
Ġcar ro
a k
Ġproces ados
ĠH il
Ġfundam entaciÃ³n
enti do
Ġv icios
Ġob rero
Ġparticip ado
Ġon das
ĠOs car
cons erv
Ġdo l
Ġdi vin
ĠĠĠĠ Ġ
un irioja
Ġaplic aron
Ġ19 10
Ġform alizaciÃ³n
S ON
ero a
ier es
ĠL y
Ġpot encias
fi quen
Ġdetermin e
w al
Ġfil as
kin son
m ad
ĠBea triz
yu ge
ĠRe trieved
aman ga
Ġreg ulado
Ġeng lo
Ġincorpor an
Ġaproxim ada
Ġev apor
ĠP ia
ĠC res
40 8
po to
H I
port aciones
Ġrecl amos
Ġgaranti zando
ĠDE DIC
Ġtra tÃ³
Ġsuje ciÃ³n
Ġalcan zados
ĠV IC
cu mpl
lan ueva
r c
Ġfu i
hum anos
tas is
Ġcre ados
tar illado
Ġmane jan
Ġpro fe
Ġpers istencia
ac ar
Ġd B
n ic
Ġregres o
Ġhuel ga
Ġentre tenimiento
Ġlicencia tura
ĠNor th
Ġ19 51
ĠCON TA
Ġide olÃ³gico
ĠPr ado
O tra
Ġl umin
Ġcam inar
Ġw ay
Ġpor quÃ©
ĠÃļ l
Ġlatino americano
Ġ28 2
ĠCo ordinaciÃ³n
ĠG L
ĠC G
l on
Ġinform alidad
pro te
Ġdesper di
ĠV idal
26 1
for e
umb res
Ġno ci
ĠF IC
ĠFiscal ÃŃa
aj ara
Ġpre visiÃ³n
Ġobserv ando
Ġmul tin
Ġen vol
Ġmutu a
ĠB ut
Ġ30 7
Ġgram Ã¡tica
ĠMÃ¡r quez
Ġcr ia
Ġ3 80
Ġsindica tos
ĠLi u
Ġpreocu pa
Ã³ lica
ĠAr ti
Ġmercanc ÃŃa
ampl ona
33 6
ĠÃºn icas
ĠOrgan ization
Ġsimili tudes
Ġpres i
19 92
ĠCas os
ĠGENER ALES
D on
Ġreclu tamiento
Ġres istencias
Ġcolec ciones
ĠA decu
Ġinf antes
Ġper ros
ĠaÃ© rea
doc s
b b
Ġv aci
Ġacces ibles
Ġinmigr aciÃ³n
ĠCU ADRO
ĠMOD ELO
ĠC UR
Ġinten so
M edia
Ġliter arias
m y
ĠPare des
Ġvul gar
Ġmulti media
Ġve ÃŃa
Ġexitos a
tol Ã³gicas
ĠCom pan
Ġdedic ados
Ġinteres adas
Ġlegitim aciÃ³n
Ġpa th
Ġco ca
Ġlib r
Ġamb ig
Ġgru pales
Ġconsum e
Ġs ales
ip to
ĠCarras co
ĠCr istÃ³bal
Ã³lo ga
Ġprogres iÃ³n
dill era
Ġli tros
Ġde tenciÃ³n
ĠC UM
Ġcent ran
Ġun idos
Ġcome ter
Ġinsec tos
a ut
irÃ¡ mi
ĠObserv atorio
ĠA ST
in dica
Ġ19 38
Ġc Ã¡pita
36 5
Ġin cul
le te
Ġmejor ado
Ġcomplement ar
Ġpu de
bi Ã©n
Ġtub erÃŃa
Ġl Ã¡s
Ġorigin alidad
Ġla v
Ġfin cas
ĠJohn son
Ġcre ciendo
pendi entes
M ed
Ġgen Ã©tico
Ġsimul aciones
Ġm ora
ĠAl imentaciÃ³n
ĠAl g
Ġconfron taciÃ³n
ĠFIN AL
Ġa xi
Ġse tiembre
Ġincons ciente
Ġgo zar
Ġmeta cogni
27 2
Ġar as
ĠN D
Ġdeber se
Ġdo g
Ġvic toria
Ġap titudes
ĠcÃŃr culos
ĠF en
di f
ĠM AG
Ġent era
ĠS ES
T L
OS P
Ġsil enci
Ġex acto
qu ias
ĠReflex iones
ĠpÃ¡r rafos
ĠEp idemi
Ġdi ligencia
Ġinv enciÃ³n
33 8
ER IA
ĠImp res
Ġapoy ado
0 90
ĠMÃī TODOS
Ġparcel as
Ġc lic
Ġfores tales
or gar
Ġad misiÃ³n
Ġrom ana
na dero
Gener al
ar mac
ĠV erg
P Ã©rez
Ġincendi o
pi ri
Ġanun cios
ĠcontemporÃ¡n eos
-------- ----
Ġpu entes
e ja
Ġtelec omunicaciones
Ġveh icular
fr ente
Ġdif ieren
Ġlo ca
h om
Ġp ir
Ġpos s
Ġv uestra
Ġfor zado
y es
ar to
Ġtendr ÃŃan
Ġfrac tura
Ġpas ajeros
ĠEnerg y
ĠRes iduos
Ġ28 6
Ġvel ar
28 2
ĠR F
ĠexplÃŃci tamente
Ġar isto
ĠBau tista
Ġc oc
Ġfirm ado
Ġcategor izaciÃ³n
Ġsome tidas
ĠhÃŃdr ico
Ġ30 2
Ġincu mpl
c ente
Ġtom e
ĠidÃ³n eo
t c
a de
ĠDe cisiÃ³n
Ġenrique cer
u res
me z
Ġartes an
Ġ19 29
Ġenz imas
ĠAmaz onas
Ã¡ is
Ġrequer idas
tin es
Ġsu mar
ĠArt ÃŃculos
his p
Ġorden a
Ġfrac ciones
cin co
28 7
ĠAN O
35 5
te os
ĠP V
ĠU SO
Ġart s
r ico
K A
ur se
t ÃŃp
Ġ29 8
ĠV iz
di cho
Ġbi olÃ³gicas
bi ta
Ġejecu tado
Ġsal arial
Ex iste
ĠLen guaje
Ġ27 8
Ġnombr amiento
Ġv aria
gar on
Ġhistori ador
Ġrecog ido
Ġmelli tus
ĠmÃºs culos
Ġbur nout
Ġperu anos
Ġcon fec
Ġw ell
Ġluch ar
Ġdemostr aron
Ġcal ificar
apro xim
Ġadop tadas
ĠR ent
Ġrevis ado
ĠN etwork
Ġperio don
Ġmar ch
Ġher b
Ġ38 4
ĠautÃ³n omos
ĠTab las
ĠHi per
ĠNegoci os
Ġfres co
k ar
Ġsup ra
Ġb ara
em ocional
d ri
Ġreconoci das
Ġcerr ada
o ta
Ġdem ora
Ġcontin Ãºan
ĠUN ED
an terior
h aci
rie la
Ġa rea
se y
ĠT N
Ġcristi ano
Ġs op
Ġvers o
Ġpas aron
ĠPRO CED
Ġ0 10
Ġpeligros os
Ġcompeti tivas
Ġdiv orcio
a um
Ġpermis os
ni h
Ġcombus tibles
Ġfe ed
ĠHab er
Ġlo w
Ġetc Ã©tera
F ernÃ¡ndez
Ġestudi ando
ĠCan ta
Ġpo ten
di mos
Ġais lado
pr Ã¡ctica
ĠArque ologÃŃa
Ġ28 4
is tido
Ġemerg ente
Ġcomo didad
ad s
V i
Ġartic ula
ĠS w
Ġsub ir
ĠMedi cine
ĠEs trÃ©s
Ġdelincu encia
ĠJ en
ĠClar o
ĠO h
Ġe g
Ġ3 16
Ġp ig
Ġele mental
Ġinfl ama
J e
Ġadop tada
ĠCAS O
Ġin geniero
Ġte mplo
ĠMauri cio
ĠEncu entro
our ces
P h
Ġconvir tiÃ©ndose
ic on
ĠSpr inger
ĠPr in
Ġcam in
ac tos
ĠS UN
Ġprove e
R R
aj al
Ġparal el
Ġcontr arres
Ġme asure
es iones
Ġre as
Ġinform antes
Ġsa turaciÃ³n
Ġe min
ing a
col ares
IS TRO
Ãļ N
Ġrum bo
ĠCo ord
ĠAcadÃ©m ica
to das
ĠESPE CIAL
Ġ ergon
ad io
Ġni ega
An te
Ġabsor b
ĠInf raestructura
Ġfrances es
ĠAR TÃįCULO
ĠPaci entes
Ġsient an
Ġcompara tiva
Ġhum ed
Ġdefien de
Ġrobo t
ĠEs taciÃ³n
Ġpl i
ĠS ST
38 1
Y S
hum ano
ĠAG UA
27 1
ĠGe orge
ul tural
Ġaplic arÃ¡
vers o
Ġrad icales
: ,
Ġgol pes
profes ionales
ECU ENCIA
ON AS
ĠAp plied
79 5
Ġacre edores
Ġn etwork
ig ne
Ġconstru idos
ĠRan go
Ġmulti plicidad
se jo
Ġin testinal
Ġeval Ãºan
Ġreduc en
ĠLuis a
Ġyear s
Ġautom Ã¡tico
ĠTI EMPO
Ġ29 4
Ġab dominal
ci les
ĠDe ficiente
arc os
pe que
it aron
Ġincl uyeron
ĠW hat
Ġinfrac ciones
To dos
ĠlingÃ¼ ÃŃsticos
Ġinter rup
ES TU
ĠProduc tividad
S oci
Ġargum ent
n u
Ġenz ima
Ġintegr ante
Ġg ig
Ġse min
Ġapel aciÃ³n
F oto
Ġqu a
Ġaproxim ado
Ġllev adas
TI Z
Ġa tribuciÃ³n
Ġenf ri
Ġdesper tar
Ġcontrol ado
ĠIb idem
ĠCh an
ĠH ans
Ġreflex iva
Ġresul tando
Ġaj enos
Ġefectu ado
Ġcal endario
Ġpers u
iz on
ĠO DS
aci al
ĠC ien
Ġclas s
Ġfal tas
Ġhuel las
ĠAudi torÃŃa
Ġinv asiÃ³n
Ġcuan tificar
R AL
ĠS uma
ĠExp lor
i tec
Ġsu ch
is ma
Ġk N
Ġval ue
cu er
ĠD un
ĠMas s
Ġlo go
Ġinf antiles
ĠsimultÃ¡n ea
ĠterapÃ©u tico
Ġregistr ada
Ġger entes
ĠEsc uelas
pos e
Ġvice versa
19 93
ĠFA O
ĠD or
ad yu
Ġcaracter izada
Ġcuestion ar
F un
Ġcl ari
Ġbas al
ĠH id
Ġcaus alidad
ĠVe ter
ĠCONTEN IDO
que te
Ġflex ibles
ĠMas culino
tr Ã¡fico
Ġban ca
vis ion
29 1
e idad
Ġfr ustraciÃ³n
fon ÃŃa
Ġsome tida
ĠMar ca
Ġintegr ados
Ġcom is
il y
Ġproyec ta
ĠPar ticular
Ġvas os
dr ÃŃan
0 23
Ġes qu
ES T
Ġaf Ã¡n
Ġcelebr ado
ĠEn gl
ĠF IL
cual quier
ĠD UR
Ġvar Ã³n
Ġencab ez
uev an
I d
Ġen o
Ġ19 52
Ġende udamiento
Ġocas iona
dial net
Ġes par
br ano
Ġdim ension
Ã³r icos
Ġin neces
Ġty pe
Ġde re
Ġpar alela
El aboraciÃ³n
Ġce ment
ĠE uro
ĠAmb as
Ġcomput adora
Ġimpro vis
Ġmanip ular
Ġpin turas
la g
Ġh omo
Ġta p
Ġ3 14
ĠS ER
prim er
Ġhab ia
d res
ĠF Ã¡
Ġs illa
Ġexperiment an
Ġbreve mente
Ġatrac tivos
n en
ĠRe port
ĠD al
iv es
B AS
Ġma tar
ĠEx trem
ĠCar e
Ġres ume
com watch
i tivos
ĠM erc
ĠV ia
ĠRo ca
Ġpresent amos
Ġvolun tarios
Ġdivers ificaciÃ³n
33 9
Ġconduc tual
S AN
ĠN on
Ġcorre la
Ġtr acciÃ³n
z er
Ġefec tÃºa
ĠS he
Ġpreten dÃŃa
Ġan illo
ra ya
v imientos
Ġdemand ada
ICI EMBRE
jur is
Ã³ ticos
ĠT EL
ar m
Ġconduc en
CI OS
Ġtermin an
n eros
B F
nos ci
Ġsobre carga
Ġindic aciÃ³n
gu o
di rig
Ġpers ecuciÃ³n
ĠF IS
ĠMar c
s um
29 2
Ġh ue
Ġtu mb
ĠH arr
E TA
Ġim pedi
Ġas isten
th esis
especi al
Ġdesn utriciÃ³n
i u
fu entes
ĠWal ter
er turas
Ġref lec
Ġauto cuidado
Ġfuer e
ĠPre paraciÃ³n
tic en
Ġres piraciÃ³n
Ġri tuales
S ecre
ic ano
Ġor i
Ġpo etas
Ġferro carril
gu era
Ġcombus tiÃ³n
vi ra
Ġcarre teras
Ġ29 2
ĠJul iÃ¡n
ĠB EN
................................................................ ................................................................
Ġbo tÃ³n
cip es
Ġpla ya
ĠF ru
ĠBel lo
Ġof f
ĠAustr alia
Ġvari ante
ho ut
ĠM R
iz os
ĠHIP ÃĵTESIS
ĠLur igancho
Ġprote in
ter nal
Ġcon fer
pÃº blico
T ÃĵN
Ġcor ros
ĠSta tes
ĠAtl Ã¡ntico
ĠT y
Ġcu ente
ĠPromo ver
Ġg lo
Ġelim ina
n el
am er
Ġ19 37
Ġun ir
Ġdiv ina
Ġ3 34
Ġtea tral
ACI A
Ġsal var
Ġproteg e
Ġcell s
par encia
Ġalter ar
Ġhe mbras
Ġaplic abilidad
Ġprovoc an
Ġactu alizada
ĠR enta
Ġab an
IN TRODUCCIÃĵN
ĠCon oce
ĠDis capacidad
en cy
D iciembre
Ġpres idencia
Ġde i
ub a
Ġd uelo
Ġimpac t
Ġcr onograma
Ġpl omo
Ġhosp italizaciÃ³n
qui tos
mis sion
ĠMal o
ĠSan idad
a udi
k ers
Ġfron tal
Ġg loria
Ġfac ulta
ĠS Ã©
a tilidad
ĠUrb ana
Ġrec tor
Ġg est
Ġsal do
z on
39 3
Ġan t
Ġmin ero
Ġne gras
Ġtan que
uev es
ĠBern ardo
Ġdar me
Ġvis cos
ĠL ea
M ON
a ti
Ġv ibr
ell er
ĠO cho
Ġpar ame
asp x
Ġaudi tiva
Ġpres ento
Ġcier tamente
ĠForm ato
Ġestudi Ã³
ĠcÃ¡ tedra
Ġdios es
CENTA JE
Ġti r
Ġci tadas
Ġcr uce
hos e
Ġayud arÃ¡
ĠEm ocional
Ġl enta
cur io
5 60
ĠH ERN
Ġma in
Ġevalu aron
3 80
Ġ3 19
ĠT AR
Es tad
Ġher idas
ĠBen ito
an cy
z ol
ĠEnsay os
pres encia
Ġreclam aciones
vi ese
Ġvesti r
onas terio
e fecto
ĠP acto
Ġdig no
ĠN IC
Ġaprob Ã³
ĠComun icaciones
Ġeviden tes
lu tense
s ld
Ġverda deros
Ġ Ãºl
35 6
Ġrode an
Ġfabric ante
ĠEE UU
Ġafin idad
Ġrecu ento
ĠNie to
Ġav anza
Ġagres or
Ġapun tan
encuent ran
Ġob viamente
ĠIgual dad
ĠSeg uro
ĠEnfer medades
Ġcuan tific
3 70
ir d
Ġin yecciÃ³n
Ġdej aron
ĠEstim aciÃ³n
EZ A
ĠG uevara
Ġ ciÃ³n
Ġcontrol ada
ER IC
Ġcorrob or
Ġir ri
33 7
Ã³ f
ĠM EC
ĠBOL ETÃįN
gÃ©n ero
Ġhom en
Ġna tivos
g ing
ĠÃ¡ g
Ġdepen dencias
ĠquirÃºrg ica
ĠBel trÃ¡n
Ġgr amos
d ul
qu ist
cri ben
ĠZapa ta
S ch
cent ro
adÃ¡ ver
cri tas
uev as
Ġconfigur ar
Ġrev esti
ĠB C
Ġten or
Ġpref ieren
ĠTrabaj os
ces iÃ³n
Ġen con
Ġ19 33
40 7
ĠC enso
ĠMon tero
ĠA RA
ĠMartin ez
Ġrecip ro
c ro
Ġo lor
Ġ3 22
br ia
w i
pa is
A pp
sigu iente
Ġfol io
ĠGru pos
fer ior
ell ido
vi olencia
ĠAc tivos
R ID
Ġal titud
L ic
Ġfoto volta
ĠCent er
ĠFr om
ĠdomÃ©s ticos
one idad
ĠF omento
Ġabar car
ĠvÃ¡l idos
poner se
ex isten
Ġinform Ã¡tico
Ã¼ e
ĠCu mplimiento
ĠImp erio
Ġproyec tar
35 4
Ġc c
Ġdepor tivos
ĠAstu rias
ĠB AL
Ġ30 9
conf ig
ur us
p t
ĠAl iment
Ġbon dad
Ãģ TICA
Ġmir adas
Ġincrement ado
de b
Ġemb al
pr ueba
mo do
ĠL M
Defin iciÃ³n
O s
Ġma tices
Ġau tÃ³
ĠJ im
v ide
Ġmo des
Ġsu av
ay or
pr omo
Ġconten idas
educ acion
tor e
Ġsub di
Ġinciden te
con cep
ĠCon ci
Ġcompar tidos
ĠR C
PARTAM ENTO
ĠADMINIS TRA
ion ista
ies en
Ġcens ura
Ġdistingu en
Constitu ciÃ³n
dr os
Ġconcl uyendo
Ġconci enti
Ġre defin
ĠDEDIC ATORIA
ma g
un tes
A F
ĠCarr illo
Ġampl ias
3 11
Ġrecom en
Ġsocio culturales
Ġg el
cons um
Ġp ala
Ġfil m
ĠCient ÃŃficas
ĠRE VIS
ĠH os
ĠDis tribu
Ġman d
Ġingles a
Ġileg ales
n r
ĠIg lesias
ĠEx pres
UR AS
ĠLuc as
Ġadministr aciones
ĠP ET
ESTI ON
ĠD NA
ĠCar riÃ³n
ĠpÃ¡r r
neg oci
ĠAs untos
Ġla tÃŃn
ÃŃcul um
Ġme lo
Ġemb arc
ĠIn tel
Ġpes ados
Ġgaran tice
Ġplan a
ĠWh ite
Ġencuest adas
Ġl on
ĠG AL
Ġb au
ĠacompaÃ± ar
la go
TOR A
que ta
Ġco oper
pro vin
Ġhistorio grafÃŃa
D ec
Ġc ro
ĠIn Ã©s
Ġconcl u
Ġllam Ã³
RI L
Ġunivers ales
50 1
Ġlevan tar
Ġacep tada
Ġdescon fianza
0 34
ĠS uelo
ĠAn ales
ĠMar ch
ando val
Ġtermin Ã³
al terna
Ġcaracter ÃŃsticos
Ġparticular idad
fic e
en dan
ĠRes pon
Ġ3 31
T al
Ġ4 80
G ER
ĠJOS Ãī
Ġmues tral
s istemas
Ġcompa tible
Ġesper ada
an di
Ġindem n
Ġ3 37
Ġobede ce
Ġdo taciÃ³n
Pre gun
Ġal ba
Ġextraordin ario
ĠPie dra
tro po
TEC ED
Ġviv imos
Ġsorp ren
ĠTer min
S us
aliz aron
Ġex ilio
Ġpar tic
B e
AP A
Ġto c
OR T
ĠBlo que
ĠN C
in ea
aliz adores
Ġdesenvol vimiento
Ġfacil idades
ENCI AL
OG RA
Ġs Ã³
Ġdirec tora
MED IO
ĠREC URSOS
Ġk nowledge
Ġint entan
Ġac tas
Ġsum erg
ĠPRE GUN
AN I
Ġn ÃŃ
ĠB is
Ġestable zca
ĠDie z
Ġa tras
40 2
Ġvari ados
c d
ĠHis pan
Ġdinam ismo
Ġmus ul
Ġpais ajes
ĠModer ado
Ġe h
ĠWilliam s
Ġn s
Ġper ro
Ġreal ista
Ġve ter
Ġfil a
ĠEffec ts
ĠPlante amiento
Ġbici cle
Ġpre coz
I ENTOS
ĠPla tÃ³n
Ġ3 17
Ġlim pia
Ġh ier
Ġal turas
Ġcu m
de ci
Ġm ulta
Ġch ange
Ġac h
Ġch arlas
tu l
Ġfij ado
Ġcar bo
ĠMen or
Ġcontes tar
Ġagu do
Ġperman entemente
ĠAn drade
f lores
3 12
ĠPach eco
G IN
as pectos
Ġexpres Ã³
Ġais lada
Ġcapaci tado
Ġatribu to
ĠDE N
Ġresul tantes
ĠN aran
Ġev asiÃ³n
ĠH un
Ġcre adas
ĠCIV IL
ĠEx pediente
Ġaus ente
tec er
Ġacerc arse
Ġdoctor ado
ĠOpin iÃ³n
ĠD ro
Ġse llo
Ġevidenci ado
Ġsu ya
ĠAP RO
Ġpreci sos
ĠK ir
adminis traciÃ³n
ĠTel Ã©fono
ĠClaudi a
Ġtrascen dental
Ġ3 44
Ġbach illerato
Ġlec ciones
Ġdiscurs iva
Ġaudi encias
Mo delo
Ġconfigur aciones
Ġcalific ado
ĠEU RO
m ercados
Ġpropagan da
Ġmejor ÃŃa
tan os
Ġcu esta
en ca
ac re
IL A
Ġinconven iente
ĠcÃ³n yuge
ell Ã³n
Ġpar amil
R u
ĠC ambios
ad ra
ĠL IM
ĠJosep h
r ida
ĠS Ãį
CI S
Ġreproduc tiva
il do
ĠConsider aciones
Ġtr amos
ĠLt da
v ich
te le
Estudi os
Ar gentina
50 4
ĠIn clusiÃ³n
Ġecuator iano
Ġos t
Ġpatr oci
dis min
ĠEn tidades
ĠNuev os
Ġvie ja
Ġlap so
Ġsatisfac toria
G as
Ġsup uso
ĠF ir
cor relaciÃ³n
Ġemis or
Ġconseg u
ĠCon forme
obje to
ĠEn tidad
Ġvie jos
ĠMan n
ĠSh ap
ĠI ca
omÃ©tr icos
ĠilÃŃci to
es paci
itar ismo
s olo
ĠM Pa
til eno
ĠU CI
ima gen
Ġcontinu as
Ġmir as
Ġproducir se
Ġenfrent arse
Ġcontribuy an
Ġdiv ino
on ados
Ġesp alda
Ġcotidi anidad
Ġh arÃ¡n
ĠL ucÃŃa
ester ol
Ġstr ess
g ico
ĠÃģ REA
Ġconstituy Ã³
ros a
Ġenfoc ada
ĠG av
Ġimag inar
v ina
ĠMar r
Ġapor tando
ĠlÃ¡ mina
ol l
Ġcir c
TON IO
Ġmedi ador
ph ys
Ġpi diÃ³
Ġdescu br
Ġla ment
ĠHur tado
Ġflu ores
Ãģ rea
ĠCON D
Ġba terÃŃa
ĠArgen tino
ĠIN E
Ġen m
Ġpro cura
s c
Ġcontrovers ias
a is
ĠR ivas
Ġvi i
ĠmÃ¡ ximas
IST ENCIA
Ġal erta
Ġreempla zo
nivel es
Ġapre h
ĠOB T
45 5
il as
Ġce pa
Ġen can
ACI DAD
Ã©r ida
tiz adas
ĠIn versiones
Ġactu alizar
Ġmetho d
Ġcoinci dencia
Ġfinanci ar
Ġdev oluciÃ³n
Ġs te
ĠC AD
Ġay ude
E je
ĠP ala
ĠID ENTI
Ġfeminis tas
Ġreper torio
ven a
os amente
Ġcop ias
Ġre mitir
Ġ uma
ĠPÃº blicos
Ġ3 24
Ġa o
Ġtang ibles
Ġher ida
Ġvas cular
Ġsul f
Ġimp iden
ĠautÃ©n tica
35 9
Ġpar Ã¡s
Ġil usiÃ³n
Ġcometi dos
duci endo
Ã©c tor
ĠTac na
Ġarte factos
cios o
ob le
Ġres istente
cap ital
res ultado
Ġqu ando
C ri
ĠMej orar
ĠlegÃŃ timo
40 50
Ġtu tores
ĠCe cilia
cre aciÃ³n
ĠI sa
ĠRespons able
g los
Ġh ip
Ġgas tro
ci clo
Ġespon tÃ¡nea
ĠJ r
udi ca
Ġcir cun
ĠDoctor ado
leg al
Ġ3 36
de ber
di cidad
9 78
Ġb eca
Ġexplica tivo
con texto
ĠPropie dades
ĠSar miento
ĠEs trada
Ġter ci
Ġs tructure
ĠHo tel
Ġh un
Ġgra f
Ġobsta cul
anti zar
Ġar en
r ientes
ĠPh ilos
oro este
Ġreac tivos
b logs
ĠC en
Ġprogen itores
ĠL am
cis a
Ġpe dago
Ġclin ical
Ġfil iaciÃ³n
ĠAc tivo
C ur
vers al
Ġentr Ã³
lan co
Ġm M
Ġrevis iones
Ġta ble
tom os
sci ence
Ġ19 47
Ġdon aciÃ³n
Ġan tis
ĠLa guna
coc cus
ĠProce edings
ĠSan t
Ġalea torio
Ġconta bil
ĠAr ri
Ġec olÃ³gicos
Ġv uelo
Ġ3 18
nl m
Ġfis calizaciÃ³n
ĠP amplona
Ġbi ologÃŃa
man d
ĠTABL AS
Ġhegem onÃŃa
in arias
Ġa ga
Ġ19 34
Ġconcre tar
ach ers
Ġcontrol a
Ġwh en
ĠS tra
Ġ35 1
Ġconfin amiento
ĠÃ¡r abe
S ABILIDAD
Ġn om
Ġbol sas
Ġasegur ando
Ġ30 6
Ġimp rim
Ġmodific ada
fic aciones
Ġin n
Ġmos t
U no
ĠF oro
Ġimpu tado
Ġrecor rer
Ġtrans cripciÃ³n
econÃ³m icas
D T
ĠBour dieu
ĠREG ULAR
Ġexp uls
Ġent err
45 8
Ġescolar idad
Ġespecific ar
Ġdic tado
Ġdetermin ando
Ġad yac
Ġexclu idos
ĠA genda
ĠMÃŃn imo
l abora
Ġpre escolar
33 2
mo g
p g
ti cio
Ġdis tors
Ġv imos
Ġmes as
Ġ19 35
z amos
ĠAp plica
Ġagra v
ĠCompr ensiÃ³n
il ado
Ġal as
Ġdif iere
Ġvein ti
Ġmone das
Ġcu id
ĠCre ar
s iones
Ġab as
Ġn in
ĠP ine
Ġten ia
ĠLan guage
ill s
ue da
Ġd aban
ĠS ir
Ġsug iri
ĠBar tol
Ġdescub ierto
Ġpre ponder
Ġcons ens
Ġindispens ables
Ġfor ra
doc entes
Ġmatr ÃŃcula
34 8
per ten
de cisiones
ĠH egel
40 6
ĠPer mite
Ã± al
ĠADMINISTR ACIÃĵN
Ġemi tido
Ã© lica
ho p
ĠMATERI AL
p ace
Ġcalcul Ã³
ĠCon t
Ġpo wer
Ġ4 20
Ġp seudo
c ambios
Ġconsum en
Ġco te
Ġre tra
ĠUN AM
I b
Ġace ites
ĠAlex ander
Ġsu bl
A y
ire mos
pa g
ik a
Ġvacun aciÃ³n
Ġjus ti
vi tud
Ġinter rupciÃ³n
Ġtari fas
ĠBos que
ent ada
c ero
EC TOS
P ublic
fin al
Ġimp erativo
ac tual
ĠG arr
Ġabus os
ĠHer edia
Ġal m
Ġfron ter
man as
Ãį O
co digo
CON S
Ġhues os
ĠH igh
Ġrecu perado
o u
Ġred und
ĠRom Ã¡n
Ġinm obili
f ÃŃsica
Ġreca e
Ġs ierra
Ġsuper an
s ing
de ben
Ġdesapar ecer
N OS
40 3
ĠBel Ã©n
ĠB M
Cons ider
f ores
Ġrealizar Ã¡n
ĠF ARC
T emp
Ġabund antes
din Ã¡mica
Ġpre dio
En tonces
ĠD Ã³nde
ĠDic hos
ĠPas tor
pa to
Ġt orm
Ġresid uo
Ġmas ivo
Ġom i
Ġ30 8
Ġponder aciÃ³n
in king
Ġcomple tas
ĠR P
po p
Ġsan ta
T ex
ĠPlan es
ĠD OS
ti me
hum an
S iempre
Ġ ??
ĠperiÃ³ dica
Con clusiones
Ten iendo
ĠMUES TRA
ĠM isiÃ³n
Ġparti das
ĠÃģ r
ĠI mÃ¡genes
ĠPedag Ã³gica
Q L
Ġcomp l
Ġcelebr ar
TECED ENTES
36 8
on y
Ã³ mi
Ġinoc encia
Ġ3 000
ĠTara poto
ĠChar les
al ez
Ġinter sec
ĠBi ol
Ġte ologÃŃa
Ġalquil er
ĠT Ã©r
Ġsospec ha
c amente
Ġ ill
Ġinform ativa
Ġdeci den
Ġcr uel
ĠCon trato
ver y
ĠD IG
la zar
Ġ3 70
Ġde vo
Ġg estiones
Ġhistori adores
ĠSer ies
R ep
ĠC Ãĵ
Ġg entes
ĠGR AN
c ÃŃ
por tal
ĠA ula
ĠM ala
Ġ20 25
Ġca za
ĠS y
Ġde fec
s ens
Ġapropi adas
Ġlogr en
us ser
ĠCon tras
l Ã³gica
Ġauten ticidad
ĠPRIN CIP
Ġre medio
tor ado
Ġan ualmente
Ġre ma
Ġid oneidad
Ġapropi ados
ar n
ĠJ ard
99 5
4 80
v aciones
T h
Ġinv esti
f ul
ĠHum ana
ĠPan americana
ĠDe manda
Ġprofun dos
e h
Ġhab rÃŃan
Ġproporcion ada
res puesta
ĠAb s
ĠPas cual
Ġre dujo
Ġacel eraciÃ³n
Ġform ulado
ĠS trateg
des empeÃ±o
p uerto
Ġpo zo
m era
Ġch icas
Ġf eno
Ġcol ap
Ġviol enta
g y
50 6
Ġorganiz an
res earch
op hy
ta ta
tain able
ĠI o
b ular
Ġacus aciÃ³n
ĠG loria
ĠPa ti
Ġsu ficiencia
Ġcon tado
Ġadul tas
re fer
ren a
Ġsum ado
ĠCon junto
N N
Ġofreci do
ĠM AC
Ġjur ado
ĠS imon
ĠantibiÃ³ ticos
e gr
Ġa ritm
Par ticip
Ġprivileg io
iz adores
Ġemer gen
Gr Ã¡fica
Ġfun ction
Ġexten dido
Ġenc err
ĠF ON
tar y
ĠDes cribir
ĠEsper anza
Ã³l isis
ri f
esc ala
Ġasum ido
A g
ĠS oy
k m
an cio
ara y
Ġ19 32
Ġalter n
alu pe
Ġ3 27
ĠCon temporÃ¡n
b ado
r aciÃ³n
ĠP apa
Ġvis tos
ĠTF G
im ilitud
Ġhaci enda
un ya
ĠP ierre
Ġcaus ante
CL AR
Ġinnov ador
38 5
Ġsust entan
omor f
Ġartic ulo
Ġdes ech
3 30
ĠCom pos
Ġop ina
ari Ã±o
Ġcomprome ter
38 8
Ġcontra posiciÃ³n
ĠAnd re
Ġperfec ciÃ³n
F recuencia
P EN
l Ã³gico
Ġfor tuna
Ġdelim itar
ĠEstratÃ©g ico
ĠLU IS
Ġre za
ĠSegu imiento
Ġm ÃŃo
Ġdig es
ĠmÃºs culo
ĠC ase
IV O
Ġelectr ones
Ġfal l
Ġpob lado
0000 0000
Ġnatur almente
ĠK le
ĠFIC HA
Ġsatisf ace
Ġvincul ar
37 6
Ġju gue
V AS
ĠUN LP
ĠPe que
Ġabs tracciÃ³n
BI BLIO
Ġan Ã¡lo
Ġ29 6
34 6
le tes
Ġf ich
Ġre estructuraciÃ³n
Ġrepor tados
ill ante
Ġad u
Ġaproxim aciones
Ġalco h
Pro ble
Ġdese quilibrio
Ġpop ul
ĠH OR
nc bi
Ġsol os
Ġin co
ĠBar re
Ġassoci ated
eg ro
Ġorient an
pro gramas
Ġjuz g
pti ma
leg is
Ġcu ri
igr ama
EG A
ĠMa teo
Ġafili ados
ĠD F
ĠJ ack
Ġalmacen ar
Ġpatr iar
Ġrendi ciÃ³n
ĠModer na
ent ados
ĠprÃ³ ximas
37 4
Ġc adÃ¡ver
entes co
ĠimplÃŃci ta
Ġflu idez
Ġestu viera
ĠVal di
Ġr Ãº
ijo te
Ġci s
ID E
esta blecer
Ġcompe tir
ĠW hats
ĠE van
fundam ental
Ġsuces ivas
Ġqu itar
Ġcub iertas
Ġinstal ar
33 1
Ġequi tativa
Ġcal zado
norm as
Ġcom idas
P OL
L AD
Un idad
Ġalum nas
:: ::
G Ã³mez
Ġlo gar
tr icia
ĠPaÃŃs es
ĠPro f
Ġotor gan
QU I
3 13
Ġtra tadas
m n
ĠQual ity
Ġsu man
ĠC ED
IT U
Ġsitu ados
Ġbru to
ĠWa ter
Ġinv oc
or rag
Ġla tina
institu ciÃ³n
Ġconec ta
Com p
ĠO br
Ġimplement adas
Ġseg mentaciÃ³n
ĠB eneficios
d ona
ll ll
35 8
Ġc n
Ġdesign aciÃ³n
ts ky
Ġbas Ã³
ĠplÃ¡s ticos
Ġconce de
top ÃŃa
Ġ3 29
Ġevalu ada
ĠCONS TITU
Ġconcur rencia
ut ledge
D U
ĠlÃº dicas
as ia
de fault
Ġsub ordinaciÃ³n
ĠAU TO
Ġ3 49
ĠO este
ĠO ut
ĠAgr icul
G er
Ġc le
123456 789
corpor aciÃ³n
Ġin Ãº
Ġf ri
Ġautor regulaciÃ³n
Ġcomple tos
40 9
44 6
ĠTitu laciÃ³n
Ġjuz gado
tin amente
ĠTe ma
plan o
Ġmanip ul
Ġ35 5
Ġalar ma
39 5
ĠDia z
Ġhidro carburos
ĠJo an
Ġrespira toria
cons ecuencia
ĠSil via
Ġgener alizado
ĠP adres
ĠA SO
Ġaloj amiento
AN DA
Ġmetabol ismo
Ġver bos
OLU CIÃĵN
aj en
princip ales
Ġsurg ieron
38 4
pot encia
Ex isten
Ġculmin ar
ĠPres encia
vi ales
TER NA
Ġprim avera
0 45
w ord
Ġdetal lar
ĠV ers
Ġinflam aciÃ³n
ÃįST ICAS
Ġl ip
ĠCa tegorÃŃas
go via
T ec
Ġclim Ã¡ticas
ĠlÃ© x
Ġe pi
Ġocas ionar
teri as
om Ã¡tica
Ġk ilo
ĠE va
ĠseÃ±al adas
ĠINDUS TRI
ĠhÃ©ro e
ĠD T
Ġanci anos
ur ada
ĠJu Ã¡rez
Ġdifer enciales
Ġdestac ados
ĠInter Ã©s
Ġsobreviv ir
ĠCOMP ET
Ã¡c ticos
ĠEffec t
C ada
amp ieri
O PER
OLÃĵG ICO
Ġagres iones
Ġpres cin
ĠVil lanueva
docu ment
Ġacord ado
ĠAG U
el las
Ġquis iera
ĠLABOR AL
Ġestrel las
Ġof rez
F u
ĠOc ta
Ġclasific an
Ġw orld
M EN
qui ta
tu ando
ĠLi fe
Ġca vidad
Ġencar gadas
ĠH R
Ġcar dÃŃ
ĠepÃŃ gra
Ġmor tal
izar ra
Ġmeta bÃ³
Ġw ho
Ġexis tiÃ³
TEG OR
Ġor iente
Ġt Ãºn
en seÃ±anza
ĠCan cer
tr ando
Ġn ulo
Ġfin alizaciÃ³n
Ġinf or
Ġu t
ist s
uel ven
Ġa gen
ge la
tor ce
Ġinfin ita
ĠS EN
Ġ34 1
Ġ19 28
ĠPar ece
Ġprop icia
ĠI tal
ĠV AN
ĠBr un
or th
Me todo
19 91
ien zo
Ġjub ilaciÃ³n
Ġsta te
Ġ5 50
ĠMo d
relacion ados
DO I
ĠfÃ¡ bricas
Ġ3 32
To do
Ġmaes tras
Ġamb igu
ĠD ÃįA
Ġemb aj
ĠLeon ardo
ĠGobern ador
In dic
Ġj esu
ĠAy ala
Ġs anto
Ġba ile
ĠMan izales
Ġrepos o
Ġap res
Ġsuce der
ĠM IC
Ġus ual
ES CUELA
ĠAl imentos
Ġfie bre
ĠEN CU
Ġjud ÃŃos
Ġad sorciÃ³n
A gra
Ġintermedi os
ĠSAN TA
ĠSeg uros
37 7
Ġmedicam ento
ocup aciÃ³n
olog ies
Ġexplora torio
o tra
ĠDes viaciÃ³n
ci so
ĠESPE CI
Ġmejor an
ĠDo Ã±a
Ġjurispruden cial
Ġperifer ia
Ġasign adas
Ġ36 1
ti go
Ġadicional mente
uc r
ĠDocu mentaciÃ³n
Ġcel das
Ġobserv ador
Ġp Ã©
Ġse d
ĠGuadal ajara
elec tr
ri or
Ġcorrec tas
ĠPr ensa
ĠL OG
T AN
Ġent end
Ġlig adas
ĠH uesca
ins t
Ġgr as
Ġviol entos
Ġperman ecen
Ġig lesias
Ġmanus crito
direc ciÃ³n
H u
reg iÃ³n
Ġprivileg ios
ĠEntrevis tado
Ġhab lado
vin os
Ġtum ores
ad y
ĠGab riela
Ġale mana
Ġca te
34 1
Ġcap illa
Ġvic tim
ĠInspec ciÃ³n
ĠN ombres
Ġho teles
ĠVill al
Ġhid ra
Ġcon du
Ġin tes
m eros
Ġsig a
ĠÃģngel es
ÃŃs ter
Ġpl u
en ario
39 4
Ġcorte za
our ce
Ġimp i
pu bl
Ġcons onancia
Ã¡n tica
Ġinters ecciÃ³n
inter pretaciÃ³n
Ġcarb on
e jas
OS O
Ġintro ducido
ĠhomogÃ©n ea
C AM
i adas
ĠInde pendiente
ter m
34 9
ho od
Ġestim ada
Ġbal anza
Ġsa grado
adol esc
Ġcumpl iÃ³
ĠTribu tario
ector al
ĠAPL ICACIÃĵN
Ġacum ulada
ĠANO VA
ar rea
Ġest re
Ġcomb inar
ĠS un
j Ã³
lig ence
Ġdiferenci an
Ġcerr adas
dis tas
F P
Ġcontra taciones
ĠDe leg
th es
Ġsobre pas
ĠMa ta
Ġp m
Ġarren damiento
ĠN ominal
den omin
pos ibilidad
Ġpres tado
Ġencontr ada
ĠM IG
ĠCom posiciÃ³n
ĠVil le
ĠHIS TORIA
ir os
Ġpri vaciÃ³n
Ġmexic anos
Ġlig era
es an
ÃŃl ico
Ġimp uestas
38 6
Ġoportun amente
3 25
ĠC IC
Ġconform ar
Ġen mar
ĠZ n
ĠÃ³ se
ĠT EA
36 9
ĠPar ro
Ġselec ciona
organ izaciones
Ġabs ur
tin i
Ġpres tan
ĠJ unto
R U
ĠÎ ©
l r
ĠJ M
Ġtermin ologÃŃa
Recu perado
jec ts
ob ra
Ġsol ares
Ġma p
Ġases inato
ĠÃŃ dem
les cent
ren den
u u
Ġproteg idos
Ġameric ana
Ġtom en
ĠSer Ã¡
pr int
ĠY an
plic aciones
Ġfu ga
ce der
Ġp icos
j ados
b ora
Ġin cip
Ġvo taciÃ³n
Ġo ur
Ġespec tadores
Ġpod remos
ĠO la
ciden tes
Ġev angel
trac t
l aciones
um Ã¡n
ĠMarg arita
Ġe mite
Ġactu ando
ĠEn contr
ĠWil son
ĠDIMENS IONES
Ġv n
Ġajus tado
39 8
70 1
ĠSex ual
Ġ19 43
col or
60 5
Ġreflej ada
s ar
Ġascen dente
Ġresul taron
Ġtron co
ĠsistÃ©m ica
P ue
Ġregul ador
ĠZam brano
Ġlat ente
ĠComp lutense
ĠPR ÃģCT
Ġb log
ĠS ent
Ġin el
ĠCu antita
ĠAgr aria
Ġres table
ar ez
vi des
ĠLey es
Obje tivos
Ġetique ta
Ġneces itar
Ġplan tilla
Ġempa que
IP OS
le ge
Ġpros tituciÃ³n
Ġpre fi
ce do
Ġpart ÃŃcula
Ġaprob ar
Com er
ĠM oral
Ġfor o
ĠS k
Ġautor izado
Ġtuber ÃŃas
ĠX L
ĠTerri torio
Ġintelig entes
Ġpresent aciones
Ġmedio ambiental
Ġano tar
Ġon ly
ĠE CU
Ġmaxim izar
Su per
Ġentr amado
Ġob tain
Ġarm ada
3 19
Ġestric ta
dir se
n ol
Ġhomen aje
tt on
Ġe ach
s ido
3 18
ec ulares
ĠEliz abeth
ci ano
Ġexcl uye
ĠFerr er
Ġac lara
ĠRec or
je tos
Ġlimit ados
Ġarcil la
ton ÃŃa
w an
el f
irÃ¡mi de
Ġdomin go
ĠESTUDI ANTES
Ġremo to
Ġdo y
Ġcomprendi da
econ omÃŃa
Ġrit mos
44 8
Ġhub iere
ĠQu ijote
is es
determin ar
Ġdi jeron
pec tive
ĠTe Ã³rico
Ġcomprome tido
T ube
Ġcon greso
ĠJ O
ĠP IN
0 75
Ġmen ester
ĠSEC TOR
Ġpeti ciones
Ġliber alismo
Ġextraordin aria
Ġcho que
ĠPlan t
qu ien
ĠCuar ta
ĠAST M
ĠH P
60 6
Ġcaus ados
no ticias
Ġab r
Ġn ube
ĠMonto ya
ĠZ a
por ta
Ġafec tos
Ġinver nadero
ĠQuis pe
Y T
000 4
Ġment alidad
re alidad
ĠCor uÃ±a
Ġaprovech ando
for as
ĠINFORM E
Ġaten didas
Ġ19 44
Ġfal encias
ĠGR UPO
Ġgener aron
ĠCons um
Ġrepor tan
Ġalgo dÃ³n
5 50
ĠLog ro
Ġidentific ada
ĠdiseÃ± adas
G o
ĠR ap
Ġe cl
ĠT esti
ĠDip u
r in
ĠRe alidad
Ġneu rol
mi ra
on to
Ġpun tu
ĠFinanci ero
Ġcerr ados
Ġsol em
Ġins tin
Ġhom ogeneidad
om edi
ara z
Ġemer ge
ĠCh ild
Ġchil ena
Ġc Ã©n
t adoras
Ġvan guardia
Ġdirig en
pr Ã¡cticas
Ġcompr ador
ĠPublic aciÃ³n
Ġdenomin adas
V ENCIÃĵN
Ġocul ta
Ġdepor tistas
Ġsegu idos
topa xi
Ġrecur re
s ecre
for t
Ġform almente
3 14
w is
ie ta
ĠQu iro
Ġincorpor ando
ma go
L AM
D H
us h
PL AN
Ġchil eno
j ol
ĠN utriciÃ³n
Car los
ĠC eb
Ġindividu almente
Ġl unes
tt s
ĠUsu ario
38 9
Ġfor os
Ġen dÃ³
ĠM OL
ici dios
ĠIs las
ĠArro yo
Ġmetho ds
Ġrecur rentes
Ġprelim inares
Ġhab itar
fun cional
ho to
ĠAb ad
Ġb ÃŃ
enti smo
Ġco adyu
th or
Ġme d
tr in
Ġarch iv
Ġllen ar
ĠempÃŃr icos
ĠA jus
0 26
G e
Ġentrevis tadas
par ar
temp oral
Ġalimenti cios
n ados
ĠPrincip al
TE MS
10 80
neces idad
ce mos
ĠsÃŃn toma
Ġnecesita mos
Î ©
el ia
Ġser lo
Ġinnov adora
Ġ3 26
Ġin genieros
Ġvac una
Ġcon glomer
ex presiÃ³n
ĠdomÃ©s ticas
Ġmin eros
ĠDEFIN ICIÃĵN
Ġg all
PUES TO
Ġen ca
Ġ34 3
Ġemi tidos
ĠRob les
ĠDoc encia
Ġrepresenta tivas
Ġdic cionario
Ġalmac enes
BA JO
seÃ± al
Ġtabl ero
Ġfal sos
ĠT in
Ġcomprendi dos
ĠPre ven
Ġreal ismo
Ġb ack
ĠA du
princip io
Ġbrind ando
Ġlo tes
ĠDes ta
ibil ity
IC ET
Ġcomprob ado
Ġadqui riendo
Ġpublic adas
Ġequival encia
CH O
ĠB E
ier ras
iel d
Ġimp utaciÃ³n
ĠW all
ĠIn cl
ĠEx presiÃ³n
Ġla zo
Ġagrup aciones
Ġexis tido
Ġarra ig
Ġh orno
imp lementaciÃ³n
ĠM B
Ġg lor
ĠMon e
Ġse ll
Ġpec ado
ĠU TIL
ĠEn do
reg ado
zob ispo
Direc ciÃ³n
Ġvesti do
ita tion
Ġm obiliario
ĠIn m
C EL
di um
Ġf ur
Ġco tizaciÃ³n
Ġa dicciÃ³n
Ġemerg encias
crim inaciÃ³n
ĠI ll
Z AR
3 15
Ã¡n uco
Ġmg kg
ĠPap el
Ġrom pe
80 4
ch ura
Ġprotec tor
p ina
ĠautÃ³n omas
Ġrealiz o
ĠS UM
Dis ponible
Ġcampes ina
ĠIn cluye
ĠRIES GO
Ġsent ÃŃa
ĠM IL
Ġcampes inas
ĠplÃ¡s tica
Ġdorm ir
Ġvac aciones
Ġconce bido
ÃĵM EZ
Ġde x
Ġconstr uyÃ³
Ġprocur ar
tis h
ĠPon ce
ac r
Ġemple aron
Ġbanc ario
ni Ã±os
ĠsocioeconÃ³m icos
ĠN et
m ante
Ġincomple ta
ul um
ĠV elocidad
ĠC d
Ġpr ena
Ġ19 25
Ġtempor alidad
Ġven gan
Determin ar
Ġinvoluc rar
h erramientas
Ġ4 10
Ġmin orÃŃa
Ġart ÃŃsticos
Ã¡ cidos
Ġex Ã³
Ġpier nas
Ġl and
Ġdismin u
ĠConserv aciÃ³n
ti era
Ġt Ã©
Ġa dentro
Ġinquie tud
ĠAd van
Ġsemej anza
ĠIs idro
ÃŃm ac
e te
ĠN u
Ġllev ados
ĠYo ung
Ġman dar
TUR AL
Ġexpres ados
ĠacompaÃ± an
ĠPue den
ĠINTERN ACIONAL
Ġter m
er na
Ġbre ves
Ġsin ies
Ġsustan tivo
Ġseman al
Ġx vi
ĠCo topaxi
ĠAu tonomÃŃa
Ġpla gas
Ġcualita tivas
R M
Ġesper aba
a ting
: ;
Ġinternacional izaciÃ³n
35 1
id ora
c Ã³mo
ĠF an
dos o
ĠEDUCA TIVA
Ġconstru idas
Ġconce b
ĠPo tencia
con ven
ĠCatal ina
Ġpade cer
Ġcaus an
ĠcontemporÃ¡n eas
48 5
der ÃŃas
Ġcre aron
ĠT eo
Ġs tar
ĠA dam
ĠF om
3 90
Ġrecib idos
Ġocup aciones
Ġmater no
quÃŃm icas
Ġn ub
ide mia
ĠCOMUN ICACIÃĵN
ĠCir cuito
t omo
ĠÃ©tn ica
ĠC ala
Ġhermen Ã©utica
Ġenvi ado
45 7
ĠMAR ÃįA
Ġorganiz ativa
Ġecuator iana
Ġrelaj aciÃ³n
Ġbo th
Ġimp reg
Ġdecre tos
ĠP AG
Ġba ilar
org pdf
Es tados
H um
4 10
ĠEl im
Ġc edi
C UL
Ã¡ u
ĠM ix
Ġpres idencial
Ġadap taciones
70 5
ĠIN EI
duci dos
Ġcastel lana
Ġbios eguridad
ĠIb arra
60 7
Ġimpres a
Ġl ana
ĠPers pectivas
igni fic
Ġcuestion amiento
Ġ3 90
Ġinv ari
36 7
ĠS AP
Ġsatisfac torio
ĠSab er
Ġw omen
Ġllen ado
Ġen e
ĠS yn
Ġpedi Ã¡
Ġin al
Ġsu presiÃ³n
Ġprofes iones
Ġinsul ina
Ġkg m
Ġp eople
ĠseÃ±al aron
Ġ3 38
Ġre afirm
exper imental
ĠP ino
Ġtrag edia
Ġproce den
es pacios
tic ar
gu ardo
50 2
compet encias
ĠM oy
paci entes
Ġfavoreci endo
gener aciÃ³n
Ġtribu to
Ġporcent uales
ĠEs cu
ĠAp ellidos
con fianza
3 16
ien se
Ġpres iden
Ġestabil izaciÃ³n
Ġextrem adamente
Ġpar adÃ³j
et c
Ġres tituciÃ³n
ier s
Ġcin ta
ĠFre ire
c eno
ĠS peci
ĠU p
Ġinconstitucional idad
Ġpin tor
Ġmul tiv
35 7
Ġsa tis
Ġdesfavor able
Ġconsigu iÃ³
Ġ3 67
Ġsit Ãºan
Ġrent able
doc ente
Ġvig il
R ed
ac or
Ġtemp ranas
h ia
ĠC IR
rac y
ĠCal ificaciÃ³n
M al
fundam entales
Ġacre edor
20 25
Ġimpor tant
pec tivamente
34 7
Ġr ara
ĠCon cre
Ġcambi Ã³
Ġv iernes
ĠM iller
ĠRES ID
3 23
ĠAs es
inter venciÃ³n
Jun io
Ġ38 5
Ġcul ture
ĠRESPON SABILIDAD
Ġcre ativas
ĠP las
Ġ3 69
Ġpas ada
Ġimpar tir
Ġevidente mente
Ġexcl uir
ĠV ac
ICI AL
ĠK u
Ġrecal car
Ġpas ados
Ġdesa fi
Ġsin tomatologÃŃa
Ġmetaf ÃŃsica
de h
Ġintencional idad
35 2
tt y
49 5
Ġdivers o
Ġcontinu Ã³
ĠOrgan izaciones
Ġaisl adas
Ġavent ura
Ġa ur
Ġestad ios
Ġro tura
igu re
Ġosci la
ĠT ob
ĠM inas
Ġreci nto
zar o
oro v
ĠMem orias
Ġconf l
Ġmo triz
ĠDiag nos
ĠINTE GR
ist Ã¡n
Ġcontex tual
ĠCh ac
Ġtu vieran
g na
ea t
ĠV arios
ĠGener almente
Ġep istÃ©m
45 4
66 6
ti ta
ĠB omb
ival ente
Ġtari fa
Ġmol esti
ĠDe dica
Ġpre ver
Ġre ti
Ġen vÃŃa
ĠL ÃįNEA
Ġes cl
Ġqued aba
ĠT es
ĠInf l
alum nos
im estre
Ġaj enas
Ġanticuer pos
Ġs anos
Ġincur rir
Ġnum Ã©rico
ĠOr igen
Ġaprob ados
ĠmetÃ¡ licos
Ġanticon cep
ĠDis eÃ±ar
el ecciÃ³n
65 9
portun idad
Ġ19 14
Ġpa gan
78 3
Ġun en
Ġcrim inales
Ġcomprome tidos
ĠH Ã©ctor
qu io
E d
h abilidades
determin ado
60 4
Ġla min
PAR A
N D
Ġ, .
Ġpref iere
Ġhorizon tales
Ġ4 05
Ġhard ware
ĠIs s
pro fun
Ġhig iÃ©n
ĠA riel
Ġl it
Ecu ador
C ua
Ġsu puesta
EM PRE
B IO
Ġmin istros
V ES
60 8
Ġdev olver
Ġanal ogÃŃa
Ġcon tun
Ã©n ica
ĠAcep tado
ÃŃ ÃŃ
Ġsangu ÃŃn
su re
uc k
Ġcri tica
3 22
ĠS andoval
ĠAN TECEDENTES
ĠEs pacios
ĠS W
Ġcompar ada
Ġdisc ÃŃp
G ar
di fer
derstan ding
truc tural
Ġesp ir
Ġestablecer se
Ġ19 12
Ġc aj
Ġmun diales
im Ã¡tico
Ġm iden
ĠAr g
Ġextrac tos
Ġintent ado
D IA
Ġrey es
Ġreflex ion
Ġeleg ida
re flex
Ġ12 00
80 5
Ġpredis posiciÃ³n
ĠDur Ã¡n
Ġemple adores
Ġx i
pres u
Ġmi el
38 7
Ġdesvi aciones
Ġsocial ista
Ġmill Ã³n
ec he
Ġdese able
Ġdic tan
Ġsedi mentos
Ġcorrec tivas
ĠDis curso
ĠfÃŃs icamente
glob ina
Ġmu riÃ³
Ġauto bio
h ombre
Ġprecip itaciones
OSP ITAL
39 7
ĠLabor ales
educ ativo
Ġcier ra
Ġvolunt ariamente
Ġconfi ables
iemb ro
ĠN ÃļM
ĠAnder son
d ac
pe o
Ġw o
Ġhis to
ĠRe porte
ĠC IN
60 1
Ã©tr icos
Ġre ins
princip al
ĠCam acho
Ġrecom pens
ĠP Ã¡r
Ġsustent abilidad
Ġdese ada
ĠEnfer medad
c tional
Ġvig as
Ġrequier an
Ġun iones
Ġra tific
Ġotorg amiento
Ġdesvent aja
al los
ab ili
Ġinici aciÃ³n
Ġ, ,
Ġconstruc tivo
re go
Ġedi toriales
Ġmel an
Ġautom Ã¡ticamente
Ã©rcol es
ĠEJ ECU
Ġca udales
as en
39 6
Ã³l idos
compet encia
Ġecu a
tr ies
ĠE ficacia
ĠPERS ONAL
Ġpas ta
P an
Ġab riÃ³
3 24
ĠS EX
sol ici
Ġaser tiva
ĠDE CLAR
e fectos
ti cismo
ĠRo utledge
cons truc
Ġpre mios
Ġcor e
Ġpop ulation
ĠGRÃģ FICO
par to
ĠV ideo
Ġin min
ĠSan cho
eci do
ĠBach illerato
P AS
ta xis
Ġsos tuvo
Ġcaus ada
Ġtom arÃ¡
R am
ĠS ud
Ġembara zadas
Ġcomput acional
ries go
Ġcons isten
ĠSu dam
Ġas iento
b ul
ĠN eo
Ã¡n eo
Ġv ientos
cin oma
al co
vir tual
Ġc ables
igual dad
Ġes f
Ġad hes
Ġcoloc ado
ĠP ed
ĠMEM ORIA
ĠCon ceptos
cendi do
Ġdicta men
Ã¡m icos
Ġcabal los
ĠP ir
Ġcoordin ador
ech an
Ġfor z
Ġen ju
UR OS
s ul
Ġelectr om
Ġpro hÃŃ
Ġsuger ir
z y
ĠNa ture
Cas i
ED O
b ienes
Ġimp uesta
Ġafec tivos
Ġpac ÃŃfica
ac tivas
ĠClas s
ĠW o
ĠA Ãºn
Ġdisc ern
un os
Ġn acen
ĠPER U
ĠT her
N unca
ĠS oluciÃ³n
Ġ34 7
Ġ3 48
Ġvende dor
Ġdes truir
Adminis traciÃ³n
ĠHo ja
Ġfr ustr
ĠL ore
Ġemprende dores
Ġhipo tec
Ġemb ri
Mun icip
Ġab ur
ĠT Ãº
ĠPro tec
ĠdifÃŃcil mente
per cepciÃ³n
TU RAS
Ġerr adic
Ġde je
Ã© fonos
u tos
di era
al gunas
Ġor dinal
Ġop tÃ³
Ġsel va
vil le
Ġar bitral
l adas
Ġenfrent amiento
Ġtra tada
Ġrefer encial
Ġdetec tado
Ġ19 27
ĠN el
ĠPar tes
Der echo
ĠDe v
Ġru tinas
Ġth ree
in ero
il era
Ġobten emos
ĠF lex
qu Ã©n
Ġderi var
ild ing
Ġsub raya
ĠINTER PRE
Ġconci erne
Ġtrans f
ĠS tar
ĠSe m
ĠREL ACIÃĵN
ĠAutor idad
ts on
ĠTor o
Ġofreci dos
ĠJane iro
Ġadquir ida
ill ero
igu en
Ġcompr ueba
Ġconec tados
Ġfr ÃŃa
p obl
Ġcomprome te
Ġintegr ales
ĠE TA
ĠP ACI
ĠAplic able
s elec
me ta
Ġte or
Ġtor na
ĠVal dÃ©s
Ġfigur an
Ġaf fec
EN E
Ġmor tero
Ġprom esa
AN CA
RE L
ĠT P
Ġescla vitud
dim ensiones
ĠCom Ãºn
39 9
Ġimplement a
Ġdivi dida
Ġtrip le
Ġin como
Ġpade cen
Ġingres a
Ġjuven iles
desarrol lar
Ġcuen cas
Ġdes truc
ĠVAL LE
ĠÃ³pti mas
ÃįST ICO
Ġlec to
tribu ciones
vis or
Ġm ina
tecn ia
Ġ40 1
Ġcomple x
Ġmi tigaciÃ³n
sa tisfacciÃ³n
tar es
ĠInf ancia
Ġv v
ĠBel las
erg ia
r ando
Ġvende dores
Ġcog nosci
His toria
ue ta
Ġverti ente
ĠTe orÃŃas
Ġper dÃ³n
ĠRecur so
Ġsignific ar
ach i
ĠhÃºme do
Ġreclam aciÃ³n
Ġw hat
te mas
ĠPoli tical
Ġsin cer
ĠK ing
Ġvul nera
th an
to Ã±o
Ġclasific ados
Ġconcu erda
Ġel ige
Ġas sessment
se par
Ġinterna tional
ĠHar vard
ĠD ANE
Ġal ien
50 3
pec ciÃ³n
ina tion
aj ar
Ġres istir
Ġalcan zaron
l lam
Ġvin os
ĠSur g
tar Ã¡n
Ġsust entar
ĠAl icia
Ġ.... ...
ave dra
gÃ¼ enza
in fo
ĠAl ber
p li
un am
ĠH ora
ĠP il
ĠP G
ĠM UJ
b on
Ġindic ada
gen as
tiz ando
Ġj ul
Ġdif e
Ġcuidad or
Ġ35 3
ID ER
ĠPar t
Ġllev arse
10 15
ko v
Ġpsi quiÃ¡
ĠPos grado
b ara
Ġve an
Ġfr uc
ĠCon v
Ġcontrol ador
Ġcontr asta
2030 4050
e to
Ġand alu
TI M
Ġan y
Ġinver tido
Ġb ran
ĠComent arios
ĠBartol omÃ©
Ġ36 3
hor t
Ġargen tinos
re ferencia
36 1
Ġmer ced
Ġa ge
ĠAran go
Ġ19 17
Ã³n imos
ĠCL AS
vern ment
Ġcob ran
Ġconj u
ĠAS ESOR
fa tura
erv o
Ġdipu tados
Ġneu tro
Ġim itaciÃ³n
ic ol
Ġactu alizado
Ġg or
ĠTen go
og ares
ĠE ch
ĠProgram aciÃ³n
Ġgener alizaciÃ³n
S R
ĠEmerg encia
ĠD ada
Ġincen tiv
GU A
ĠGuar dia
ĠOB RA
E dad
Ã©n d
compr ensiÃ³n
ĠYou Tube
ĠV arela
ĠM ara
Ġ4 11
Ġartic ulado
19 85
B arcelona
Ġhere deros
u ts
Ġthe m
ol lo
Ġ27 07
Ġsent ado
ĠFinanci eros
ĠF P
ill eros
Ġcons igna
Ġpregun tarse
Ġorgul lo
at l
S ta
Ġes trib
Es trateg
Ã± eda
EN ES
Ġinform ativos
Ġconcer niente
Ġpol Ã©mica
Ġbloque o
ĠdiseÃ± Ã³
ĠJ ones
ĠS oria
Ġ3 28
le mas
Ġbaj ar
Ġaliment arios
Ġpersonal mente
Ġbrin de
Ġenrique cimiento
Ġdo lores
Ġpar entesco
Ġ38 3
Ġdes til
ĠAdap taciÃ³n
0 28
ĠIden tifica
M Ã¡
quia trÃŃa
re conocimiento
37 9
Ġexp ulsiÃ³n
in arios
H ipÃ³tesis
Ġl Ã¡c
ar gum
m icro
Ġayud Ã³
Ġindirec to
ĠMag ister
ĠS tre
per tura
ĠPROVIN CIA
Ġexhaus tiva
ĠhÃŃ gado
H ER
34 2
ĠCur r
Ġes tir
ĠCual quier
Ġmulti dimensional
50 8
0 31
Ġs k
ĠOr iental
Ġconv ento
ĠlÃ¡ minas
ĠPro c
e tano
Ġ Ãľ
Ġ za
0 27
Ġlle ven
tin aciÃ³n
ĠS TC
ti e
Ġdia gramas
ĠexplÃŃci to
ĠTom ando
FER ENCIA
Ġespecial idades
ĠC ra
Ġgen u
Ġmec han
que tas
Ġtur ista
im ia
u des
19 88
Ġir Ã¡
Ġco al
ĠDol ores
ĠRe ducciÃ³n
su perior
Ġladr illo
Ġag itaciÃ³n
g am
pl y
Ġes til
Ġconcre ciÃ³n
Ġpor te
ĠGu ide
En cu
S ec
Ġauto eficacia
Ġhor t
Ġ3 95
0 33
re t
ĠFigu eroa
Ġ00 1
Ġo la
teros ex
Ġcorrespon der
Ġexca vaciÃ³n
k h
Ġtra yecto
de grad
Ġem igr
ĠA um
Ġg anas
ac ruz
Ġnutr icionales
B al
ĠB orges
Ġlan guage
Ġdeb an
PRO Y
ĠJ uegos
ĠPubl ishing
Ġre i
mo d
Ġp ÃŃ
P u
ĠC is
ĠPres enta
z ione
ĠAlej andra
Ġu ter
con di
ĠL ang
i h
45 9
Ġevacu aciÃ³n
Ġpal ma
Ġpractic e
Ġinval idez
ĠQuin tana
50 7
ĠHen ry
Ġocciden tales
i S
Ġimpul sa
Ġantim icrobi
es el
Ġgr asas
ĠOl ivos
ĠintÃ©rpre te
ĠAh orro
b um
Ġele va
ĠT able
Ġdig italizaciÃ³n
cil la
Ġgaran ticen
Ġoper arios
Ġpo zos
ĠMÃī TODO
AN AS
tagon ia
0 32
da je
ĠLic enciado
Ġopera tivas
CLUS IÃĵN
f el
ĠMarr uecos
ĠES O
ĠJ al
Ġqued arse
ĠS AB
ĠF rag
Ġn es
0 44
ec ologÃŃa
ĠL iv
can tidad
Ġ35 7
Ġreg eneraciÃ³n
Ġcomput ador
70 8
Ġd amos
ĠEd gar
Ġsitu ar
Ġdisciplin ar
pl ace
ĠES CALA
Al to
ven ato
ĠcÃ© le
Ġmac hos
Ġcolabora tiva
i torio
ĠM Y
lin es
Ġtranscur rido
Ġgen Ã©ticos
Ġbusc ado
Ġapare ciÃ³
ĠPR UE
ĠW est
Ġprodu jeron
ĠCan arias
ĠT rop
ĠAs sessment
Ġcultiv ar
ond uras
Pro grama
Ġmutu amente
ÃŃs imos
Ġdecir lo
Ġresal tan
ĠObl ig
ar quitec
ĠSu iza
An tes
IZ ACION
col ombia
ĠE ur
Ġper diendo
ĠAc tual
ie la
ĠGer mÃ¡n
ĠGin ebra
ĠOr dinal
Ġr ho
ĠPia get
ĠProfes orado
39 1
Ġa ter
ĠAdo lfo
Ġab ol
aci mientos
Ġap ellidos
industr ia
ĠN OMBRE
Ġ3 68
Ġhab itaciones
Ġcub ierto
34 3
ĠSal ta
ba um
Ġcolec tividad
Ġrue das
ĠRu ta
ĠY u
ta il
z aban
Ġproteg idas
Ġhall ado
ĠV A
ĠniÃ±os as
ĠPS IC
Ġinstal ada
ĠCual itativa
Ġejerci da
ent ra
CH A
Ġetique tas
Ġg ab
i Ã¡
ĠConcep tual
den al
Ġtele trabajo
Ġhabl ante
Ġveg eta
Ġqu estion
ĠSe govia
Ġfamos o
Ġrecor ridos
S im
Ġarque olÃ³gico
Ġab uelos
Ġre plic
A mb
del l
Ġform aciones
O c
ĠB B
Ġnaran ja
Ġi us
ap e
il lan
ĠO M
Ġtard ÃŃa
[...]
