{
  "version": "1.0",
  "truncation": {
    "direction": "Right",
    "max_length": 512,
    "strategy": "LongestFirst",
    "stride": 0
  },
  "padding": {
    "strategy": {
      "Fixed": 512
    },
    "direction": "Right",
    "pad_to_multiple_of": null,
    "pad_id": 1,
    "pad_type_id": 0,
    "pad_token": "<pad>"
  },
  "added_tokens": [
    {
      "id": 0,
      "content": "<s>",
      "single_word": false,
      "lstrip": false,
      "rstrip": false,
      "normalized": false,
      "special": true
    },
    {
      "id": 1,
      "content": "<pad>",
      "single_word": false,
      "lstrip": false,
      "rstrip": false,
      "normalized": false,
      "special": true
    },
    {
      "id": 2,
      "content": "</s>",
      "single_word": false,
      "lstrip": false,
      "rstrip": false,
      "normalized": false,
      "special": true
    },
    {
      "id": 3,
      "content": "<unk>",
      "single_word": false,
      "lstrip": false,
      "rstrip": false,
      "normalized": false,
      "special": true
    },
    {
      "id": 4,
      "content": "<mask>",
      "single_word": false,
      "lstrip": true,
      "rstrip": false,
      "normalized": false,
      "special": true
    }
  ],
  "normalizer": null,
  "pre_tokenizer": {
    "type": "ByteLevel",
    "add_prefix_space": true,
    "trim_offsets": true,
    "use_regex": true
  },
  "post_processor": {
    "type": "ByteLevel",
    "add_prefix_space": true,
    "trim_offsets": true,
    "use_regex": true
  },
  "decoder": {
    "type": "ByteLevel",
    "add_prefix_space": true,
    "trim_offsets": true,
    "use_regex": true
  },
  "model": {
    "type": "BPE",
    "dropout": null,
    "unk_token": null,
    "continuing_subword_prefix": null,
    "end_of_word_suffix": null,
    "fuse_unk": false,
    "byte_fallback": false,
    "ignore_merges": false,
    "vocab": {
      "<s>": 0,
      "<pad>": 1,
      "</s>": 2,
      "<unk>": 3,
      "<mask>": 4,
      "!": 5,
      "\"": 6,
      "#": 7,
      "$": 8,
      "%": 9,
      "&": 10,
      "'": 11,
      "(": 12,
      ")": 13,
      "*": 14,
      "+": 15,
      ",": 16,
      "-": 17,
      ".": 18,
      "/": 19,
      "0": 20,
      "1": 21,
      "2": 22,
      "3": 23,
      "4": 24,
      "5": 25,
      "6": 26,
      "7": 27,
      "8": 28,
      "9": 29,
      ":": 30,
      ";": 31,
      "<": 32,
      "=": 33,
      ">": 34,
      "?": 35,
      "@": 36,
      "A": 37,
      "B": 38,
      "C": 39,
      "D": 40,
      "E": 41,
      "F": 42,
      "G": 43,
      "H": 44,
      "I": 45,
      "J": 46,
      "K": 47,
      "L": 48,
      "M": 49,
      "N": 50,
      "O": 51,
      "P": 52,
      "Q": 53,
      "R": 54,
      "S": 55,
      "T": 56,
      "U": 57,
      "V": 58,
      "W": 59,
      "X": 60,
      "Y": 61,
      "Z": 62,
      "[": 63,
      "\\": 64,
      "]": 65,
      "^": 66,
      "_": 67,
      "`": 68,
      "a": 69,
      "b": 70,
      "c": 71,
      "d": 72,
      "e": 73,
      "f": 74,
      "g": 75,
      "h": 76,
      "i": 77,
      "j": 78,
      "k": 79,
      "l": 80,
      "m": 81,
      "n": 82,
      "o": 83,
      "p": 84,
      "q": 85,
      "r": 86,
      "s": 87,
      "t": 88,
      "u": 89,
      "v": 90,
      "w": 91,
      "x": 92,
      "y": 93,
      "z": 94,
      "{": 95,
      "|": 96,
      "}": 97,
      "~": 98,
      "¡": 99,
      "¢": 100,
      "£": 101,
      "¤": 102,
      "¥": 103,
      "¦": 104,
      "§": 105,
      "¨": 106,
      "©": 107,
      "ª": 108,
      "«": 109,
      "¬": 110,
      "®": 111,
      "¯": 112,
      "°": 113,
      "±": 114,
      "²": 115,
      "³": 116,
      "´": 117,
      "µ": 118,
      "¶": 119,
      "·": 120,
      "¸": 121,
      "¹": 122,
      "º": 123,
      "»": 124,
      "¼": 125,
      "½": 126,
      "¾": 127,
      "¿": 128,
      "À": 129,
      "Á": 130,
      "Â": 131,
      "Ã": 132,
      "Ä": 133,
      "Å": 134,
      "Æ": 135,
      "Ç": 136,
      "È": 137,
      "É": 138,
      "Ê": 139,
      "Ë": 140,
      "Ì": 141,
      "Í": 142,
      "Î": 143,
      "Ï": 144,
      "Ð": 145,
      "Ñ": 146,
      "Ò": 147,
      "Ó": 148,
      "Ô": 149,
      "Õ": 150,
      "Ö": 151,
      "×": 152,
      "Ø": 153,
      "Ù": 154,
      "Ú": 155,
      "Û": 156,
      "Ü": 157,
      "Ý": 158,
      "Þ": 159,
      "ß": 160,
      "à": 161,
      "á": 162,
      "â": 163,
      "ã": 164,
      "ä": 165,
      "å": 166,
      "æ": 167,
      "ç": 168,
      "è": 169,
      "é": 170,
      "ê": 171,
      "ë": 172,
      "ì": 173,
      "í": 174,
      "î": 175,
      "ï": 176,
      "ð": 177,
      "ñ": 178,
      "ò": 179,
      "ó": 180,
      "ô": 181,
      "õ": 182,
      "ö": 183,
      "÷": 184,
      "ø": 185,
      "ù": 186,
      "ú": 187,
      "û": 188,
      "ü": 189,
      "ý": 190,
      "þ": 191,
      "ÿ": 192,
      "Ā": 193,
      "ā": 194,
      "Ă": 195,
      "ă": 196,
      "Ą": 197,
      "ą": 198,
      "Ć": 199,
      "ć": 200,
      "Ĉ": 201,
      "ĉ": 202,
      "Ċ": 203,
      "ċ": 204,
      "Č": 205,
      "č": 206,
      "Ď": 207,
      "ď": 208,
      "Đ": 209,
      "đ": 210,
      "Ē": 211,
      "ē": 212,
      "Ĕ": 213,
      "ĕ": 214,
      "Ė": 215,
      "ė": 216,
      "Ę": 217,
      "ę": 218,
      "Ě": 219,
      "ě": 220,
      "Ĝ": 221,
      "ĝ": 222,
      "Ğ": 223,
      "ğ": 224,
      "Ġ": 225,
      "ġ": 226,
      "Ģ": 227,
      "ģ": 228,
      "Ĥ": 229,
      "ĥ": 230,
      "Ħ": 231,
      "ħ": 232,
      "Ĩ": 233,
      "ĩ": 234,
      "Ī": 235,
      "ī": 236,
      "Ĭ": 237,
      "ĭ": 238,
      "Į": 239,
      "į": 240,
      "İ": 241,
      "ı": 242,
      "Ĳ": 243,
      "ĳ": 244,
      "Ĵ": 245,
      "ĵ": 246,
      "Ķ": 247,
      "ķ": 248,
      "ĸ": 249,
      "Ĺ": 250,
      "ĺ": 251,
      "Ļ": 252,
      "ļ": 253,
      "Ľ": 254,
      "ľ": 255,
      "Ŀ": 256,
      "ŀ": 257,
      "Ł": 258,
      "ł": 259,
      "Ń": 260,
      "de": 261,
      "en": 262,
      "Ġde": 263,
      "es": 264,
      "Ġl": 265,
      "ci": 266,
      "os": 267,
      "Ġp": 268,
      "Ġc": 269,
      "er": 270,
      "on": 271,
      "Ġa": 272,
      "..": 273,
      "ar": 274,
      "as": 275,
      "Ġs": 276,
      "or": 277,
      "Ġe": 278,
      "al": 279,
      "Ã³": 280,
      "ti": 281,
      "an": 282,
      "ad": 283,
      "Ġla": 284,
      "ent": 285,
      "in": 286,
      "re": 287,
      "ue": 288,
      "Ã³n": 289,
      "Ġm": 290,
      "Ġen": 291,
      "Ġy": 292,
      "un": 293,
      "aci": 294,
      "ĠĊ": 295,
      "....": 296,
      "que": 297,
      "Ġel": 298,
      "di": 299,
      "tr": 300,
      "Ġes": 301,
      "Ġque": 302,
      "ÃŃ": 303,
      "Ġcon": 304,
      "ic": 305,
      "te": 306,
      "om": 307,
      "is": 308,
      "Ã¡": 309,
      "ta": 310,
      "aciÃ³n": 311,
      "ro": 312,
      "id": 313,
      "Ġse": 314,
      "to": 315,
      "Ġ1": 316,
      "Ġn": 317,
      "Ġun": 318,
      "Ġin": 319,
      "Ġ2": 320,
      "Ġlos": 321,
      "Ġf": 322,
      "ĠE": 323,
      "ĠC": 324,
      "Ġo": 325,
      "Ġre": 326,
      "Ġh": 327,
      "do": 328,
      "tu": 329,
      "ec": 330,
      "Ġdel": 331,
      "........": 332,
      "ol": 333,
      "res": 334,
      "Ã©": 335,
      "ĠA": 336,
      "Ġv": 337,
      "am": 338,
      "Ġlas": 339,
      "ĠP": 340,
      "Ġpar": 341,
      "ab": 342,
      "Ġcom": 343,
      "ter": 344,
      "im": 345,
      "ĠS": 346,
      "Ġsu": 347,
      "le": 348,
      "ado": 349,
      "ente": 350,
      "ul": 351,
      "Ġpro": 352,
      "tiv": 353,
      "ĠL": 354,
      "Ġdi": 355,
      "Ġal": 356,
      "ĠD": 357,
      "ĠM": 358,
      "ciÃ³n": 359,
      "ra": 360,
      "Ġpor": 361,
      "il": 362,
      "Ġt": 363,
      "00": 364,
      "ones": 365,
      "Ġg": 366,
      "idad": 367,
      "ig": 368,
      "Ġpara": 369,
      "enci": 370,
      "ac": 371,
      "ient": 372,
      "iz": 373,
      "Ġb": 374,
      "Ġd": 375,
      "uc": 376,
      "ÃŃa": 377,
      "Ġuna": 378,
      "lo": 379,
      "tic": 380,
      "io": 381,
      "Ġ3": 382,
      "us": 383,
      "tos": 384,
      "Ã±": 385,
      "ales": 386,
      "Ġcu": 387,
      "Ġtr": 388,
      "ĠI": 389,
      "ĠR": 390,
      "ĠT": 391,
      "mp": 392,
      "Ġdes": 393,
      "cu": 394,
      "la": 395,
      "tor": 396,
      "ia": 397,
      "Ġno": 398,
      "................": 399,
      "orm": 400,
      "Ġper": 401,
      "ada": 402,
      "qu": 403,
      "Ġ20": 404,
      "Ãº": 405,
      "Ġ4": 406,
      "Ġex": 407,
      "ica": 408,
      "el": 409,
      "Ġcomo": 410,
      "ri": 411,
      "da": 412,
      "ici": 413,
      "Ġac": 414,
      "ados": 415,
      "ĠF": 416,
      "Ġme": 417,
      "it": 418,
      "Ġlo": 419,
      "aj": 420,
      "Ġan": 421,
      "Ġ0": 422,
      "iv": 423,
      "ĠN": 424,
      "oci": 425,
      "ib": 426,
      "encia": 427,
      "den": 428,
      "ur": 429,
      "ĠB": 430,
      "iento": 431,
      "Ġres": 432,
      "um": 433,
      "Ġ5": 434,
      "ir": 435,
      "Ã¡s": 436,
      "des": 437,
      "ob": 438,
      "ues": 439,
      "ĠG": 440,
      "iÃ³n": 441,
      "Ġpr": 442,
      "Ġcons": 443,
      "ce": 444,
      "ĠEs": 445,
      "tes": 446,
      "duc": 447,
      "ten": 448,
      "era": 449,
      "mb": 450,
      "dad": 451,
      "onal": 452,
      "fic": 453,
      "ida": 454,
      "se": 455,
      "ma": 456,
      "ante": 457,
      "Ġap": 458,
      "go": 459,
      "tra": 460,
      "Ġent": 461,
      "Ġti": 462,
      "Ġob": 463,
      "mo": 464,
      "Ġ201": 465,
      "ando": 466,
      "ch": 467,
      "tas": 468,
      "Ġcomp": 469,
      "ari": 470,
      "aciones": 471,
      "per": 472,
      "ĠV": 473,
      "con": 474,
      "ĠEn": 475,
      "ien": 476,
      "aliz": 477,
      "der": 478,
      "Ġ19": 479,
      "Ġim": 480,
      "Ã¡n": 481,
      "Ġser": 482,
      "ĠH": 483,
      "Ġto": 484,
      "ico": 485,
      "ĠJ": 486,
      "ca": 487,
      "por": 488,
      "fer": 489,
      "ĠLa": 490,
      "Ġ-": 491,
      "Ġma": 492,
      "ces": 493,
      "tro": 494,
      "ores": 495,
      "Ġesta": 496,
      "ĠU": 497,
      "Ġ.": 498,
      "esti": 499,
      "Ġci": 500,
      "ĠO": 501,
      "gr": 502,
      "ĠEl": 503,
      "min": 504,
      "Ġas": 505,
      "Ġest": 506,
      "Ġdis": 507,
      "ido": 508,
      "Ġr": 509,
      "ier": 510,
      "eg": 511,
      "ers": 512,
      "Ġ6": 513,
      "je": 514,
      "entes": 515,
      "po": 516,
      "Ġinter": 517,
      "Ġpre": 518,
      "mente": 519,
      "co": 520,
      "Ġte": 521,
      "ie": 522,
      "Ġsus": 523,
      "tin": 524,
      "ĠIn": 525,
      "ap": 526,
      "ment": 527,
      "lic": 528,
      "ĠmÃ¡s": 529,
      "Ġentre": 530,
      "tivo": 531,
      "pe": 532,
      "adas": 533,
      "tudi": 534,
      "form": 535,
      "20": 536,
      "Ġj": 537,
      "tar": 538,
      "Ġmedi": 539,
      "cia": 540,
      "ens": 541,
      "Ġpres": 542,
      "Ã©n": 543,
      "tiva": 544,
      "dos": 545,
      "Ġmo": 546,
      "................................": 547,
      "Ġ200": 548,
      "Ġha": 549,
      "ÃŃs": 550,
      "les": 551,
      "Ġor": 552,
      "Ġman": 553,
      "Ġpo": 554,
      "obre": 555,
      "Ġgr": 556,
      "ero": 557,
      "pec": 558,
      "tica": 559,
      "Ġar": 560,
      "miento": 561,
      "Ġ7": 562,
      "igu": 563,
      "ĠDE": 564,
      "Ġi": 565,
      "Ġpue": 566,
      "pon": 567,
      "Ã©s": 568,
      "mos": 569,
      "ciones": 570,
      "ener": 571,
      "za": 572,
      "gu": 573,
      "Ġeste": 574,
      "cul": 575,
      "cl": 576,
      "Ġestudi": 577,
      "tur": 578,
      "amente": 579,
      "Ġform": 580,
      "titu": 581,
      "abaj": 582,
      "tal": 583,
      ".,": 584,
      "cip": 585,
      "Ġdeb": 586,
      "Ġ8": 587,
      "idades": 588,
      "los": 589,
      "tan": 590,
      "Ġsobre": 591,
      "CI": 592,
      "ĠCon": 593,
      "Ġpers": 594,
      "las": 595,
      "ara": 596,
      "Ġsoci": 597,
      "Ġpos": 598,
      "Ã±o": 599,
      "tura": 600,
      "Ġinv": 601,
      "ES": 602,
      "gun": 603,
      "Ġ9": 604,
      "og": 605,
      "ario": 606,
      "ÃŃn": 607,
      "ene": 608,
      "ble": 609,
      "Ġson": 610,
      "Ġsi": 611,
      "rol": 612,
      "pa": 613,
      "lan": 614,
      "teri": 615,
      "Ġtrabaj": 616,
      "pos": 617,
      "iste": 618,
      "Ġrel": 619,
      "uer": 620,
      "Ġcar": 621,
      "Ġemp": 622,
      "no": 623,
      "Ġins": 624,
      "Ġof": 625,
      "Ġsin": 626,
      "fec": 627,
      "Ġqu": 628,
      "he": 629,
      "uy": 630,
      "Ġcor": 631,
      "Ġcas": 632,
      "ismo": 633,
      "Ġta": 634,
      "--": 635,
      "Ġtra": 636,
      "Ãºn": 637,
      "til": 638,
      "alidad": 639,
      "arrol": 640,
      "enta": 641,
      "Ġu": 642,
      "ren": 643,
      "Ġle": 644,
      "me": 645,
      "ĠUn": 646,
      "10": 647,
      "ador": 648,
      "antes": 649,
      "EN": 650,
      "Ġpa": 651,
      "ER": 652,
      "tado": 653,
      "pres": 654,
      "vis": 655,
      "Ġprop": 656,
      "estig": 657,
      "eces": 658,
      "mbi": 659,
      "Ġau": 660,
      "Ġ10": 661,
      "tivos": 662,
      "alu": 663,
      "ĠRe": 664,
      "ios": 665,
      "Ġev": 666,
      "Ġrealiz": 667,
      "ĠÃ¡": 668,
      "fici": 669,
      "ana": 670,
      "tros": 671,
      "ĠDe": 672,
      "Ġproces": 673,
      "Ã±os": 674,
      "Ġdo": 675,
      "gan": 676,
      "das": 677,
      "ez": 678,
      "ans": 679,
      "ilidad": 680,
      "bl": 681,
      "ticas": 682,
      "encias": 683,
      "Ġhab": 684,
      "erv": 685,
      "acional": 686,
      "gen": 687,
      "rec": 688,
      "Ġfun": 689,
      "ON": 690,
      "Ġdesarrol": 691,
      "iones": 692,
      "tados": 693,
      "ento": 694,
      "Ġfin": 695,
      "Ġus": 696,
      "Ġesc": 697,
      "omb": 698,
      "ho": 699,
      "Ġimp": 700,
      "AL": 701,
      "emp": 702,
      "amiento": 703,
      "Ġcual": 704,
      "Ġmay": 705,
      "mas": 706,
      "oc": 707,
      "ĠSe": 708,
      "mi": 709,
      "ras": 710,
      "truc": 711,
      "AR": 712,
      "Ġsol": 713,
      "na": 714,
      "Ã¡l": 715,
      "Ã³g": 716,
      "ona": 717,
      "Ġval": 718,
      "OS": 719,
      "anto": 720,
      "ano": 721,
      "Ġparti": 722,
      "Ġproduc": 723,
      "tico": 724,
      "ve": 725,
      "Ġcam": 726,
      "Ġgener": 727,
      "Ġad": 728,
      "Ġreg": 729,
      "ing": 730,
      "ivel": 731,
      "icas": 732,
      "Ġinvestig": 733,
      "ist": 734,
      "Ġab": 735,
      "Ġprim": 736,
      "cur": 737,
      "gar": 738,
      "icos": 739,
      "tion": 740,
      "Ġda": 741,
      "Ġcol": 742,
      "ĠY": 743,
      "almente": 744,
      "cep": 745,
      "ivers": 746,
      "Ġcap": 747,
      "Ġca": 748,
      "Ġresul": 749,
      "Ġindi": 750,
      "arios": 751,
      "ven": 752,
      "fica": 753,
      "ĠAn": 754,
      "Ġhac": 755,
      "ni": 756,
      "Ġsig": 757,
      "tores": 758,
      "Ġcontr": 759,
      "ina": 760,
      "tt": 761,
      "Ġneces": 762,
      "cion": 763,
      "ÃŃas": 764,
      "Ġcre": 765,
      "ga": 766,
      "par": 767,
      "aje": 768,
      "11": 769,
      "Ġinform": 770,
      "Ġpuede": 771,
      "AD": 772,
      "Ġdifer": 773,
      "able": 774,
      "et": 775,
      "ĠAl": 776,
      "AS": 777,
      "ora": 778,
      "Ã©r": 779,
      "aron": 780,
      "Ġ,": 781,
      "man": 782,
      "Ġpol": 783,
      "ĠCom": 784,
      "Ãĵ": 785,
      "ub": 786,
      "Ġco": 787,
      "dr": 788,
      "uciÃ³n": 789,
      "IC": 790,
      "uev": 791,
      "com": 792,
      "izaciÃ³n": 793,
      "Ġ199": 794,
      "ĠPor": 795,
      "tivas": 796,
      "ĠNo": 797,
      "Ġnivel": 798,
      "Ġparte": 799,
      "19": 800,
      "jo": 801,
      "Ġtrabajo": 802,
      "ular": 803,
      "termin": 804,
      "jer": 805,
      "Ġni": 806,
      "Ġ12": 807,
      "mbiÃ©n": 808,
      "Ġya": 809,
      "ĠPro": 810,
      "idos": 811,
      "isis": 812,
      "ran": 813,
      "Ġcl": 814,
      "Ġobje": 815,
      "OR": 816,
      "ientos": 817,
      "Ã¡c": 818,
      "Ġforma": 819,
      "cn": 820,
      "Ġand": 821,
      "adores": 822,
      "ide": 823,
      "taciÃ³n": 824,
      "Ġmayor": 825,
      "ĠtambiÃ©n": 826,
      "ttp": 827,
      "Ġcomun": 828,
      "incip": 829,
      "iciÃ³n": 830,
      "AN": 831,
      "Ġeduc": 832,
      "Ġ15": 833,
      "Ġ18": 834,
      "ha": 835,
      "ias": 836,
      "Ġcada": 837,
      "Ġdeci": 838,
      "olog": 839,
      "Ġtrans": 840,
      "fes": 841,
      "Ġver": 842,
      "ed": 843,
      "Ġten": 844,
      "Ġdon": 845,
      "ba": 846,
      "12": 847,
      "aria": 848,
      "Ġthe": 849,
      "rech": 850,
      "Ġet": 851,
      "pues": 852,
      "Ġimpor": 853,
      "Ġmar": 854,
      "acion": 855,
      "ĠLos": 856,
      "Ġutil": 857,
      "Ã³m": 858,
      "teg": 859,
      "Ġlle": 860,
      "Ġmis": 861,
      "Ġvari": 862,
      "iendo": 863,
      "peci": 864,
      "endo": 865,
      "...": 866,
      "Ġbas": 867,
      "Ġdos": 868,
      "Ġactiv": 869,
      "ww": 870,
      "000": 871,
      "Ġdesde": 872,
      "ĠinvestigaciÃ³n": 873,
      "onas": 874,
      "tante": 875,
      "cri": 876,
      "Ġsiste": 877,
      "yec": 878,
      "dem": 879,
      "fin": 880,
      "ĠX": 881,
      "Ġprincip": 882,
      "Ġ11": 883,
      "Ġden": 884,
      "Ġ13": 885,
      "amos": 886,
      "Ã¡lisis": 887,
      "Ġmej": 888,
      "Ġcr": 889,
      "arse": 890,
      "ÃĵN": 891,
      "Ġtiene": 892,
      "ito": 893,
      "paÃ±": 894,
      "Ġempres": 895,
      "Ġseg": 896,
      "Ġproceso": 897,
      "Ġ14": 898,
      "Ġfue": 899,
      "21": 900,
      "tras": 901,
      "ible": 902,
      "enti": 903,
      "ver": 904,
      "mpl": 905,
      "igura": 906,
      "Ġobs": 907,
      "ex": 908,
      "ĠMar": 909,
      "ĠK": 910,
      "car": 911,
      "so": 912,
      "Ġmanera": 913,
      "Ġdonde": 914,
      "laciÃ³n": 915,
      "qui": 916,
      "ĠAr": 917,
      "Ġhan": 918,
      "nos": 919,
      "Ġpero": 920,
      "Ġtanto": 921,
      "pro": 922,
      "Ġnuev": 923,
      "ĠrelaciÃ³n": 924,
      "can": 925,
      "Ã³r": 926,
      "ĠpolÃŃ": 927,
      "Ġdesarrollo": 928,
      "ĠW": 929,
      "Ġmen": 930,
      "Ġderech": 931,
      "vers": 932,
      "22": 933,
      "Ġ16": 934,
      "ider": 935,
      "Ġhttp": 936,
      "ÃŃcul": 937,
      "ĠasÃŃ": 938,
      "Ġencu": 939,
      "du": 940,
      "Ġserv": 941,
      "Ġestudio": 942,
      "cre": 943,
      "ĠaÃ±os": 944,
      "unto": 945,
      "Ġtiemp": 946,
      "Ġcul": 947,
      "Ġorgan": 948,
      "ÃŃan": 949,
      "ay": 950,
      "uestra": 951,
      "IS": 952,
      "Ġbien": 953,
      "Ġpas": 954,
      "tific": 955,
      "ĠestÃ¡": 956,
      "iden": 957,
      "Ġaplic": 958,
      "ea": 959,
      "Ġcaso": 960,
      "tis": 961,
      "Ãį": 962,
      "15": 963,
      "endi": 964,
      "ific": 965,
      "dades": 966,
      "Ġter": 967,
      "Ġesp": 968,
      "amil": 969,
      "Ġutiliz": 970,
      "ĠĠ": 971,
      "ama": 972,
      "ACI": 973,
      "abor": 974,
      "Ġefec": 975,
      "ru": 976,
      "peri": 977,
      "edi": 978,
      "Ġvis": 979,
      "olÃ³g": 980,
      "Ġ17": 981,
      "gos": 982,
      "ĠinformaciÃ³n": 983,
      "Ġespeci": 984,
      "Ġsocial": 985,
      "ion": 986,
      "Ġconf": 987,
      "Ġalgun": 988,
      "Ġplan": 989,
      "minis": 990,
      "Ġmismo": 991,
      "----": 992,
      "uen": 993,
      "ĠAs": 994,
      "zo": 995,
      "entos": 996,
      "Ġfuer": 997,
      "bi": 998,
      "err": 999,
      "Ġinf": 1000,
      "ĠUnivers": 1001,
      "tre": 1002,
      "13": 1003,
      "lar": 1004,
      "Ġproble": 1005,
      "TI": 1006,
      "Ġlu": 1007,
      "ag": 1008,
      "ĠpÃº": 1009,
      "ĠÃ©": 1010,
      "clus": 1011,
      "ĠQ": 1012,
      "Ġdebe": 1013,
      "ables": 1014,
      "tural": 1015,
      "16": 1016,
      "Ġdetermin": 1017,
      "rendi": 1018,
      "Ġgru": 1019,
      "ual": 1020,
      "Ġtodo": 1021,
      "ros": 1022,
      "14": 1023,
      "icio": 1024,
      "vi": 1025,
      "Ġotros": 1026,
      "Ġacu": 1027,
      "ecu": 1028,
      "Ġcos": 1029,
      "eros": 1030,
      "argo": 1031,
      "Ġsigni": 1032,
      "imiento": 1033,
      "Ġgran": 1034,
      "Ġtiempo": 1035,
      "Ġfu": 1036,
      "50": 1037,
      "Ġnos": 1038,
      "Ġcuando": 1039,
      "anti": 1040,
      "Ġconoci": 1041,
      "estiÃ³n": 1042,
      "ital": 1043,
      "Ġdatos": 1044,
      "tec": 1045,
      "alud": 1046,
      "dic": 1047,
      "Ġref": 1048,
      "................................................................": 1049,
      "Ġexp": 1050,
      "18": 1051,
      "Ġecon": 1052,
      "Ġconsider": 1053,
      "acter": 1054,
      "Ġpermi": 1055,
      "oy": 1056,
      "Ġestos": 1057,
      "cional": 1058,
      "Ġlib": 1059,
      "tad": 1060,
      "Ġpl": 1061,
      "Ġpresent": 1062,
      "Ġsec": 1063,
      "Ġpues": 1064,
      "Ġvida": 1065,
      "toria": 1066,
      "ita": 1067,
      "aba": 1068,
      "23": 1069,
      "Ġw": 1070,
      "Ġhum": 1071,
      "ĠLe": 1072,
      "ticos": 1073,
      "Ġpersonas": 1074,
      "Ġproyec": 1075,
      "Ãºl": 1076,
      "iente": 1077,
      "Ġsigu": 1078,
      "asta": 1079,
      "Ġdur": 1080,
      "lu": 1081,
      "ala": 1082,
      "Ġmejor": 1083,
      "17": 1084,
      "Ġmuc": 1085,
      "Ġmun": 1086,
      "ientes": 1087,
      "ĠLas": 1088,
      "mientos": 1089,
      "Ġmu": 1090,
      "Ġactu": 1091,
      "av": 1092,
      "Ġmuy": 1093,
      "Ġsistema": 1094,
      "Ġfac": 1095,
      "gres": 1096,
      "RO": 1097,
      "Ġtipo": 1098,
      "IN": 1099,
      "Ġdirec": 1100,
      "pecto": 1101,
      "cio": 1102,
      "mento": 1103,
      "Ġobserv": 1104,
      "Ġhay": 1105,
      "ĠanÃ¡lisis": 1106,
      "acia": 1107,
      "Ãºm": 1108,
      "demÃ¡s": 1109,
      "Ġresultados": 1110,
      "abla": 1111,
      "todo": 1112,
      "Ġlab": 1113,
      "ĠCar": 1114,
      "Ġvalor": 1115,
      "Ġprofes": 1116,
      "Ġinte": 1117,
      "abilidad": 1118,
      "ID": 1119,
      "vÃ©s": 1120,
      "Ġtu": 1121,
      "Ġart": 1122,
      "Ġra": 1123,
      "Ġiden": 1124,
      "Ãºlti": 1125,
      "Ġnorm": 1126,
      "sos": 1127,
      "Ġfamil": 1128,
      "En": 1129,
      "ord": 1130,
      "Ġtodos": 1131,
      "ares": 1132,
      "Ãģ": 1133,
      "edad": 1134,
      "EC": 1135,
      "ip": 1136,
      "Ġdoc": 1137,
      "vo": 1138,
      "udad": 1139,
      "Ġcontra": 1140,
      "anos": 1141,
      "Ã©cn": 1142,
      "stitu": 1143,
      "TO": 1144,
      "Ġele": 1145,
      "Ġparticip": 1146,
      "tir": 1147,
      "enen": 1148,
      "Ġsenti": 1149,
      "ino": 1150,
      "Ġobten": 1151,
      "ima": 1152,
      "Ġcent": 1153,
      "uel": 1154,
      "Ġmode": 1155,
      "Ġop": 1156,
      "va": 1157,
      "anza": 1158,
      "ĠtravÃ©s": 1159,
      "Ġbaj": 1160,
      "ĠDes": 1161,
      "mentos": 1162,
      "Ġri": 1163,
      "Ġtom": 1164,
      "eo": 1165,
      "pre": 1166,
      "ja": 1167,
      "30": 1168,
      "cent": 1169,
      "Ġrepres": 1170,
      "Ġestudiantes": 1171,
      "ĠSan": 1172,
      "quier": 1173,
      "ĠPara": 1174,
      "eb": 1175,
      "Ġsub": 1176,
      "Ġsitu": 1177,
      "Ġvez": 1178,
      "Ġinstitu": 1179,
      "ĠCol": 1180,
      "ial": 1181,
      "ologÃŃa": 1182,
      "echo": 1183,
      "ĠCh": 1184,
      "II": 1185,
      "Ġsim": 1186,
      "Ġmi": 1187,
      "Ġdefin": 1188,
      "contr": 1189,
      "ista": 1190,
      "Ġcal": 1191,
      "tamiento": 1192,
      "ern": 1193,
      "tancia": 1194,
      "Ġuso": 1195,
      "Ġ25": 1196,
      "24": 1197,
      "Ġna": 1198,
      "Ġlugar": 1199,
      "Ġemb": 1200,
      "Ġcuenta": 1201,
      "Ġotro": 1202,
      "Ġpe": 1203,
      "25": 1204,
      "Ġfr": 1205,
      "ĠRes": 1206,
      "th": 1207,
      "ĠseÃ±": 1208,
      "Ġencuent": 1209,
      "Ġdiferentes": 1210,
      "Ġestra": 1211,
      "El": 1212,
      "Ġcontrol": 1213,
      "Ġuno": 1214,
      "Ġcondi": 1215,
      "La": 1216,
      "Ġ30": 1217,
      "ensiÃ³n": 1218,
      "ĠUniversidad": 1219,
      "Ġevalu": 1220,
      "erdo": 1221,
      "zar": 1222,
      "ativa": 1223,
      "Ġconcep": 1224,
      "Ġcaracter": 1225,
      "Ġtal": 1226,
      "gua": 1227,
      "ĠprÃ¡c": 1228,
      "erc": 1229,
      "Ġpueden": 1230,
      "Ġpob": 1231,
      "Ġhasta": 1232,
      "ece": 1233,
      "ge": 1234,
      "icaciÃ³n": 1235,
      "trib": 1236,
      "pu": 1237,
      "ĠIN": 1238,
      "rendiz": 1239,
      "gÃŃa": 1240,
      "Ġrecur": 1241,
      "Ġdurante": 1242,
      "Ġmedio": 1243,
      "hos": 1244,
      "Ġdich": 1245,
      "quel": 1246,
      "Ġ24": 1247,
      "acciÃ³n": 1248,
      "xto": 1249,
      "rea": 1250,
      "vista": 1251,
      "Ġamb": 1252,
      "vid": 1253,
      "terior": 1254,
      "ĠmÃ©": 1255,
      "icios": 1256,
      "ĠestÃ¡n": 1257,
      "Ġfor": 1258,
      "Ġcamb": 1259,
      "ula": 1260,
      "Ġsino": 1261,
      "duci": 1262,
      "dam": 1263,
      "ÃŃfic": 1264,
      "del": 1265,
      "Ġcapaci": 1266,
      "torio": 1267,
      "omin": 1268,
      "cas": 1269,
      "mÃ¡": 1270,
      "Ġautor": 1271,
      "ĠpaÃŃs": 1272,
      "Ġporque": 1273,
      "ĠDis": 1274,
      "Ġcomple": 1275,
      "Ġconte": 1276,
      "Ġdecir": 1277,
      "RA": 1278,
      "cal": 1279,
      "Ġam": 1280,
      "Ġrespon": 1281,
      "ĠLA": 1282,
      "Ġesto": 1283,
      "Ġespaci": 1284,
      "Ġestas": 1285,
      "are": 1286,
      "ĠaÃ±o": 1287,
      "ĠPer": 1288,
      "Ġ198": 1289,
      "Ġhttps": 1290,
      "Ġcontin": 1291,
      "ĠInter": 1292,
      "ton": 1293,
      "col": 1294,
      "Ã³s": 1295,
      "arÃ¡": 1296,
      "ĠsegÃºn": 1297,
      "lig": 1298,
      "Ġeje": 1299,
      "Ġdentro": 1300,
      "ĠeconÃ³m": 1301,
      "Ġhacer": 1302,
      "Ġsal": 1303,
      "omo": 1304,
      "Ġve": 1305,
      "ÃŃculo": 1306,
      "ĠÃºlti": 1307,
      "Ġciudad": 1308,
      "oral": 1309,
      "Ġpes": 1310,
      "ĠCu": 1311,
      "Ġgeneral": 1312,
      "idas": 1313,
      "ĠZ": 1314,
      "Ġrefer": 1315,
      "Ġ23": 1316,
      "Ġem": 1317,
      "Ġmujer": 1318,
      "ĠEx": 1319,
      "em": 1320,
      "seÃ±": 1321,
      "40": 1322,
      "Ġ100": 1323,
      "TE": 1324,
      "iemp": 1325,
      "ena": 1326,
      "Ġvol": 1327,
      "dencia": 1328,
      "gra": 1329,
      "Ġespec": 1330,
      "TA": 1331,
      "ill": 1332,
      "ustr": 1333,
      "Ġtienen": 1334,
      "rendizaje": 1335,
      "Ġdistin": 1336,
      "Ġmediante": 1337,
      "cias": 1338,
      "Ġaf": 1339,
      "Ġvi": 1340,
      "Ġpoder": 1341,
      "60": 1342,
      "van": 1343,
      "respon": 1344,
      "cimiento": 1345,
      "Ġtener": 1346,
      "Ġpersonal": 1347,
      "Es": 1348,
      "Ġotras": 1349,
      "Ġsalud": 1350,
      "Ġide": 1351,
      "ud": 1352,
      "Ġneg": 1353,
      "Ġaquel": 1354,
      "Ġconstitu": 1355,
      "cial": 1356,
      "Ġencontr": 1357,
      "Ġello": 1358,
      "ĠnÃºm": 1359,
      "RE": 1360,
      "alizaciÃ³n": 1361,
      "lica": 1362,
      "lam": 1363,
      "ĠMa": 1364,
      "Ġempresa": 1365,
      "tamente": 1366,
      "Ġclas": 1367,
      "Ġacuerdo": 1368,
      "tividad": 1369,
      "Ġcalidad": 1370,
      "ĠpÃºbl": 1371,
      "ĠCor": 1372,
      "ts": 1373,
      "Ġemple": 1374,
      "Ġapro": 1375,
      "Ġrecon": 1376,
      "uir": 1377,
      "Ġmateri": 1378,
      "uro": 1379,
      "tenciÃ³n": 1380,
      "Ġexpres": 1381,
      "ional": 1382,
      "Ã¡g": 1383,
      "Ġz": 1384,
      "Ġsignifica": 1385,
      "Ġles": 1386,
      "Ġactividades": 1387,
      "Ġmuestra": 1388,
      "ental": 1389,
      "udi": 1390,
      "Ġleg": 1391,
      "Ġestruc": 1392,
      "tim": 1393,
      "Ġhace": 1394,
      "Ġcab": 1395,
      "ĠTabla": 1396,
      "cor": 1397,
      "Ġprogr": 1398,
      "mbre": 1399,
      "fo": 1400,
      "Ġpartir": 1401,
      "fi": 1402,
      "www": 1403,
      "Ġtotal": 1404,
      "eno": 1405,
      "ÃŃsticas": 1406,
      "Ġsido": 1407,
      "ACIÃĵN": 1408,
      "Ġmom": 1409,
      "ine": 1410,
      "ĠtÃ©cn": 1411,
      "ĠPr": 1412,
      "lec": 1413,
      "Ġsociales": 1414,
      "Ġfal": 1415,
      "ĠEduc": 1416,
      "Ã¡fic": 1417,
      "Ġviv": 1418,
      "Ġro": 1419,
      "Ġsolo": 1420,
      "ecer": 1421,
      "Ġrespecto": 1422,
      "ĠFigura": 1423,
      "Ġproce": 1424,
      "cis": 1425,
      "istencia": 1426,
      "ĠVal": 1427,
      "ibilidad": 1428,
      "33": 1429,
      "80": 1430,
      "Ã³mo": 1431,
      "cib": 1432,
      "esta": 1433,
      "Ġquien": 1434,
      "ĠEsta": 1435,
      "UL": 1436,
      "Ġsea": 1437,
      "and": 1438,
      "ÃŃo": 1439,
      "ĠSu": 1440,
      "br": 1441,
      "Ġ27": 1442,
      "ĠeducaciÃ³n": 1443,
      "vil": 1444,
      "ĠEN": 1445,
      "Ġsegun": 1446,
      "arc": 1447,
      "Ġintegr": 1448,
      "ĠOr": 1449,
      "tÃ¡": 1450,
      "Ġderecho": 1451,
      "Ġincl": 1452,
      "Ã³lo": 1453,
      "crip": 1454,
      "Ġembargo": 1455,
      "Ġpp": 1456,
      "Ġpresente": 1457,
      "arias": 1458,
      "adr": 1459,
      "ĠAc": 1460,
      "Ġdivers": 1461,
      "ĠTr": 1462,
      "Ġ22": 1463,
      "Ġprocesos": 1464,
      "Ġ26": 1465,
      "decu": 1466,
      "Ġtres": 1467,
      "trum": 1468,
      "ase": 1469,
      "Ġpla": 1470,
      "und": 1471,
      "li": 1472,
      "Ġsentido": 1473,
      "org": 1474,
      "EL": 1475,
      "Ġafec": 1476,
      "Ġimportante": 1477,
      "Ġhis": 1478,
      "ÃŃtu": 1479,
      "xim": 1480,
      "Ġfundam": 1481,
      "Ġcontinu": 1482,
      "Ġigu": 1483,
      "Ġhe": 1484,
      "OL": 1485,
      "tÃ³": 1486,
      "Ġ2018": 1487,
      "Ġgrupo": 1488,
      "Ġadminis": 1489,
      "ĠTo": 1490,
      "iempre": 1491,
      "uente": 1492,
      "Ġpodr": 1493,
      "Ġindivid": 1494,
      "Ġnues": 1495,
      "ome": 1496,
      "ĠgestiÃ³n": 1497,
      "anci": 1498,
      "tual": 1499,
      "Ġconten": 1500,
      "Ġbuen": 1501,
      "tina": 1502,
      "Ġx": 1503,
      "Ġestable": 1504,
      "op": 1505,
      "Ġorganiz": 1506,
      "jos": 1507,
      "cr": 1508,
      "itar": 1509,
      "cer": 1510,
      "Ġcorrespon": 1511,
      "ĠSi": 1512,
      "uego": 1513,
      "Ġag": 1514,
      "Ġestrateg": 1515,
      "Ã±a": 1516,
      "Ġ2017": 1517,
      "Ġaprendizaje": 1518,
      "Ġcompr": 1519,
      "27": 1520,
      "Ġprimer": 1521,
      "mplo": 1522,
      "ĠquÃ©": 1523,
      "ombre": 1524,
      "Ġsa": 1525,
      "turas": 1526,
      "Ġrelacion": 1527,
      "orÃŃa": 1528,
      "eron": 1529,
      "Ġ28": 1530,
      "26": 1531,
      "ĠPar": 1532,
      "Ġera": 1533,
      "ĠEstado": 1534,
      "trucciÃ³n": 1535,
      "ut": 1536,
      "Ġmisma": 1537,
      "Ġpaci": 1538,
      "Ġmin": 1539,
      "Ġinici": 1540,
      "Ġorden": 1541,
      "Ġrepresent": 1542,
      "Ġsuper": 1543,
      ".-": 1544,
      "ĠpoblaciÃ³n": 1545,
      "ĠEste": 1546,
      "ep": 1547,
      "Ġotra": 1548,
      "port": 1549,
      "Ġobjetivo": 1550,
      "Ġproyecto": 1551,
      "Ġli": 1552,
      "Ġmodelo": 1553,
      "mit": 1554,
      "29": 1555,
      "Ġjur": 1556,
      "Ġmon": 1557,
      "Ġcier": 1558,
      "Ġidentific": 1559,
      "Ġrealizar": 1560,
      "ificaciÃ³n": 1561,
      "Ġpri": 1562,
      "Ġ29": 1563,
      "var": 1564,
      "Ġante": 1565,
      "Ġcompar": 1566,
      "Ġ2019": 1567,
      "IA": 1568,
      "Ġellos": 1569,
      "Ġries": 1570,
      "Ġ2020": 1571,
      "Ġbase": 1572,
      "Ġconocimiento": 1573,
      "Ġsegu": 1574,
      "ceso": 1575,
      "Ġbus": 1576,
      "Ġcumpl": 1577,
      "ĠSoci": 1578,
      "Ġfueron": 1579,
      "70": 1580,
      "ĠNacional": 1581,
      "oluciÃ³n": 1582,
      "Ġanaliz": 1583,
      "Ġdim": 1584,
      "Ġhi": 1585,
      "ducciÃ³n": 1586,
      "Ġsab": 1587,
      "Ġ2016": 1588,
      "28": 1589,
      "uridad": 1590,
      "ĠMe": 1591,
      "tud": 1592,
      "unque": 1593,
      "Ġpens": 1594,
      "ĠsÃŃ": 1595,
      "Ġhacia": 1596,
      "45": 1597,
      "Ã©m": 1598,
      "Ġbajo": 1599,
      "pen": 1600,
      "cos": 1601,
      "ĠQu": 1602,
      "ne": 1603,
      "lex": 1604,
      "ĠPa": 1605,
      "lement": 1606,
      "Ġ2015": 1607,
      "Ġtrad": 1608,
      "ĠSeg": 1609,
      "of": 1610,
      "AC": 1611,
      "Ġexperi": 1612,
      "ilidades": 1613,
      "Ġescri": 1614,
      "iar": 1615,
      "OM": 1616,
      "Ġrecursos": 1617,
      "paÃ±a": 1618,
      "lor": 1619,
      "Ġyo": 1620,
      "Ġmomento": 1621,
      "Ġ21": 1622,
      "Ġ50": 1623,
      "aban": 1624,
      "pr": 1625,
      "Ġlogr": 1626,
      "vin": 1627,
      "Ãºs": 1628,
      "Ġestabl": 1629,
      "Ġcaus": 1630,
      "Ġay": 1631,
      "Ġ................................................................": 1632,
      "Ġtodas": 1633,
      "Ġcasos": 1634,
      "200": 1635,
      "35": 1636,
      "val": 1637,
      "oma": 1638,
      "Ġcuales": 1639,
      "ublic": 1640,
      "Ġcur": 1641,
      "ulaciÃ³n": 1642,
      "Ġk": 1643,
      "Ġalum": 1644,
      "Ġactividad": 1645,
      "zas": 1646,
      "Ġej": 1647,
      "ĠMÃ©": 1648,
      "ancia": 1649,
      "medi": 1650,
      "Ġpropues": 1651,
      "ĠtÃ©r": 1652,
      "05": 1653,
      "75": 1654,
      "reg": 1655,
      "recu": 1656,
      "ted": 1657,
      "ĠCas": 1658,
      "ĠOb": 1659,
      "Ġtras": 1660,
      "Ġcan": 1661,
      "Ġconsum": 1662,
      "Ġhecho": 1663,
      "erg": 1664,
      "Ġmenos": 1665,
      "aboraciÃ³n": 1666,
      "Ġese": 1667,
      "obier": 1668,
      "Ġ2014": 1669,
      "Ġenfer": 1670,
      "uye": 1671,
      "pi": 1672,
      "Ġderechos": 1673,
      "ĠademÃ¡s": 1674,
      "Ġestado": 1675,
      "ficiente": 1676,
      "ÃŃtulo": 1677,
      "Ġadecu": 1678,
      "Ġejemplo": 1679,
      "ĠnÃºmero": 1680,
      "ĠCON": 1681,
      "Ġelec": 1682,
      "Ġintern": 1683,
      "fun": 1684,
      "Ġsiempre": 1685,
      "Ãī": 1686,
      "Ġpun": 1687,
      "Ġexper": 1688,
      "Ġplante": 1689,
      "erÃŃa": 1690,
      "Ġservicios": 1691,
      "ĠColomb": 1692,
      "Ġon": 1693,
      "ĠproducciÃ³n": 1694,
      "ĠniÃ±os": 1695,
      "Ġunivers": 1696,
      "posiciÃ³n": 1697,
      "Ġcondiciones": 1698,
      "Ġasoci": 1699,
      "ĠDi": 1700,
      "ĠES": 1701,
      "iere": 1702,
      "dis": 1703,
      "Ġvalores": 1704,
      "ĠCons": 1705,
      "Ġpal": 1706,
      "Ġ40": 1707,
      "Ġinstrum": 1708,
      "ED": 1709,
      "Ġmenci": 1710,
      "dose": 1711,
      "Ġmas": 1712,
      "ĠCo": 1713,
      "ĠCa": 1714,
      "icip": 1715,
      "ativo": 1716,
      "ĠpolÃŃtica": 1717,
      "itos": 1718,
      "Ġalcan": 1719,
      "Ġsociedad": 1720,
      "ĠMo": 1721,
      "Ġlim": 1722,
      "ĠSin": 1723,
      "Ġtecn": 1724,
      "Ġtan": 1725,
      "omÃŃa": 1726,
      "fr": 1727,
      "Ġne": 1728,
      "ticular": 1729,
      "Ġapar": 1730,
      "Ġind": 1731,
      "Ġtoda": 1732,
      "Ġigual": 1733,
      "Ġ:": 1734,
      "Ġeviden": 1735,
      "90": 1736,
      "Ġpunto": 1737,
      "Ġtemp": 1738,
      "36": 1739,
      "Ġmujeres": 1740,
      "Ã¡m": 1741,
      "ĠartÃŃculo": 1742,
      "Ġconv": 1743,
      "tesis": 1744,
      "Ġcri": 1745,
      "Ġdocu": 1746,
      "puÃ©s": 1747,
      "Ġlec": 1748,
      "Ġmundo": 1749,
      "ocer": 1750,
      "Ġley": 1751,
      "IO": 1752,
      "Ġraz": 1753,
      "isiÃ³n": 1754,
      "ĠGu": 1755,
      "--------": 1756,
      "78": 1757,
      "ĠsituaciÃ³n": 1758,
      "Ġaum": 1759,
      "tens": 1760,
      "Ġmodo": 1761,
      "Ġorig": 1762,
      "all": 1763,
      "34": 1764,
      "iment": 1765,
      "Ġpropia": 1766,
      "Ġequi": 1767,
      "istas": 1768,
      "ura": 1769,
      "Ġnatural": 1770,
      "Ġconj": 1771,
      "Ġdecis": 1772,
      "Ġprimera": 1773,
      "tivamente": 1774,
      "Ġado": 1775,
      "dan": 1776,
      "idera": 1777,
      "Ġrespons": 1778,
      "terio": 1779,
      "Ġ...": 1780,
      "Ġservicio": 1781,
      "fa": 1782,
      "ĠcÃ³mo": 1783,
      "Ġdebido": 1784,
      "ÃŃstica": 1785,
      "Ġexiste": 1786,
      "Ġpersona": 1787,
      "Ġcompet": 1788,
      "Ġlado": 1789,
      "esis": 1790,
      "Ġejer": 1791,
      "eÃ±o": 1792,
      "paÃ±ol": 1793,
      "Ġmes": 1794,
      "venciÃ³n": 1795,
      "RI": 1796,
      "Ġapoy": 1797,
      "ĠcomunicaciÃ³n": 1798,
      "puesta": 1799,
      "acionales": 1800,
      "Ġdem": 1801,
      "Ġcuanto": 1802,
      "Ġps": 1803,
      "ientras": 1804,
      "ĠaplicaciÃ³n": 1805,
      "Ġ2010": 1806,
      "Ġ2013": 1807,
      "Ġalgunos": 1808,
      "ĠRo": 1809,
      "dar": 1810,
      "has": 1811,
      "turales": 1812,
      "Ġcuy": 1813,
      "Ġposible": 1814,
      "Ġpermite": 1815,
      "Ġcomer": 1816,
      "Ġviol": 1817,
      "Ġcer": 1818,
      "ple": 1819,
      "ĠtÃ©rmin": 1820,
      "Ġ2012": 1821,
      "39": 1822,
      "Ġconta": 1823,
      "ĠAm": 1824,
      "ĠfÃŃs": 1825,
      "Ġestudios": 1826,
      "Ġdise": 1827,
      "In": 1828,
      "Ġdig": 1829,
      "Ġproblemas": 1830,
      "Ġmerc": 1831,
      "dez": 1832,
      "Ġ2021": 1833,
      "38": 1834,
      "Ġpregun": 1835,
      "Ġelementos": 1836,
      "uela": 1837,
      "embre": 1838,
      "ieron": 1839,
      "44": 1840,
      "encial": 1841,
      "Ġju": 1842,
      "Ġrela": 1843,
      "ign": 1844,
      "Ġjus": 1845,
      "AM": 1846,
      "Ġfi": 1847,
      "Ġur": 1848,
      "ulta": 1849,
      "ĠfunciÃ³n": 1850,
      "logÃŃa": 1851,
      "eza": 1852,
      "orno": 1853,
      "ĠMan": 1854,
      "Ġ35": 1855,
      "uda": 1856,
      "visiÃ³n": 1857,
      "ĠÃ³": 1858,
      "Ġvariables": 1859,
      "ĠMedi": 1860,
      "erram": 1861,
      "ĠColombia": 1862,
      "ĠCi": 1863,
      "Ã¼": 1864,
      "eric": 1865,
      "ĠformaciÃ³n": 1866,
      "Ġcapacidad": 1867,
      "Ġgu": 1868,
      "ĠDEL": 1869,
      "Ġah": 1870,
      "ban": 1871,
      "Ġindividu": 1872,
      "Ġenti": 1873,
      "Ġagua": 1874,
      "Ġoper": 1875,
      "tera": 1876,
      "Ġfinanci": 1877,
      "ach": 1878,
      "pone": 1879,
      "blic": 1880,
      "ĠLey": 1881,
      "ĠBo": 1882,
      "Ġlaboral": 1883,
      "tisf": 1884,
      "Ġcambio": 1885,
      "ĠatenciÃ³n": 1886,
      "Ġprue": 1887,
      "ĠsÃ³lo": 1888,
      "ĠlÃŃn": 1889,
      "ĠenseÃ±": 1890,
      "tem": 1891,
      "erramient": 1892,
      "IL": 1893,
      "ity": 1894,
      "Ġlen": 1895,
      "Ġch": 1896,
      "terna": 1897,
      "be": 1898,
      "Ġposi": 1899,
      "Ġpon": 1900,
      "Ġestableci": 1901,
      "Ġestar": 1902,
      "enefici": 1903,
      "Ġdeben": 1904,
      "ĠÃ©s": 1905,
      "65": 1906,
      "Con": 1907,
      "UN": 1908,
      "traciÃ³n": 1909,
      "ĠThe": 1910,
      "ĠorganizaciÃ³n": 1911,
      "Ġinclus": 1912,
      "ibles": 1913,
      "Ġsan": 1914,
      "Ġ2011": 1915,
      "pectos": 1916,
      "ĠReg": 1917,
      "Ġindic": 1918,
      "tantes": 1919,
      "ĠdÃŃa": 1920,
      "dific": 1921,
      "bre": 1922,
      "obierno": 1923,
      "ĠespecÃŃfic": 1924,
      "Ġsiendo": 1925,
      "Ġdar": 1926,
      "Ġinteres": 1927,
      "son": 1928,
      "Ġespacio": 1929,
      "ĠEspaÃ±a": 1930,
      "tran": 1931,
      "Ã©c": 1932,
      "Ġfactores": 1933,
      "Ġproblema": 1934,
      "una": 1935,
      "Ġsuje": 1936,
      "Ġmues": 1937,
      "ĠcaracterÃŃsticas": 1938,
      "tecciÃ³n": 1939,
      "tada": 1940,
      "37": 1941,
      "para": 1942,
      "illa": 1943,
      "lio": 1944,
      "inas": 1945,
      "Ġhor": 1946,
      "99": 1947,
      "ĠJu": 1948,
      "eras": 1949,
      "AT": 1950,
      "Ġregis": 1951,
      "pendi": 1952,
      "ation": 1953,
      "48": 1954,
      "Ġsiguiente": 1955,
      "Ġsex": 1956,
      "Ġantes": 1957,
      "ĠÃŃ": 1958,
      "Ġva": 1959,
      "Ġrelaciones": 1960,
      "ys": 1961,
      "puesto": 1962,
      "Ġempresas": 1963,
      "bo": 1964,
      "Ġparticular": 1965,
      "rig": 1966,
      "xico": 1967,
      "Ġimportancia": 1968,
      "avor": 1969,
      "acto": 1970,
      "Ġgen": 1971,
      "ĠAd": 1972,
      "Ġimplement": 1973,
      "rac": 1974,
      "Ġperio": 1975,
      "adÃ©m": 1976,
      "ĠUN": 1977,
      "Ġgrado": 1978,
      "cen": 1979,
      "EM": 1980,
      "Ġoblig": 1981,
      "Ġnecesario": 1982,
      "67": 1983,
      "ĠÃ¡rea": 1984,
      "Ġmani": 1985,
      "ĠevaluaciÃ³n": 1986,
      "Ġampl": 1987,
      "inaciÃ³n": 1988,
      "porte": 1989,
      "iÃ³": 1990,
      "cha": 1991,
      "Ġprocedi": 1992,
      "ĠseÃ±al": 1993,
      "BL": 1994,
      "Ġcorre": 1995,
      "Ġaunque": 1996,
      "Ġmanten": 1997,
      "ĠacciÃ³n": 1998,
      "adrid": 1999,
      "osa": 2000,
      "vestig": 2001,
      "perior": 2002,
      "cil": 2003,
      "Ġtrata": 2004,
      "Ġsos": 2005,
      "ENT": 2006,
      "rez": 2007,
      "ĠEducaciÃ³n": 2008,
      "Ġfrente": 2009,
      "Ġ2009": 2010,
      "ivo": 2011,
      "Ġsue": 2012,
      "Ġsector": 2013,
      "Ġliber": 2014,
      "Ġgrupos": 2015,
      "Ġreal": 2016,
      "dica": 2017,
      "arr": 2018,
      "Ġdesemp": 2019,
      "Ġexis": 2020,
      "Ġpu": 2021,
      "ĠLo": 2022,
      "Ġ2008": 2023,
      "Ġfil": 2024,
      "ĠInstitu": 2025,
      "df": 2026,
      "Ġesa": 2027,
      "69": 2028,
      "Ġherramient": 2029,
      "Ġcontexto": 2030,
      "pl": 2031,
      "Ġpresenta": 2032,
      "Ġgar": 2033,
      "formaciÃ³n": 2034,
      "Ġobjetivos": 2035,
      "ĠdiseÃ±o": 2036,
      "Ġconduc": 2037,
      "Ã©g": 2038,
      "Ã¡r": 2039,
      "Ġencuentra": 2040,
      "68": 2041,
      "ĠRevista": 2042,
      "Ġusu": 2043,
      "Ġmencion": 2044,
      "ical": 2045,
      "Ġobra": 2046,
      "Ġconsecu": 2047,
      "IT": 2048,
      "Ġven": 2049,
      "Ġriesgo": 2050,
      "IDAD": 2051,
      "ĠEL": 2052,
      "fÃŃa": 2053,
      "Ã¡fico": 2054,
      "ducir": 2055,
      "ĠÃºn": 2056,
      "Ġanterior": 2057,
      "Ġbenefici": 2058,
      "AP": 2059,
      "cup": 2060,
      "Ġcir": 2061,
      "olu": 2062,
      "Ġsiguientes": 2063,
      "tiz": 2064,
      "Ġsur": 2065,
      "ÃŃtica": 2066,
      "Ġprom": 2067,
      "ĠGr": 2068,
      "US": 2069,
      "tribuciÃ³n": 2070,
      "irm": 2071,
      "ĠÃģ": 2072,
      "UC": 2073,
      "Ġdif": 2074,
      "Ġcontrib": 2075,
      "ĠDer": 2076,
      "ĠdespuÃ©s": 2077,
      "ĠlÃŃ": 2078,
      "quis": 2079,
      "Ġmientras": 2080,
      "Ġ60": 2081,
      "vie": 2082,
      "Ġir": 2083,
      "ĠAN": 2084,
      "ĠpÃºblico": 2085,
      "ĠMin": 2086,
      "Ġbr": 2087,
      "Ġfrecu": 2088,
      "Ġmetodo": 2089,
      "79": 2090,
      "Ġpot": 2091,
      "ĠPre": 2092,
      "her": 2093,
      "Ġmenor": 2094,
      "Ġmedida": 2095,
      "ÃŃm": 2096,
      "ĠPol": 2097,
      "entar": 2098,
      "Ġdesarroll": 2099,
      "tido": 2100,
      "ĠprÃ¡ctica": 2101,
      "ĠJo": 2102,
      "49": 2103,
      "ell": 2104,
      "Ġ2007": 2105,
      "Ġveces": 2106,
      "ajes": 2107,
      "Ġterri": 2108,
      "amas": 2109,
      "Ġnacional": 2110,
      "Ġfamilia": 2111,
      "up": 2112,
      "Ġapor": 2113,
      "ĠMadrid": 2114,
      "uez": 2115,
      "Ġmercado": 2116,
      "Ġpatr": 2117,
      "Ġestrategias": 2118,
      "nal": 2119,
      "ĠpÃ¡g": 2120,
      "Ġpublic": 2121,
      "ĠUna": 2122,
      "Ġresultado": 2123,
      "istÃ³r": 2124,
      "demos": 2125,
      "Ġmov": 2126,
      "Ġaspectos": 2127,
      "ENCI": 2128,
      "Ġcentr": 2129,
      "tiene": 2130,
      "adora": 2131,
      "ting": 2132,
      "echa": 2133,
      "ĠconstrucciÃ³n": 2134,
      "dico": 2135,
      "Ġtab": 2136,
      "Ġvir": 2137,
      "umen": 2138,
      "ĠComo": 2139,
      "icamente": 2140,
      "Ġrealidad": 2141,
      "Ġproductos": 2142,
      "ĠparticipaciÃ³n": 2143,
      "onces": 2144,
      "Ġauto": 2145,
      "iso": 2146,
      "Ġdin": 2147,
      "estion": 2148,
      "Ġedi": 2149,
      "Ġhistoria": 2150,
      "izar": 2151,
      "ACION": 2152,
      "Ġ2006": 2153,
      "Ġpalab": 2154,
      "Ġselec": 2155,
      "ĠÃ©l": 2156,
      "ĠjurÃŃ": 2157,
      "Ġanti": 2158,
      "ĠpÃºblic": 2159,
      "55": 2160,
      "SS": 2161,
      "ies": 2162,
      "ĠPRO": 2163,
      "paci": 2164,
      "iva": 2165,
      "amb": 2166,
      "Ġmal": 2167,
      "usiÃ³n": 2168,
      "ipÃ³": 2169,
      "iciones": 2170,
      "Ġdeman": 2171,
      "ĠMÃ©xico": 2172,
      "ĠAsÃŃ": 2173,
      "IM": 2174,
      "ard": 2175,
      "01": 2176,
      "ĠinterÃ©s": 2177,
      "Ġfavor": 2178,
      "gas": 2179,
      "Ġacciones": 2180,
      "Ġfuncion": 2181,
      "ke": 2182,
      "Ġ38": 2183,
      "Ġseguridad": 2184,
      "Ġdeber": 2185,
      "Ġinterpre": 2186,
      "ĠFuente": 2187,
      "Ġpacientes": 2188,
      "Ġcompor": 2189,
      "Ġ31": 2190,
      "Ġpropor": 2191,
      "blica": 2192,
      "Ġtema": 2193,
      "Ġcualquier": 2194,
      "IV": 2195,
      "Ġefecto": 2196,
      "Ġagr": 2197,
      "cepciÃ³n": 2198,
      "Ġsatisf": 2199,
      "ĠAdemÃ¡s": 2200,
      "taciones": 2201,
      "igur": 2202,
      "ph": 2203,
      "pdf": 2204,
      "Ġ2022": 2205,
      "Ġpad": 2206,
      "Ġnuestro": 2207,
      "oto": 2208,
      "fe": 2209,
      "jas": 2210,
      "ior": 2211,
      "Ġgra": 2212,
      "Ġlargo": 2213,
      "torial": 2214,
      "mor": 2215,
      "sa": 2216,
      "Ġconform": 2217,
      "ĠAp": 2218,
      "Ġcanti": 2219,
      "66": 2220,
      "Ġexperiencia": 2221,
      "ecciÃ³n": 2222,
      "onales": 2223,
      "ĠespaÃ±ol": 2224,
      "TU": 2225,
      "Ġorient": 2226,
      "ciden": 2227,
      "mÃ¡tica": 2228,
      "tino": 2229,
      "Ġpap": 2230,
      "ĠGener": 2231,
      "Ġmil": 2232,
      "Ġ34": 2233,
      "Ġingres": 2234,
      "est": 2235,
      "ativas": 2236,
      "atro": 2237,
      "ipÃ³tesis": 2238,
      "Ġniveles": 2239,
      "Ġconjunto": 2240,
      "Ġnecesidad": 2241,
      "ĠPres": 2242,
      "ĠacadÃ©m": 2243,
      "Ġmor": 2244,
      "77": 2245,
      "ĠMon": 2246,
      "Ġedad": 2247,
      "ĠpolÃŃticas": 2248,
      "Ġdesta": 2249,
      "ĠmÃ¡": 2250,
      "culo": 2251,
      "Ġidenti": 2252,
      "Ġsignific": 2253,
      "Ġ45": 2254,
      "ĠJos": 2255,
      "Ġbienes": 2256,
      "lob": 2257,
      "posi": 2258,
      "Ġcuer": 2259,
      "ĠÃºltimo": 2260,
      "render": 2261,
      "cios": 2262,
      "Ġdocentes": 2263,
      "Ã©rica": 2264,
      "ormente": 2265,
      "eran": 2266,
      "gado": 2267,
      "Ġetc": 2268,
      "Ġmec": 2269,
      "centaje": 2270,
      "olÃ³gico": 2271,
      "Ġher": 2272,
      "Ġ2005": 2273,
      "entro": 2274,
      "ĠhabÃŃa": 2275,
      "Ġentonces": 2276,
      "Ġrecib": 2277,
      "31": 2278,
      "ultad": 2279,
      "Ġella": 2280,
      "32": 2281,
      "asa": 2282,
      "Ġclar": 2283,
      "Ġso": 2284,
      "Ġcomunidad": 2285,
      "ĠEsto": 2286,
      "Ġnuevo": 2287,
      "anas": 2288,
      "Ġejerci": 2289,
      "acil": 2290,
      "end": 2291,
      "Ġestad": 2292,
      "cho": 2293,
      "Ġestructura": 2294,
      "ĠII": 2295,
      "ĠFac": 2296,
      "olÃ³gica": 2297,
      "ĠÃ¡mbi": 2298,
      "64": 2299,
      "ĠgÃ©n": 2300,
      "reas": 2301,
      "portun": 2302,
      "Ġinde": 2303,
      "Ġcampo": 2304,
      "ticia": 2305,
      "imo": 2306,
      "Ġdescri": 2307,
      "ĠbÃ¡s": 2308,
      "ulo": 2309,
      "ug": 2310,
      "Ġproducto": 2311,
      "Ġemoci": 2312,
      "ĠPlan": 2313,
      "fil": 2314,
      "Ġmie": 2315,
      "ĠFin": 2316,
      "tric": 2317,
      "ber": 2318,
      "ĠserÃ¡": 2319,
      "tel": 2320,
      "Ġmos": 2321,
      "mon": 2322,
      "Ġred": 2323,
      "Ġconcre": 2324,
      "Ġenfo": 2325,
      "ves": 2326,
      "Ġsegundo": 2327,
      "TIV": 2328,
      "ambi": 2329,
      "Ġcultura": 2330,
      "Ġobjeto": 2331,
      "Ġacep": 2332,
      "tom": 2333,
      "cons": 2334,
      "mac": 2335,
      "bilidad": 2336,
      "Ġprincipal": 2337,
      "95": 2338,
      "ensiones": 2339,
      "tando": 2340,
      "Ġdocente": 2341,
      "Ġgas": 2342,
      "mbiente": 2343,
      "Ġprograma": 2344,
      "rir": 2345,
      "ecen": 2346,
      "centr": 2347,
      "tÃŃn": 2348,
      "ĠIntern": 2349,
      "ĠCap": 2350,
      "Ġcompon": 2351,
      "Ġrele": 2352,
      "iblio": 2353,
      "ĠdÃŃas": 2354,
      "ĠEdi": 2355,
      "74": 2356,
      "ques": 2357,
      "Ġmater": 2358,
      "Ġalgunas": 2359,
      "Ġis": 2360,
      "ono": 2361,
      "ĠpaÃŃses": 2362,
      "Ġtratamiento": 2363,
      "ĠPerÃº": 2364,
      "Ġtur": 2365,
      "ĠFran": 2366,
      "Ġllam": 2367,
      "Ġ36": 2368,
      "ocimiento": 2369,
      "Ã¡cter": 2370,
      "ĠLu": 2371,
      "Ġdicho": 2372,
      "Ġcabo": 2373,
      "De": 2374,
      "ler": 2375,
      "Ġmedios": 2376,
      "Ġfinal": 2377,
      "Ġindustr": 2378,
      "Ġconcepto": 2379,
      "ombres": 2380,
      "dap": 2381,
      "Ġsiglo": 2382,
      "lin": 2383,
      "Ã¡ndose": 2384,
      "Ġdej": 2385,
      "Ġrad": 2386,
      "teriormente": 2387,
      "ace": 2388,
      "ĠBuen": 2389,
      "ĠlÃŃnea": 2390,
      "CIÃĵN": 2391,
      "ICA": 2392,
      "dida": 2393,
      "............": 2394,
      "TR": 2395,
      "ĠEstudi": 2396,
      "ĠprÃ¡cticas": 2397,
      "echos": 2398,
      "ionales": 2399,
      "Ġloc": 2400,
      "ant": 2401,
      "Ġequ": 2402,
      "cel": 2403,
      "ĠCr": 2404,
      "Ġfe": 2405,
      "rag": 2406,
      "Ġ33": 2407,
      "Ġformas": 2408,
      "ner": 2409,
      "ĠCal": 2410,
      "ong": 2411,
      "Ġmunicip": 2412,
      "Ġvariable": 2413,
      "laz": 2414,
      "Ġpoco": 2415,
      "Ġincre": 2416,
      "Ġnecesidades": 2417,
      "98": 2418,
      "ili": 2419,
      "76": 2420,
      "Ġexplic": 2421,
      "Ãĳ": 2422,
      "ĠmayorÃŃa": 2423,
      "EZ": 2424,
      "Ġacceso": 2425,
      "dio": 2426,
      "??": 2427,
      "Ġmejorar": 2428,
      "Ġinflu": 2429,
      "Ġ2004": 2430,
      "ĠRec": 2431,
      "ÃįA": 2432,
      "quÃŃ": 2433,
      "Ġconocer": 2434,
      "ernÃ¡n": 2435,
      "bas": 2436,
      "alizar": 2437,
      "Ġreco": 2438,
      "ĠRE": 2439,
      "Ġpropie": 2440,
      "Ġefectos": 2441,
      "doi": 2442,
      "Ġconstr": 2443,
      "Ġdesp": 2444,
      "osp": 2445,
      "Ġperspec": 2446,
      "Ġmucho": 2447,
      "Ã³di": 2448,
      "Ġenferme": 2449,
      "ismos": 2450,
      "ech": 2451,
      "Ġtrabajadores": 2452,
      "ĠPo": 2453,
      "forma": 2454,
      "Ġmoder": 2455,
      "ĠenseÃ±anza": 2456,
      "Ġfalta": 2457,
      "Ġpan": 2458,
      "Ġmaterial": 2459,
      "Ġreferencia": 2460,
      "ĠpÃºblica": 2461,
      "Ã±as": 2462,
      "vado": 2463,
      "Ġcompa": 2464,
      "ender": 2465,
      "Ġprincipales": 2466,
      "Ġ32": 2467,
      "ĠcarÃ¡cter": 2468,
      "Ġtar": 2469,
      "bles": 2470,
      "Ġint": 2471,
      "Ġdispon": 2472,
      "Ġprofesional": 2473,
      "Ġpresencia": 2474,
      "az": 2475,
      "Ġesti": 2476,
      "Ġ39": 2477,
      "Ġall": 2478,
      "Ġeta": 2479,
      "Ġmul": 2480,
      "ĠdimensiÃ³n": 2481,
      "Ġabs": 2482,
      "eci": 2483,
      "Ġhaber": 2484,
      "ile": 2485,
      "Ġsens": 2486,
      "ĠÎ": 2487,
      "ĠSal": 2488,
      "pti": 2489,
      "Ġcient": 2490,
      "Ġmane": 2491,
      "Ġnuevas": 2492,
      "entas": 2493,
      "Ġ37": 2494,
      "ĠTe": 2495,
      "iene": 2496,
      "pas": 2497,
      "Ġalgo": 2498,
      "Ġ2000": 2499,
      "Ġviolencia": 2500,
      "Ġcateg": 2501,
      "oso": 2502,
      "ear": 2503,
      "Ġconflic": 2504,
      "Ġcambios": 2505,
      "Ġcolec": 2506,
      "Ġambient": 2507,
      "Ġcantidad": 2508,
      "Ġcontenido": 2509,
      "85": 2510,
      "ĠhistÃ³r": 2511,
      "Ġadministra": 2512,
      "ilar": 2513,
      "erca": 2514,
      "Ġespecial": 2515,
      "cripciÃ³n": 2516,
      "ÃŃstico": 2517,
      "Re": 2518,
      "Ġoportun": 2519,
      "Ġescol": 2520,
      "at": 2521,
      "Ġrespec": 2522,
      "exo": 2523,
      "ersiÃ³n": 2524,
      "su": 2525,
      "ĠteÃ³r": 2526,
      "Ġsistemas": 2527,
      "Ġ2003": 2528,
      "ernÃ¡ndez": 2529,
      "dor": 2530,
      "ADO": 2531,
      "Ġrecu": 2532,
      "amientos": 2533,
      "grama": 2534,
      "ĠmÃ©todo": 2535,
      "Ġcrecimiento": 2536,
      "UR": 2537,
      "dido": 2538,
      "Ġpromo": 2539,
      "Ġeso": 2540,
      "ecre": 2541,
      "46": 2542,
      "UM": 2543,
      "Ġvin": 2544,
      "imon": 2545,
      "don": 2546,
      "Ġpeque": 2547,
      "Ġalg": 2548,
      "si": 2549,
      "arrollo": 2550,
      "Ġrespuesta": 2551,
      "tional": 2552,
      "Ġmad": 2553,
      "Ġapoyo": 2554,
      "CO": 2555,
      "Ġconstituy": 2556,
      "Ġfigura": 2557,
      "Ġalto": 2558,
      "Ġalumnos": 2559,
      "Ġpermit": 2560,
      "Ġdef": 2561,
      "ÃŃfica": 2562,
      "Ġcla": 2563,
      "Ġprob": 2564,
      "Ġnuestra": 2565,
      "Ġfacil": 2566,
      "abajo": 2567,
      "Ġmedidas": 2568,
      "Ã³gica": 2569,
      "Ġprincipio": 2570,
      "Ġmostr": 2571,
      "Ġentr": 2572,
      "Ġmotiv": 2573,
      "Ġobtener": 2574,
      "88": 2575,
      "Ġprev": 2576,
      "ĠConstitu": 2577,
      "Figura": 2578,
      "Ġprueba": 2579,
      "icro": 2580,
      "ĠprotecciÃ³n": 2581,
      "dag": 2582,
      ".;": 2583,
      "ĠMun": 2584,
      "uales": 2585,
      "tions": 2586,
      "iza": 2587,
      "ĠVol": 2588,
      "leg": 2589,
      "seg": 2590,
      "ensa": 2591,
      "Ġub": 2592,
      "Al": 2593,
      "ĠinstituciÃ³n": 2594,
      "terios": 2595,
      "http": 2596,
      "Ġmuchos": 2597,
      "ĠJosÃ©": 2598,
      "Ġtexto": 2599,
      "inal": 2600,
      "ecuciÃ³n": 2601,
      "Ġreci": 2602,
      "eta": 2603,
      "Ġencuentran": 2604,
      "urope": 2605,
      "Se": 2606,
      "orÃŃas": 2607,
      "Ġpen": 2608,
      "parta": 2609,
      "ĠInvestig": 2610,
      "Ġluego": 2611,
      "tadas": 2612,
      "Ġbrin": 2613,
      "emos": 2614,
      "Ġconfi": 2615,
      "Ġquienes": 2616,
      "ICO": 2617,
      "ich": 2618,
      "47": 2619,
      "Ġdeterminar": 2620,
      "Ġpropuesta": 2621,
      "jus": 2622,
      "Ġmarco": 2623,
      "ii": 2624,
      "Ġpapel": 2625,
      "Ġ2002": 2626,
      "Ġdirig": 2627,
      "ĠImp": 2628,
      "ĠgÃ©nero": 2629,
      "illo": 2630,
      "Ġnueva": 2631,
      "Ġadap": 2632,
      "Ġinstituciones": 2633,
      "ĠGeneral": 2634,
      "Ġzona": 2635,
      "Ġnegoci": 2636,
      "Ġsem": 2637,
      "Ġsuperior": 2638,
      "vaciÃ³n": 2639,
      "mun": 2640,
      "Ġ80": 2641,
      "ĠJuan": 2642,
      "Ġlabor": 2643,
      "isterio": 2644,
      "Ġellas": 2645,
      "tÃ³n": 2646,
      "imos": 2647,
      "Ġsaber": 2648,
      "Ġdiferencia": 2649,
      "Ġdepen": 2650,
      "ĠLima": 2651,
      "imismo": 2652,
      "zos": 2653,
      "Ġambiente": 2654,
      "Ġpresentan": 2655,
      "tales": 2656,
      "ĠÃŃn": 2657,
      "Ġcorrec": 2658,
      "Ġestim": 2659,
      "Ġcapital": 2660,
      "todos": 2661,
      "Ġalta": 2662,
      "Ġcin": 2663,
      "dial": 2664,
      "TER": 2665,
      "pol": 2666,
      "tribu": 2667,
      "ĠtÃ©rminos": 2668,
      "Ġmateriales": 2669,
      "43": 2670,
      "entales": 2671,
      "perado": 2672,
      "Ġmateria": 2673,
      "Ġdific": 2674,
      "ulio": 2675,
      "Los": 2676,
      "Ġclase": 2677,
      "ajo": 2678,
      "ĠÃ¡mbito": 2679,
      "Ġlimit": 2680,
      "mar": 2681,
      "Ġlengu": 2682,
      "ĠdemÃ¡s": 2683,
      "tio": 2684,
      "Ġvig": 2685,
      "ĠEv": 2686,
      "Ġ48": 2687,
      "Ã¡me": 2688,
      "Ġactual": 2689,
      "Ġnuevos": 2690,
      "men": 2691,
      "Ġhumano": 2692,
      "grafÃŃa": 2693,
      "gentina": 2694,
      "dice": 2695,
      "xtos": 2696,
      "Ġce": 2697,
      "100": 2698,
      "Ġdismin": 2699,
      "Ġil": 2700,
      "ĠNe": 2701,
      "Ġrec": 2702,
      "uyen": 2703,
      "tive": 2704,
      "Ġfen": 2705,
      "nas": 2706,
      "Ġnormas": 2707,
      "Ãºblica": 2708,
      "Ġconsidera": 2709,
      "ĠpodrÃŃa": 2710,
      "ÃŃculos": 2711,
      "Ġdiscur": 2712,
      "Ġpuesto": 2713,
      "ĠCO": 2714,
      "ciales": 2715,
      "Ã¡fica": 2716,
      "ĠAu": 2717,
      "58": 2718,
      "Ġdecl": 2719,
      "Ġdesarrollar": 2720,
      "itaria": 2721,
      "Ġpsic": 2722,
      "ĠhipÃ³tesis": 2723,
      "corpor": 2724,
      "Ġcentro": 2725,
      "utr": 2726,
      "Ġestablecer": 2727,
      "Ġentorno": 2728,
      "ĠAL": 2729,
      "ativos": 2730,
      "paraciÃ³n": 2731,
      "inter": 2732,
      "Ġgrandes": 2733,
      "Ġnaturaleza": 2734,
      "Ġ70": 2735,
      "Ġprecis": 2736,
      "Ġrecom": 2737,
      "Ġat": 2738,
      "Ġdomin": 2739,
      "ith": 2740,
      "Ġpuntos": 2741,
      "unci": 2742,
      "ĠAC": 2743,
      "americ": 2744,
      "Ġjun": 2745,
      "Ġ2001": 2746,
      "Ġperman": 2747,
      "oce": 2748,
      "Ġprofun": 2749,
      "Por": 2750,
      "Ġoc": 2751,
      "Ġflu": 2752,
      "istema": 2753,
      "Ġdecisiones": 2754,
      "73": 2755,
      "Ġmuer": 2756,
      "................................................": 2757,
      "Ġgobierno": 2758,
      "Ġcuerpo": 2759,
      "ambiÃ©n": 2760,
      "ĠcompaÃ±": 2761,
      "arcÃŃa": 2762,
      "ĠPero": 2763,
      "RES": 2764,
      "fuer": 2765,
      "orte": 2766,
      "42": 2767,
      "ĠdesempeÃ±o": 2768,
      "ĠAnÃ¡lisis": 2769,
      "Ġmiemb": 2770,
      "ferencia": 2771,
      "agen": 2772,
      "endimiento": 2773,
      "Ã³digo": 2774,
      "Ġban": 2775,
      "Ġmedia": 2776,
      "Ġconcl": 2777,
      "ibr": 2778,
      "ĠHis": 2779,
      "inar": 2780,
      "ĠtÃ©cnica": 2781,
      "icidad": 2782,
      "ÃŃgen": 2783,
      "ĠSocial": 2784,
      "Ġproyectos": 2785,
      "Ġconsumo": 2786,
      "Ġenfoque": 2787,
      "ya": 2788,
      "Ġreflex": 2789,
      "Ġrequier": 2790,
      "gotÃ¡": 2791,
      "ire": 2792,
      "adamente": 2793,
      "yo": 2794,
      "Ġserie": 2795,
      "Ġcuatro": 2796,
      "ang": 2797,
      "ll": 2798,
      "Ġdicha": 2799,
      "ĠrazÃ³n": 2800,
      "Ġpropio": 2801,
      "Ġocas": 2802,
      "Ġsolici": 2803,
      "Ġtermin": 2804,
      "Ġconocimientos": 2805,
      "edio": 2806,
      "Ã©tica": 2807,
      "lej": 2808,
      "Ġrealiza": 2809,
      "Ġocur": 2810,
      "An": 2811,
      "como": 2812,
      "Ġaquellos": 2813,
      "Ġcultural": 2814,
      "Ġprovin": 2815,
      "Ġlograr": 2816,
      "ĠAdminis": 2817,
      "Ġautores": 2818,
      "tario": 2819,
      "ĠSalud": 2820,
      "Ġeducativa": 2821,
      "ĠEntre": 2822,
      "ĠComun": 2823,
      "ence": 2824,
      "ĠTotal": 2825,
      "08": 2826,
      "Ġexig": 2827,
      "ric": 2828,
      "Ġtabla": 2829,
      "Ġvista": 2830,
      "tuales": 2831,
      "bol": 2832,
      "quer": 2833,
      "ĠDirec": 2834,
      "Tabla": 2835,
      "ĠteorÃŃa": 2836,
      "Ġmodific": 2837,
      "59": 2838,
      "Ġpie": 2839,
      "Ã¡tica": 2840,
      "reci": 2841,
      "41": 2842,
      "Ġalguna": 2843,
      "Ġdado": 2844,
      "ĠeconÃ³mico": 2845,
      "Ġpodemos": 2846,
      "ĠMor": 2847,
      "ĠDerecho": 2848,
      "Ġvincul": 2849,
      "Ġsegunda": 2850,
      "ĠPe": 2851,
      "ienda": 2852,
      "Ġmismos": 2853,
      "Ġidea": 2854,
      "ger": 2855,
      "tuvo": 2856,
      "ulas": 2857,
      "Ġfamiliar": 2858,
      "ron": 2859,
      "urnal": 2860,
      "Ġimagen": 2861,
      "Ġhombre": 2862,
      "02": 2863,
      "teriores": 2864,
      "Ġperten": 2865,
      "Ġmuchas": 2866,
      "dir": 2867,
      "ĠĠĠĠ": 2868,
      "ila": 2869,
      "Ġtoma": 2870,
      "ires": 2871,
      "Ġsosten": 2872,
      "ds": 2873,
      "Ġinstrumento": 2874,
      "Ġpose": 2875,
      "irma": 2876,
      "inos": 2877,
      "Ġfunciones": 2878,
      "Ġtrib": 2879,
      "ĠBar": 2880,
      "log": 2881,
      "titud": 2882,
      "Ġerr": 2883,
      "pers": 2884,
      "Ġcorrespondi": 2885,
      "ĠÃ¡reas": 2886,
      "ĠPAR": 2887,
      "ende": 2888,
      "Ġalterna": 2889,
      "Ġindica": 2890,
      "ĠSegÃºn": 2891,
      "ĠmÃŃn": 2892,
      "ICI": 2893,
      "QU": 2894,
      "Ġequipo": 2895,
      "Ġrepresenta": 2896,
      "63": 2897,
      "ĠRecu": 2898,
      "Ġcomportamiento": 2899,
      "ins": 2900,
      "Ġfactor": 2901,
      "Ġcuestion": 2902,
      "ceden": 2903,
      "Ã³sito": 2904,
      "ĠCam": 2905,
      "Ġllegar": 2906,
      "Ġimpacto": 2907,
      "serv": 2908,
      "tificaciÃ³n": 2909,
      "itario": 2910,
      "Ġfis": 2911,
      "puestas": 2912,
      "igo": 2913,
      "Ġbo": 2914,
      "eas": 2915,
      "Ġrev": 2916,
      "Ġpel": 2917,
      "Ġperiodo": 2918,
      "ĠtÃ©cnicas": 2919,
      "Ġexisten": 2920,
      "Ġconci": 2921,
      "ĠEsc": 2922,
      "Ġhabilidades": 2923,
      "ĠdistribuciÃ³n": 2924,
      "72": 2925,
      "71": 2926,
      "Ġconserv": 2927,
      "No": 2928,
      "MA": 2929,
      "taria": 2930,
      "LA": 2931,
      "table": 2932,
      "03": 2933,
      "Ġpueb": 2934,
      "cionar": 2935,
      "Ġexist": 2936,
      "ĠDel": 2937,
      "89": 2938,
      "Ġdetal": 2939,
      "ĠcomÃºn": 2940,
      "for": 2941,
      "Ġtipos": 2942,
      "Ġmayores": 2943,
      "Ġespacios": 2944,
      "Ġincluso": 2945,
      "Ġglob": 2946,
      "tora": 2947,
      "Ġmecan": 2948,
      "Ġos": 2949,
      "Ã³l": 2950,
      "ficiencia": 2951,
      "onz": 2952,
      "Ġcosas": 2953,
      "unca": 2954,
      "Ġtier": 2955,
      "che": 2956,
      "Ġadop": 2957,
      "tancias": 2958,
      "Ġllev": 2959,
      "mite": 2960,
      "Ġpartes": 2961,
      "ht": 2962,
      "Ġdiferencias": 2963,
      "Ġavan": 2964,
      "Ġpadres": 2965,
      "Ġpalabras": 2966,
      "Ġsituaciones": 2967,
      "Ã©l": 2968,
      "aja": 2969,
      "ÃŃc": 2970,
      "Ġfuera": 2971,
      "0000": 2972,
      "ENTO": 2973,
      "Ġrespe": 2974,
      "dÃŃa": 2975,
      "ivos": 2976,
      "ĠeconÃ³mica": 2977,
      "Ġ55": 2978,
      "entan": 2979,
      "Ġelectr": 2980,
      "ĠaÃºn": 2981,
      "Ġdemo": 2982,
      "DO": 2983,
      "Ġderi": 2984,
      "dia": 2985,
      "ork": 2986,
      "Ġfundamental": 2987,
      "Ġdiag": 2988,
      "TOR": 2989,
      "IG": 2990,
      "62": 2991,
      "edu": 2992,
      "arra": 2993,
      "ĠBogotÃ¡": 2994,
      "ĠHum": 2995,
      "ice": 2996,
      "cionales": 2997,
      "idez": 2998,
      "Ġsean": 2999,
      "arÃŃa": 3000,
      "EX": 3001,
      "media": 3002,
      "au": 3003,
      "Ġdistintos": 3004,
      "olÃ³gicos": 3005,
      "Ġpesar": 3006,
      "ÃŃg": 3007,
      "Ġ42": 3008,
      "Ġanalizar": 3009,
      "Ġinternacional": 3010,
      "tÃ¡n": 3011,
      "ĠMarÃŃa": 3012,
      "ĠGarcÃŃa": 3013,
      "Ġobtenidos": 3014,
      "Ġlocal": 3015,
      "Ġextra": 3016,
      "Ġresponsabilidad": 3017,
      "Ġses": 3018,
      "Ġcivil": 3019,
      "ĠMartÃŃn": 3020,
      "Ġbi": 3021,
      "capaci": 3022,
      "04": 3023,
      "Ġ41": 3024,
      "vistas": 3025,
      "cidad": 3026,
      "Ġvan": 3027,
      "clusiÃ³n": 3028,
      "Ġmejora": 3029,
      "Ġurb": 3030,
      "Ġ49": 3031,
      "Ġexistencia": 3032,
      "aca": 3033,
      "estruc": 3034,
      "61": 3035,
      "Ġposibilidad": 3036,
      "ĠIns": 3037,
      "ĠEstados": 3038,
      "ĠEcon": 3039,
      "ps": 3040,
      "ess": 3041,
      "imen": 3042,
      "ospital": 3043,
      "lesc": 3044,
      "ĠcontinuaciÃ³n": 3045,
      "Ġpueda": 3046,
      "Ġsent": 3047,
      "abe": 3048,
      "Ġacerca": 3049,
      "greso": 3050,
      "ĠTambiÃ©n": 3051,
      "Ġhumanos": 3052,
      "cular": 3053,
      "acer": 3054,
      "lado": 3055,
      "Ġejercicio": 3056,
      "Ġambos": 3057,
      "Ġanim": 3058,
      "Ġperspectiva": 3059,
      "Ġprincipios": 3060,
      "Ġvo": 3061,
      "ril": 3062,
      "Ġincorpor": 3063,
      "Ġunos": 3064,
      "Ġrealizado": 3065,
      "gl": 3066,
      "imientos": 3067,
      "Ġnum": 3068,
      "ĠcreaciÃ³n": 3069,
      "ET": 3070,
      "ĠaquÃŃ": 3071,
      "Ġintro": 3072,
      "09": 3073,
      "ĠregiÃ³n": 3074,
      "Ġ2023": 3075,
      "Ġideas": 3076,
      "tiÃ³": 3077,
      "ance": 3078,
      "ALES": 3079,
      "entemente": 3080,
      "Ġhombres": 3081,
      "Ġprogramas": 3082,
      "Ã³nica": 3083,
      "iales": 3084,
      "AB": 3085,
      "af": 3086,
      "Ġ43": 3087,
      "Ġencar": 3088,
      "ĠMinisterio": 3089,
      "Ã¡tico": 3090,
      "peraciÃ³n": 3091,
      "Ġsocio": 3092,
      "Ġresulta": 3093,
      "mis": 3094,
      "Ġherramientas": 3095,
      "Ġestrategia": 3096,
      "dal": 3097,
      "Ġgaranti": 3098,
      "oo": 3099,
      "rero": 3100,
      "Ġlibertad": 3101,
      "torios": 3102,
      "ĠcorrelaciÃ³n": 3103,
      "igr": 3104,
      "Ġorigen": 3105,
      "Ġ44": 3106,
      "Ġejecu": 3107,
      "trac": 3108,
      "ĠArgentina": 3109,
      "Ġvarios": 3110,
      "Ġinfer": 3111,
      "ĠVer": 3112,
      "bir": 3113,
      "Ġconsecuencia": 3114,
      "quitec": 3115,
      "ĠISS": 3116,
      "Ġdemos": 3117,
      "DE": 3118,
      "uch": 3119,
      "Ġmus": 3120,
      "Ġinno": 3121,
      "gum": 3122,
      "Ġcomb": 3123,
      "ly": 3124,
      "Ġbuena": 3125,
      "ĠintervenciÃ³n": 3126,
      "Ġinci": 3127,
      "Ġdimensiones": 3128,
      "ĠfenÃ³m": 3129,
      "Ġcasa": 3130,
      "uso": 3131,
      "Ġsuperfici": 3132,
      "ION": 3133,
      "itaciÃ³n": 3134,
      "Ãºa": 3135,
      "ĠNa": 3136,
      "ĠElaboraciÃ³n": 3137,
      "ĠBuenos": 3138,
      "eti": 3139,
      "venes": 3140,
      "ergÃŃa": 3141,
      "ĠAires": 3142,
      "Ġconcentr": 3143,
      "ĠIII": 3144,
      "Ġ90": 3145,
      "idado": 3146,
      "Ġfon": 3147,
      "Ġaproxim": 3148,
      "ĠrealizÃ³": 3149,
      "say": 3150,
      "turo": 3151,
      "Ġprov": 3152,
      "Ġobserva": 3153,
      "genes": 3154,
      "Ġtesis": 3155,
      "Ġcog": 3156,
      "ĠPos": 3157,
      "adro": 3158,
      "Ġhacen": 3159,
      "vieron": 3160,
      "Ġmeses": 3161,
      "Ġdiversos": 3162,
      "Ġexperim": 3163,
      "Ġtales": 3164,
      "EG": 3165,
      "Ġredes": 3166,
      "ĠPal": 3167,
      "Ġinfl": 3168,
      "nÃ³s": 3169,
      "Ġcumplimiento": 3170,
      "Un": 3171,
      "ĠniÃ±o": 3172,
      "ĠsatisfacciÃ³n": 3173,
      "Ġru": 3174,
      "triz": 3175,
      "Ġescolar": 3176,
      "Ġcompetencias": 3177,
      "Ġmer": 3178,
      "culos": 3179,
      "Ġfortal": 3180,
      "tarse": 3181,
      "Ġopin": 3182,
      "ĠISSN": 3183,
      "ponible": 3184,
      "Ã©di": 3185,
      "Ġplazo": 3186,
      "Ġayud": 3187,
      "Ġcasi": 3188,
      "Ã³venes": 3189,
      "Ġpreten": 3190,
      "ju": 3191,
      "56": 3192,
      "Ã³gico": 3193,
      "Ġlibre": 3194,
      "ultura": 3195,
      "ULO": 3196,
      "Ġimportantes": 3197,
      "ĠEmp": 3198,
      "Ġth": 3199,
      "Ġhoras": 3200,
      "pes": 3201,
      "ĠJournal": 3202,
      "ultados": 3203,
      "Ġnombre": 3204,
      "ĠsoluciÃ³n": 3205,
      "Ġtradici": 3206,
      "ĠÃį": 3207,
      "Ġll": 3208,
      "uerra": 3209,
      "Ġentender": 3210,
      "dera": 3211,
      "Ġidentificar": 3212,
      "Ġdistintas": 3213,
      "Ġidentidad": 3214,
      "Ġhemos": 3215,
      "Pro": 3216,
      "itales": 3217,
      "iana": 3218,
      "ingun": 3219,
      "ĠTri": 3220,
      "ciembre": 3221,
      "iano": 3222,
      "Ġhub": 3223,
      "Ġlenguaje": 3224,
      "ĠdÃ©": 3225,
      "Ġadi": 3226,
      "Ġdese": 3227,
      "ĠdinÃ¡m": 3228,
      "ural": 3229,
      "Ġcriterios": 3230,
      "ĠCan": 3231,
      "53": 3232,
      "Ġep": 3233,
      "Ġinstal": 3234,
      "cin": 3235,
      "Ġhoy": 3236,
      "Ġpuedan": 3237,
      "Ġgenerar": 3238,
      "57": 3239,
      "ERS": 3240,
      "Ġdiversas": 3241,
      "econ": 3242,
      "Para": 3243,
      "Ġ1999": 3244,
      "Ġllevar": 3245,
      "Ġesper": 3246,
      "Ġmodelos": 3247,
      "Ġanal": 3248,
      "Ġdice": 3249,
      "izo": 3250,
      "ĠEstos": 3251,
      "ĠimplementaciÃ³n": 3252,
      "Ġagu": 3253,
      "Ġofici": 3254,
      "ĠĠĊ": 3255,
      "ĠXX": 3256,
      "unta": 3257,
      "Ġalim": 3258,
      "Ġsignificativa": 3259,
      "ĠejecuciÃ³n": 3260,
      "Ġinstrumentos": 3261,
      "Ġsujeto": 3262,
      "genier": 3263,
      "54": 3264,
      "uros": 3265,
      "arcel": 3266,
      "lez": 3267,
      "Ġprimero": 3268,
      "Ġtuvo": 3269,
      "Ġclientes": 3270,
      "Ġmaes": 3271,
      "ĠCiencias": 3272,
      "Ġadolesc": 3273,
      "Ġwith": 3274,
      "ĠexpresiÃ³n": 3275,
      "Ġimplica": 3276,
      "Ġarte": 3277,
      "Ġmanifes": 3278,
      "Ġtempera": 3279,
      "ĠDesarrollo": 3280,
      "ĠpolÃŃtico": 3281,
      "Ġdeclar": 3282,
      "Ġmiembros": 3283,
      "Ġdenomin": 3284,
      "Ġ46": 3285,
      "Ġlegis": 3286,
      "hib": 3287,
      "Ġobras": 3288,
      "----------------": 3289,
      "ĠalgÃºn": 3290,
      "Ġahora": 3291,
      "cun": 3292,
      "Ġlleg": 3293,
      "partamento": 3294,
      "07": 3295,
      "ĠRecuperado": 3296,
      "Ġpriv": 3297,
      "CA": 3298,
      "Ġescala": 3299,
      ".:": 3300,
      "DUC": 3301,
      "52": 3302,
      "Ġpreguntas": 3303,
      "Ġetapa": 3304,
      "Ã¡ndo": 3305,
      "iÃ©n": 3306,
      "ĠmetodologÃŃa": 3307,
      "Ġ47": 3308,
      "ÃŃos": 3309,
      "Ġprofesionales": 3310,
      "TAD": 3311,
      "Ġeducativo": 3312,
      "ĠTi": 3313,
      "Ġlectura": 3314,
      "ĠcomprensiÃ³n": 3315,
      "ĠGonz": 3316,
      "ĠRodr": 3317,
      "ĠsÃŃn": 3318,
      "Ġrelev": 3319,
      "Ġlog": 3320,
      "51": 3321,
      "Ġpensamiento": 3322,
      "ĠfÃ¡": 3323,
      "uls": 3324,
      "Ġ;": 3325,
      "Ã¡p": 3326,
      "ĠEcu": 3327,
      "ĠQuÃ©": 3328,
      "rob": 3329,
      "acias": 3330,
      "PA": 3331,
      "Ġteniendo": 3332,
      "Ġmens": 3333,
      "Ġrefiere": 3334,
      "Ġescuela": 3335,
      "Ġbio": 3336,
      "OG": 3337,
      "Ġale": 3338,
      "ĠAb": 3339,
      "Ġacom": 3340,
      "Ġelabor": 3341,
      "ĠfÃŃsica": 3342,
      "oluc": 3343,
      "ĠPÃ¡g": 3344,
      "ĠSol": 3345,
      "pez": 3346,
      "Ġporcentaje": 3347,
      "Ġdemanda": 3348,
      "Ġcompetencia": 3349,
      "ĠCentro": 3350,
      "Ġmicro": 3351,
      "Ġba": 3352,
      "ximo": 3353,
      "ticamente": 3354,
      "Ġocup": 3355,
      "Ġmol": 3356,
      "Ġinfluencia": 3357,
      "Ġpaso": 3358,
      "ĠGestiÃ³n": 3359,
      "ologÃŃas": 3360,
      "Ġrelig": 3361,
      "Ġtrabajos": 3362,
      "trÃŃa": 3363,
      "ĠOrgan": 3364,
      "Ġpromedio": 3365,
      "Ġeran": 3366,
      "Ġayuda": 3367,
      "96": 3368,
      "ultades": 3369,
      "ĠDa": 3370,
      "Ġcob": 3371,
      "ĠPs": 3372,
      "arcelona": 3373,
      "Ġtitu": 3374,
      "Ġdirecta": 3375,
      "teratura": 3376,
      "Ġ1998": 3377,
      "ĠRES": 3378,
      "Ġnorma": 3379,
      "Ġconstante": 3380,
      "ĠDios": 3381,
      "tÃ©g": 3382,
      "poner": 3383,
      "ĠjÃ³venes": 3384,
      "ĠNO": 3385,
      "Ġmanifi": 3386,
      "06": 3387,
      "Ġusuarios": 3388,
      "torias": 3389,
      "trito": 3390,
      "ĠTrabajo": 3391,
      "Ġtomar": 3392,
      "ulares": 3393,
      "puestos": 3394,
      "ĠmÃ©todos": 3395,
      "ĠadministraciÃ³n": 3396,
      "Ġbusca": 3397,
      "soci": 3398,
      "Ġfrecuencia": 3399,
      "ĠInstituto": 3400,
      "tubre": 3401,
      "Ġcausa": 3402,
      "ĠIV": 3403,
      "Ġmemor": 3404,
      "ĠcrÃŃ": 3405,
      "Ġvolun": 3406,
      "Ġdemostr": 3407,
      "Ġ58": 3408,
      "Ã©tr": 3409,
      "segur": 3410,
      "Ġdocument": 3411,
      "Ġmeta": 3412,
      "vent": 3413,
      "Ġafirm": 3414,
      "Ġunidad": 3415,
      "ira": 3416,
      "ĠserÃŃa": 3417,
      "aluaciÃ³n": 3418,
      "Ġsuelo": 3419,
      "Ġrecol": 3420,
      "ian": 3421,
      "Ġvul": 3422,
      "IZ": 3423,
      "ĠAg": 3424,
      "Ġhal": 3425,
      "Ġsecund": 3426,
      "ĠSa": 3427,
      "Ġrequer": 3428,
      "Ġestablece": 3429,
      "Ġasum": 3430,
      "abil": 3431,
      "Ġargum": 3432,
      "Ġfuerza": 3433,
      "ĠcondiciÃ³n": 3434,
      "Ġmulti": 3435,
      "Ġtendr": 3436,
      "IR": 3437,
      "Ġresid": 3438,
      "Ġesfuer": 3439,
      "Ãºsque": 3440,
      "Ġmanejo": 3441,
      "Ġobservar": 3442,
      "adoras": 3443,
      "Ġaumento": 3444,
      "enes": 3445,
      "Ġestudiante": 3446,
      "Ġdescrip": 3447,
      "ĠtÃ©rmino": 3448,
      "Ġbaja": 3449,
      "Ġpaciente": 3450,
      "clusiones": 3451,
      "Las": 3452,
      "ĠeconomÃŃa": 3453,
      "ĠServ": 3454,
      "Ġinm": 3455,
      "vas": 3456,
      "Ġmovimiento": 3457,
      "ology": 3458,
      "Ġaten": 3459,
      "bil": 3460,
      "Ġtransform": 3461,
      "Ġevidencia": 3462,
      "ĠObje": 3463,
      "BA": 3464,
      "ĠCOM": 3465,
      "ĠAR": 3466,
      "Ġpedag": 3467,
      "ĠcientÃŃfic": 3468,
      "Ġrendimiento": 3469,
      "ty": 3470,
      "Ġvent": 3471,
      "Ġcambi": 3472,
      "ĠposiciÃ³n": 3473,
      "Ġajus": 3474,
      "ĠparÃ¡me": 3475,
      "ĠrealizaciÃ³n": 3476,
      "ĠCl": 3477,
      "Ġho": 3478,
      "ĠMay": 3479,
      "idaciÃ³n": 3480,
      "ĠArt": 3481,
      "Ġaliment": 3482,
      "ÃŃcti": 3483,
      "CH": 3484,
      "nes": 3485,
      "Ġhaci": 3486,
      "ĠPrim": 3487,
      "ĠÃ©po": 3488,
      "Ġ59": 3489,
      "leo": 3490,
      "imonio": 3491,
      "Ġescen": 3492,
      "Ġ51": 3493,
      "olÃ³gicas": 3494,
      "Ġimplic": 3495,
      "ĠperÃŃo": 3496,
      "ĠDisponible": 3497,
      "ĠCorte": 3498,
      "Ġutilizar": 3499,
      "Ġespecialmente": 3500,
      "Ġclave": 3501,
      "Ġtemas": 3502,
      "grÃ¡fic": 3503,
      "Ġorganizaciones": 3504,
      "Ġmir": 3505,
      "Ġterritorio": 3506,
      "Ġambiental": 3507,
      "Ġ75": 3508,
      "ĠenergÃŃa": 3509,
      "Ġconver": 3510,
      "Ġpresu": 3511,
      "rera": 3512,
      "Ġprofesor": 3513,
      "EP": 3514,
      "ĠAmÃ©rica": 3515,
      "elo": 3516,
      "ĠpropÃ³sito": 3517,
      "84": 3518,
      "ĠNuev": 3519,
      "Ġubic": 3520,
      "Ġhora": 3521,
      "Ġdescon": 3522,
      "Ġadul": 3523,
      "ĠInvestigaciÃ³n": 3524,
      "ĠConse": 3525,
      "Ġmm": 3526,
      "uyendo": 3527,
      "ĠBarcelona": 3528,
      "Ġconceptos": 3529,
      "Ġmag": 3530,
      "Ġpercib": 3531,
      "clo": 3532,
      "Ġhijos": 3533,
      "Ġcinco": 3534,
      "Fuente": 3535,
      "ua": 3536,
      "cam": 3537,
      "ĠLi": 3538,
      "Ġenfermedad": 3539,
      "Ġterc": 3540,
      "Ġcontenidos": 3541,
      "ĠÃŃtem": 3542,
      "Ġposib": 3543,
      "tent": 3544,
      "rende": 3545,
      "Ġpregunta": 3546,
      "ite": 3547,
      "86": 3548,
      "ĠclÃŃn": 3549,
      "capacidad": 3550,
      "Ġparece": 3551,
      "Ġcliente": 3552,
      "Ġcumplir": 3553,
      "enciales": 3554,
      "isti": 3555,
      "Ġprocedimiento": 3556,
      "zado": 3557,
      "ĠelaboraciÃ³n": 3558,
      "Ġcuyo": 3559,
      "Ġ52": 3560,
      "Ġzonas": 3561,
      "ĠCos": 3562,
      "ples": 3563,
      "ĠpÃ©r": 3564,
      "Ġtama": 3565,
      "Ġevaluar": 3566,
      "mÃ¡ticas": 3567,
      "Ġexperiencias": 3568,
      "diÃ³": 3569,
      "Ar": 3570,
      "ardo": 3571,
      "ese": 3572,
      "Ġinterior": 3573,
      "Ãºsqueda": 3574,
      "Ġcostos": 3575,
      "Ġencues": 3576,
      "Ġmantener": 3577,
      "Ġq": 3578,
      "ĠpÃºblicas": 3579,
      "Ãļ": 3580,
      "Ã©gimen": 3581,
      "Ġ53": 3582,
      "uesto": 3583,
      "taron": 3584,
      "cido": 3585,
      "ĠTrans": 3586,
      "pir": 3587,
      "AG": 3588,
      "PL": 3589,
      "ÃŃci": 3590,
      "Ġfuentes": 3591,
      "Ġ1997": 3592,
      "ĠGran": 3593,
      "Ġcontrario": 3594,
      "ĠIb": 3595,
      "97": 3596,
      "itan": 3597,
      "Ġevitar": 3598,
      "Ġ65": 3599,
      "olver": 3600,
      "Ġelemento": 3601,
      "Ġpeso": 3602,
      "Ġemocional": 3603,
      "ĠAnexo": 3604,
      "Ġestaba": 3605,
      "Ġrequiere": 3606,
      "ÃŃguez": 3607,
      "Ã³me": 3608,
      "viembre": 3609,
      "ĠSanta": 3610,
      "Ġfase": 3611,
      "ĠdiseÃ±": 3612,
      "orn": 3613,
      "III": 3614,
      "Ġlig": 3615,
      "ĠpÃºblicos": 3616,
      "ĠvisiÃ³n": 3617,
      "Ġsac": 3618,
      "Ġcarga": 3619,
      "Ġinterac": 3620,
      "Ġinvoluc": 3621,
      "Ġparticipantes": 3622,
      "ĠdecisiÃ³n": 3623,
      "iber": 3624,
      "Ġcoord": 3625,
      "94": 3626,
      "hat": 3627,
      "Ġestr": 3628,
      "Ġabier": 3629,
      "Ġjue": 3630,
      "ificar": 3631,
      "ÃŃr": 3632,
      "tag": 3633,
      "Ã³pez": 3634,
      "dicos": 3635,
      "Ã©ctr": 3636,
      "ĠdirecciÃ³n": 3637,
      "ĠIs": 3638,
      "ĠAsimismo": 3639,
      "Ġcolor": 3640,
      "Ġpudi": 3641,
      "jar": 3642,
      "Ġasegur": 3643,
      "Ġgenera": 3644,
      "ĠForm": 3645,
      "izado": 3646,
      "Ġrepro": 3647,
      "Ġconsiderar": 3648,
      "Ġherramienta": 3649,
      "trol": 3650,
      "Ġsir": 3651,
      "93": 3652,
      "Ġaspecto": 3653,
      "Ġintereses": 3654,
      "ĠQue": 3655,
      "ĠLuis": 3656,
      "Ġinicial": 3657,
      "Ġinstitucional": 3658,
      "Ġgan": 3659,
      "Ġobstante": 3660,
      "ĠFe": 3661,
      "itud": 3662,
      "Ġindependi": 3663,
      "ĠBan": 3664,
      "ĠCuando": 3665,
      "Ġpron": 3666,
      "Ġlibro": 3667,
      "Ġseguir": 3668,
      "Ġfuturo": 3669,
      "idor": 3670,
      "Ġsolu": 3671,
      "omiso": 3672,
      "Ġdigital": 3673,
      "Ġpermitir": 3674,
      "Ġmate": 3675,
      "ĠHu": 3676,
      "ĠdÃ©c": 3677,
      "Ġnada": 3678,
      "Ġ54": 3679,
      "uos": 3680,
      "ĠMAR": 3681,
      "nÃ³stico": 3682,
      "ĠMu": 3683,
      "idente": 3684,
      "alizado": 3685,
      "Ġriesgos": 3686,
      "if": 3687,
      "ĠÃº": 3688,
      "ate": 3689,
      "Ġcuar": 3690,
      "83": 3691,
      "acio": 3692,
      "ĠTor": 3693,
      "TAL": 3694,
      "Ġbiblio": 3695,
      "chez": 3696,
      "ture": 3697,
      "Ġencontrar": 3698,
      "Ġcolabor": 3699,
      "ĠÃ³r": 3700,
      "Ġtrabajar": 3701,
      "eficiente": 3702,
      "Ġdemocr": 3703,
      "Ġconven": 3704,
      "Ġningun": 3705,
      "Ã³nico": 3706,
      "tol": 3707,
      "dÃ¡c": 3708,
      "Ġreconocimiento": 3709,
      "Ġprincipalmente": 3710,
      "Ġaprob": 3711,
      "its": 3712,
      "ĠvÃŃcti": 3713,
      "ĠacompaÃ±": 3714,
      "CL": 3715,
      "Ġregistr": 3716,
      "cto": 3717,
      "cuns": 3718,
      "Ġcrear": 3719,
      "ĠinteracciÃ³n": 3720,
      "Ġmuestran": 3721,
      "antil": 3722,
      "Ġcorpor": 3723,
      "Ġenero": 3724,
      "92": 3725,
      "ĠBol": 3726,
      "Ġpop": 3727,
      "Ġsimple": 3728,
      "Ġotor": 3729,
      "Ġdiciembre": 3730,
      "ĠDo": 3731,
      "Ġgus": 3732,
      "IP": 3733,
      "presiÃ³n": 3734,
      "areas": 3735,
      "ĠtecnologÃŃa": 3736,
      "ENCIA": 3737,
      "Ġ95": 3738,
      "Ġran": 3739,
      "ÃŃsticos": 3740,
      "udicial": 3741,
      "ĠHe": 3742,
      "Ġ56": 3743,
      "Ġcierto": 3744,
      "ĠTÃ©cn": 3745,
      "Ġfinalidad": 3746,
      "Ġindividuos": 3747,
      "IÃĵN": 3748,
      "SO": 3749,
      "ĠpercepciÃ³n": 3750,
      "Ġluc": 3751,
      "ĠseÃ±ala": 3752,
      "Ġcm": 3753,
      "tienen": 3754,
      "ieren": 3755,
      "idores": 3756,
      "Ġjuego": 3757,
      "yecto": 3758,
      "ĠLOS": 3759,
      "quil": 3760,
      "Ġvac": 3761,
      "Ġhaya": 3762,
      "bu": 3763,
      "ĠÃºltimos": 3764,
      "Ġdic": 3765,
      "ĠFacultad": 3766,
      "oft": 3767,
      "Ġcuya": 3768,
      "Ġmismas": 3769,
      "tus": 3770,
      "Ã¡lez": 3771,
      "Ã©tico": 3772,
      "Ġmuerte": 3773,
      "ĠSistema": 3774,
      "Ġamor": 3775,
      "ĠinterpretaciÃ³n": 3776,
      "otros": 3777,
      "Ġcogni": 3778,
      "Ġdescu": 3779,
      "Ġnunca": 3780,
      "cla": 3781,
      "dero": 3782,
      "tero": 3783,
      "Ġadecuada": 3784,
      "Ġpermiten": 3785,
      "uido": 3786,
      "87": 3787,
      "ĠNivel": 3788,
      "Ġvarias": 3789,
      "Ġhid": 3790,
      "tenido": 3791,
      "Ġcomprender": 3792,
      "Ġculturales": 3793,
      "Ġintens": 3794,
      "Ġ1996": 3795,
      "Ġ57": 3796,
      "Ġpositiva": 3797,
      "ingÃºn": 3798,
      "ĠEcuador": 3799,
      "teral": 3800,
      "91": 3801,
      "Ġbar": 3802,
      "Ġcentral": 3803,
      "DA": 3804,
      "Ġdom": 3805,
      "Ã¡genes": 3806,
      "ciona": 3807,
      "Ġecu": 3808,
      "Ġalter": 3809,
      "ĠrevisiÃ³n": 3810,
      "pÃºblica": 3811,
      "Ġfecha": 3812,
      "enemos": 3813,
      "ĠacadÃ©mico": 3814,
      "nidad": 3815,
      "Ġhechos": 3816,
      "gel": 3817,
      "vel": 3818,
      "Ġaus": 3819,
      "ĠartÃŃculos": 3820,
      "ĠPla": 3821,
      "Ġjusticia": 3822,
      "Ġactores": 3823,
      "Ġpobl": 3824,
      "ival": 3825,
      "demia": 3826,
      "ĠHistoria": 3827,
      "OC": 3828,
      "ware": 3829,
      "iel": 3830,
      "ogra": 3831,
      "Ġclases": 3832,
      "ĠcuestiÃ³n": 3833,
      "Ġpasado": 3834,
      "Ġplata": 3835,
      "Ġ00": 3836,
      "ĠbÃºsqueda": 3837,
      "ĠTesis": 3838,
      "Ġempleo": 3839,
      "To": 3840,
      "Ġjulio": 3841,
      "Ġperson": 3842,
      "Ġcrisis": 3843,
      "Ġunas": 3844,
      "Ġline": 3845,
      "gosto": 3846,
      "Ġfamilias": 3847,
      "ĠdidÃ¡c": 3848,
      "view": 3849,
      "Ġprocedimientos": 3850,
      "Ġrequis": 3851,
      "ENTE": 3852,
      "ĠVari": 3853,
      "Ġcorresponde": 3854,
      "Ġbeneficios": 3855,
      "Des": 3856,
      "trateg": 3857,
      "Ġaudi": 3858,
      "IENTO": 3859,
      "iro": 3860,
      "Ġensay": 3861,
      "Ġtareas": 3862,
      "Ġmill": 3863,
      "Ġsujetos": 3864,
      "ĠAnton": 3865,
      "ĠtamaÃ±o": 3866,
      "ĠSig": 3867,
      "ĠcapÃŃtulo": 3868,
      "ulos": 3869,
      "pan": 3870,
      "Ġjunto": 3871,
      "Ġmayo": 3872,
      "Ġenfr": 3873,
      "grÃ¡fica": 3874,
      "Ġindividual": 3875,
      "Ġexter": 3876,
      "Ġtierra": 3877,
      "Ġdisc": 3878,
      "Ġcompeti": 3879,
      "ral": 3880,
      "Ġalcanzar": 3881,
      "Ġfran": 3882,
      "Ġliteratura": 3883,
      "ĠDic": 3884,
      "Ġalmac": 3885,
      "ĠmÃºs": 3886,
      "Ġentidad": 3887,
      "Ġsome": 3888,
      "rel": 3889,
      "ĠÃ©poca": 3890,
      "pia": 3891,
      "urante": 3892,
      "Com": 3893,
      "ferencias": 3894,
      "unal": 3895,
      "itas": 3896,
      "forme": 3897,
      "ola": 3898,
      "81": 3899,
      "CION": 3900,
      "tida": 3901,
      "antita": 3902,
      "Ġcub": 3903,
      "Ġdan": 3904,
      "Ġcomunic": 3905,
      "ĠPas": 3906,
      "aces": 3907,
      "ĠDesde": 3908,
      "Ġusuario": 3909,
      "onte": 3910,
      "ĠLÃ³pez": 3911,
      "Ġrelacionados": 3912,
      "ĠestratÃ©g": 3913,
      "Ġprimeros": 3914,
      "Ġol": 3915,
      "ĠDoc": 3916,
      "Ã¡nica": 3917,
      "Ġfoto": 3918,
      "ariamente": 3919,
      "Ġhom": 3920,
      "ĠimÃ¡genes": 3921,
      "Ġjuris": 3922,
      "82": 3923,
      "Ġge": 3924,
      "Ġ1995": 3925,
      "Ġjunio": 3926,
      "TRO": 3927,
      "ĠÃ©ste": 3928,
      "Ġcircuns": 3929,
      "itarios": 3930,
      "cina": 3931,
      "Ġdiscip": 3932,
      "Ġposibles": 3933,
      "ĠConstituciÃ³n": 3934,
      "pens": 3935,
      "entaciÃ³n": 3936,
      "ĠdefiniciÃ³n": 3937,
      "ĠperÃŃodo": 3938,
      "edades": 3939,
      "ĠCÃ³digo": 3940,
      "tensiÃ³n": 3941,
      "enos": 3942,
      "Ġpropios": 3943,
      "Ġhog": 3944,
      "ĠRel": 3945,
      "Ġmenores": 3946,
      "tiendo": 3947,
      "Ġfuncionamiento": 3948,
      "ĠRa": 3949,
      "Ġdiscurso": 3950,
      "ĠRodrÃŃguez": 3951,
      "DI": 3952,
      "ĠSO": 3953,
      "Ã©rez": 3954,
      "ago": 3955,
      "Ġindicadores": 3956,
      "Ġdu": 3957,
      "Ġentidades": 3958,
      "lle": 3959,
      "iera": 3960,
      "tical": 3961,
      "Ġqued": 3962,
      "Ġexperiment": 3963,
      "ĠConsejo": 3964,
      "este": 3965,
      "Ġenferm": 3966,
      "Ġvulner": 3967,
      "Ġtemperatura": 3968,
      "ĠinversiÃ³n": 3969,
      "Ġindividuo": 3970,
      "Ġcel": 3971,
      "pal": 3972,
      "ĠningÃºn": 3973,
      "ĠMunicip": 3974,
      "arÃ¡n": 3975,
      "Ġusted": 3976,
      "ĠÃºltima": 3977,
      "ĠEstas": 3978,
      "igna": 3979,
      "ĠcÃ¡l": 3980,
      "Ġfilos": 3981,
      "esor": 3982,
      "Ġ..": 3983,
      "ĠPARA": 3984,
      "ingÃ¼": 3985,
      "Ġabord": 3986,
      "Ġconstruc": 3987,
      "ptiembre": 3988,
      "Ġaquellas": 3989,
      "ev": 3990,
      "Ġproduce": 3991,
      "Ġminu": 3992,
      "ĠTh": 3993,
      "Ġtextos": 3994,
      "Ġhumana": 3995,
      "Ġfuente": 3996,
      "Ġconfianza": 3997,
      "Ġclaro": 3998,
      "tizaciÃ³n": 3999,
      "Ġinvestigaciones": 4000,
      "ebrero": 4001,
      "dustr": 4002,
      "vir": 4003,
      "Ġregular": 4004,
      "Ġrespuestas": 4005,
      "Ġreconoci": 4006,
      "Ġtele": 4007,
      "ajas": 4008,
      "Ġdirectamente": 4009,
      "Ġasign": 4010,
      "Ġconflicto": 4011,
      "Ġfrom": 4012,
      "tista": 4013,
      "ĠJus": 4014,
      "Ġsexual": 4015,
      "ĠEurope": 4016,
      "Res": 4017,
      "Ġgenerales": 4018,
      "Ã¡nchez": 4019,
      "rece": 4020,
      "Ġfuerte": 4021,
      "Ġcump": 4022,
      "zan": 4023,
      "Ġcuidado": 4024,
      "JE": 4025,
      "UE": 4026,
      "ĠTra": 4027,
      "pedi": 4028,
      "Ġbe": 4029,
      "tegr": 4030,
      "ĠmÃ³": 4031,
      "ame": 4032,
      "Ġespecies": 4033,
      "LO": 4034,
      "Ġartic": 4035,
      "Ġ1994": 4036,
      "Ġincrement": 4037,
      "Ġanteriores": 4038,
      "Ġcomponentes": 4039,
      "ofÃŃa": 4040,
      "Ġcomunidades": 4041,
      "diendo": 4042,
      "Ġingresos": 4043,
      "Ġperfil": 4044,
      "Ġesos": 4045,
      "Ġnaci": 4046,
      "posiciones": 4047,
      "Ġaula": 4048,
      "Ġpago": 4049,
      "titudes": 4050,
      "Ġexam": 4051,
      "ĠTer": 4052,
      "Ġclima": 4053,
      "illas": 4054,
      "ĠGal": 4055,
      "Ġmano": 4056,
      "Ġ61": 4057,
      "Ġpruebas": 4058,
      "Ġglobal": 4059,
      "Ġhizo": 4060,
      "Ġ................................................................................": 4061,
      "ĠserÃ¡n": 4062,
      "Ġtenemos": 4063,
      "Ġnaturales": 4064,
      "plic": 4065,
      "itantes": 4066,
      "Ġarquitec": 4067,
      "ĠevoluciÃ³n": 4068,
      "ĠCarlos": 4069,
      "ÃįT": 4070,
      "001": 4071,
      "Ġinicio": 4072,
      "Ġresto": 4073,
      "Ġadecuado": 4074,
      "ĠresoluciÃ³n": 4075,
      "Ġnuestros": 4076,
      "Ġ63": 4077,
      "Ġreun": 4078,
      "Ġconce": 4079,
      "Ġfundamentales": 4080,
      "ĠmotivaciÃ³n": 4081,
      "ilares": 4082,
      "ĠallÃ¡": 4083,
      "Ġprofundi": 4084,
      "via": 4085,
      "Ġofrec": 4086,
      "ligencia": 4087,
      "ertura": 4088,
      "MP": 4089,
      "Ġcargo": 4090,
      "Ġevidenci": 4091,
      "ĠInf": 4092,
      "ĠcrÃŃtica": 4093,
      "Ġmarzo": 4094,
      "Ġresistencia": 4095,
      "Ġanteriormente": 4096,
      "Ãºmero": 4097,
      "Ġtiempos": 4098,
      "ĠBa": 4099,
      "Ġprovincia": 4100,
      "Ġlengua": 4101,
      "Ġ64": 4102,
      "ĠGobierno": 4103,
      "Ġsectores": 4104,
      "Ġacto": 4105,
      "alizada": 4106,
      "ficacia": 4107,
      "Ġinmedia": 4108,
      "Ġproduci": 4109,
      "ĠrÃ¡p": 4110,
      "ĠÃ©x": 4111,
      "ivencia": 4112,
      "ĠtenÃŃa": 4113,
      "Ġblan": 4114,
      "ĠInternacional": 4115,
      "Ġpensar": 4116,
      "ĠmÃºlti": 4117,
      "ĠrepresentaciÃ³n": 4118,
      "ocup": 4119,
      "ĠvÃŃa": 4120,
      "enciones": 4121,
      "udo": 4122,
      "Ġpare": 4123,
      "Ġdocumento": 4124,
      "crim": 4125,
      "Ġ1993": 4126,
      "VI": 4127,
      "din": 4128,
      "Ġutilizando": 4129,
      "ecreto": 4130,
      "Ġconfigur": 4131,
      "Ġdiferenci": 4132,
      "Ġmemoria": 4133,
      "Ġweb": 4134,
      "Ġconsul": 4135,
      "iri": 4136,
      "cisco": 4137,
      "Ġelim": 4138,
      "ĠGonzÃ¡lez": 4139,
      "Ġtransporte": 4140,
      "iares": 4141,
      "Ġcomen": 4142,
      "arial": 4143,
      "ĠindÃŃgen": 4144,
      "Ġluz": 4145,
      "ĠInternet": 4146,
      "rique": 4147,
      "Ġcomien": 4148,
      "Ġreac": 4149,
      "etas": 4150,
      "Ġras": 4151,
      "Ġby": 4152,
      "Ġconcreto": 4153,
      "ĠparÃ¡metros": 4154,
      "Ġequipos": 4155,
      "Ġtraduc": 4156,
      "keting": 4157,
      "ega": 4158,
      "Ġrom": 4159,
      "Ġtenido": 4160,
      "UD": 4161,
      "Ġpreven": 4162,
      "opera": 4163,
      "As": 4164,
      "ĠPers": 4165,
      "ĠCent": 4166,
      "zgo": 4167,
      "Ġvia": 4168,
      "Ġvuel": 4169,
      "Ġrevis": 4170,
      "Ġambas": 4171,
      "Ġtorno": 4172,
      "Ġabril": 4173,
      "ĠfenÃ³meno": 4174,
      "Ġcoin": 4175,
      "tidos": 4176,
      "Cu": 4177,
      "Ġaplicar": 4178,
      "FIC": 4179,
      "ĠgeneraciÃ³n": 4180,
      "oco": 4181,
      "idar": 4182,
      "ĠChile": 4183,
      "tral": 4184,
      "Ġdocumentos": 4185,
      "Ġlleva": 4186,
      "Ġdestin": 4187,
      "rÃŃa": 4188,
      "Ġdefine": 4189,
      "Ġ62": 4190,
      "Ġextre": 4191,
      "Ġbarr": 4192,
      "ey": 4193,
      "Ġauton": 4194,
      "enda": 4195,
      "Ġpropias": 4196,
      "emen": 4197,
      "ĠEstudios": 4198,
      "ĠCre": 4199,
      "Ġbusc": 4200,
      "pie": 4201,
      "untos": 4202,
      "ĠcrÃ©di": 4203,
      "Ġlegal": 4204,
      "ĠSci": 4205,
      "tidi": 4206,
      "ĠrÃ©gimen": 4207,
      "Ġ66": 4208,
      "Ġmarca": 4209,
      "SA": 4210,
      "500": 4211,
      "Ġpueblo": 4212,
      "Ġ67": 4213,
      "ĠAntonio": 4214,
      "Ġtor": 4215,
      "ĠfÃ¡cil": 4216,
      "misiÃ³n": 4217,
      "ACIONES": 4218,
      "ĠResultados": 4219,
      "acuer": 4220,
      "Ġprior": 4221,
      "arca": 4222,
      "Ġimag": 4223,
      "ector": 4224,
      "Ġcontar": 4225,
      "ĠSo": 4226,
      "ticip": 4227,
      "Ġpuer": 4228,
      "Ġdiv": 4229,
      "JO": 4230,
      "art": 4231,
      "Ġconstituye": 4232,
      "ases": 4233,
      "riente": 4234,
      "Ġverda": 4235,
      "ĠFernÃ¡ndez": 4236,
      "ĠTec": 4237,
      "Ġcompromiso": 4238,
      "Ġrol": 4239,
      "Ġintegral": 4240,
      "Ġbienestar": 4241,
      "Ġsob": 4242,
      "Ġsuficiente": 4243,
      "Ġopera": 4244,
      "organ": 4245,
      "xima": 4246,
      "Ġmadre": 4247,
      "ime": 4248,
      "ESTI": 4249,
      "Ġconseg": 4250,
      "Ġcentros": 4251,
      "NA": 4252,
      "Ġoctubre": 4253,
      "ĠIg": 4254,
      "Ġciencia": 4255,
      "Ġcuestionario": 4256,
      "Ġciclo": 4257,
      "Ġed": 4258,
      "ck": 4259,
      "Ġarm": 4260,
      "Ã¡lo": 4261,
      "Ġdeterminado": 4262,
      "Ġdetec": 4263,
      "Ġfom": 4264,
      "fac": 4265,
      "Ġpropiedad": 4266,
      "ĠAdministraciÃ³n": 4267,
      "Ġconstitucional": 4268,
      "Ġponer": 4269,
      "ĠespecÃŃfico": 4270,
      "Ġproteg": 4271,
      "cedentes": 4272,
      "ciente": 4273,
      "ĠFun": 4274,
      "ULTAD": 4275,
      "estructura": 4276,
      "Ġprove": 4277,
      "Ġfer": 4278,
      "Ġutiliza": 4279,
      "ĠcomparaciÃ³n": 4280,
      "mites": 4281,
      "Ġencuesta": 4282,
      "tarÃŃa": 4283,
      "duce": 4284,
      "Ġadolescentes": 4285,
      "Ġdedic": 4286,
      "Ġconsiste": 4287,
      "Ġobjetos": 4288,
      "Ġcontrato": 4289,
      "PER": 4290,
      "Ġsecu": 4291,
      "itor": 4292,
      "Ġcurso": 4293,
      "vech": 4294,
      "Ġvelo": 4295,
      "Ġid": 4296,
      "Ġlocales": 4297,
      "ĠAG": 4298,
      "rup": 4299,
      "Ġexperimental": 4300,
      "ivas": 4301,
      "ĠPen": 4302,
      "IB": 4303,
      "Ġcolomb": 4304,
      "Ġcompos": 4305,
      "delante": 4306,
      "CON": 4307,
      "Ġeleg": 4308,
      "Ġquer": 4309,
      "ĠSon": 4310,
      "Ġpenal": 4311,
      "Ġconducta": 4312,
      "ĠahÃŃ": 4313,
      "rar": 4314,
      "rede": 4315,
      "ST": 4316,
      "Ġcrea": 4317,
      "Ġmuestras": 4318,
      "Ġextran": 4319,
      "earch": 4320,
      "Ġdificultades": 4321,
      "Ġcontemp": 4322,
      "ĠRepÃºblica": 4323,
      "Ġsuce": 4324,
      "ĠintegraciÃ³n": 4325,
      "ĠjurÃŃdico": 4326,
      "OD": 4327,
      "enso": 4328,
      "Ġtribu": 4329,
      "Ġverdad": 4330,
      "Ġfines": 4331,
      "Ġlar": 4332,
      "vÃŃa": 4333,
      "Ġregistro": 4334,
      "esiÃ³n": 4335,
      "Ġempleados": 4336,
      "ĠHo": 4337,
      "Ġactualidad": 4338,
      "Ġorganizacional": 4339,
      "ĠhÃ¡": 4340,
      "Ġunidades": 4341,
      "Ġpubl": 4342,
      "ĠPh": 4343,
      "Ġapreci": 4344,
      "Ġmillones": 4345,
      "Ġhaciendo": 4346,
      "Ġges": 4347,
      "abora": 4348,
      "Ġeficiencia": 4349,
      "ĠDES": 4350,
      "Ġtarea": 4351,
      "Ġmarc": 4352,
      "ĠSÃ¡nchez": 4353,
      "delo": 4354,
      "Ġrecurso": 4355,
      "ĠAD": 4356,
      "Ġsuperficie": 4357,
      "ĠCAR": 4358,
      "ĠÃī": 4359,
      "Ġemerg": 4360,
      "Ġpin": 4361,
      "Ġcoloc": 4362,
      "ĠMartÃŃnez": 4363,
      "omas": 4364,
      "ĠSU": 4365,
      "ĠDecreto": 4366,
      "ĠUnidos": 4367,
      "grado": 4368,
      "ĠÃºnico": 4369,
      "ĠdiagnÃ³stico": 4370,
      "ĠeconÃ³micos": 4371,
      "Ġrecha": 4372,
      "ĠespecÃŃficos": 4373,
      "ĠselecciÃ³n": 4374,
      "Ġ................................................................................................": 4375,
      "Ġer": 4376,
      "ĠPÃ©rez": 4377,
      "Ġgracias": 4378,
      "Ġpotencial": 4379,
      "ĠtÃŃtulo": 4380,
      "Ġorigin": 4381,
      "Ġgarantizar": 4382,
      "ÃŃamos": 4383,
      "Ġinterna": 4384,
      "quiera": 4385,
      "Ġdependi": 4386,
      "ĠSer": 4387,
      "mer": 4388,
      "Ġnutr": 4389,
      "Ġcorrespondiente": 4390,
      "oftware": 4391,
      "Ġquiere": 4392,
      "Ġ72": 4393,
      "obern": 4394,
      "ficientes": 4395,
      "Ġcoleg": 4396,
      "dicas": 4397,
      "Ġ68": 4398,
      "ĠAh": 4399,
      "ĠYo": 4400,
      "ĠÃ©xito": 4401,
      "ĠValle": 4402,
      "Ġtasa": 4403,
      "ml": 4404,
      "ĠAy": 4405,
      "Ġpropuestas": 4406,
      "irse": 4407,
      "Ġfru": 4408,
      "ĠsecciÃ³n": 4409,
      "ĠÏ": 4410,
      "gre": 4411,
      "Ġapropi": 4412,
      "aremos": 4413,
      "ĠEditorial": 4414,
      "ĠÃ©sta": 4415,
      "acuerdo": 4416,
      "Ġdiferente": 4417,
      "Ġmecanismos": 4418,
      "DIC": 4419,
      "econÃ³m": 4420,
      "Ġguerra": 4421,
      "genierÃŃa": 4422,
      "ive": 4423,
      "dena": 4424,
      "Ġalimentos": 4425,
      "Ġesque": 4426,
      "Ġseleccion": 4427,
      "ĠVI": 4428,
      "ueba": 4429,
      "Ġpelig": 4430,
      "ambio": 4431,
      "Ġrecomend": 4432,
      "ff": 4433,
      "lamento": 4434,
      "terial": 4435,
      "ÃŃcil": 4436,
      "ĠDIS": 4437,
      "ik": 4438,
      "Ġintelec": 4439,
      "Ġresolver": 4440,
      "Ġrepor": 4441,
      "Ġ1991": 4442,
      "Ġresal": 4443,
      "Ġhuman": 4444,
      "ĠrecolecciÃ³n": 4445,
      "Ġinfec": 4446,
      "Ġ85": 4447,
      "Ġnosotros": 4448,
      "ĠreducciÃ³n": 4449,
      "ĠEd": 4450,
      "????": 4451,
      "ĠutilizaciÃ³n": 4452,
      "esa": 4453,
      "Ġnoviembre": 4454,
      "EA": 4455,
      "Ġprote": 4456,
      "ĠOB": 4457,
      "ĠFrancisco": 4458,
      "ĠRos": 4459,
      "Ġconciencia": 4460,
      "Ġexplica": 4461,
      "ĠelÃ©ctr": 4462,
      "nado": 4463,
      "Ġgente": 4464,
      "Ġenf": 4465,
      "Ġadelante": 4466,
      "Ġrecor": 4467,
      "Ġbal": 4468,
      "ulado": 4469,
      "Ġcualita": 4470,
      "CU": 4471,
      "ÃŃp": 4472,
      "ÃŃcol": 4473,
      "Ġcamino": 4474,
      "ĠRu": 4475,
      "Ġ69": 4476,
      "Ġais": 4477,
      "Ġib": 4478,
      "ERO": 4479,
      "Ġcitado": 4480,
      "ack": 4481,
      "Ġcriterio": 4482,
      "ongitud": 4483,
      "ĠDiseÃ±o": 4484,
      "uelas": 4485,
      "Ġposterior": 4486,
      "ĠRam": 4487,
      "ĠcategorÃŃa": 4488,
      "trop": 4489,
      "Ġguar": 4490,
      "rÃ¡": 4491,
      "Ġoperaciones": 4492,
      "ĠFinalmente": 4493,
      "Ġninguna": 4494,
      "Ġorg": 4495,
      "ĠopiniÃ³n": 4496,
      "ĠfÃŃsico": 4497,
      "ĠSur": 4498,
      "mej": 4499,
      "ĠMag": 4500,
      "Ġcapacidades": 4501,
      "Ġsigue": 4502,
      "2019": 4503,
      "Ġeducativas": 4504,
      "Ġec": 4505,
      "Ġpalabra": 4506,
      "abilidades": 4507,
      "Ġ71": 4508,
      "ĠRey": 4509,
      "ĠUr": 4510,
      "isten": 4511,
      "Ġreligios": 4512,
      "ĠtecnologÃŃas": 4513,
      "edro": 4514,
      "ĠAmb": 4515,
      "istro": 4516,
      "one": 4517,
      "Ġprofesores": 4518,
      "ĠSub": 4519,
      "apa": 4520,
      "Ġdistrito": 4521,
      "Ġincluye": 4522,
      "TRA": 4523,
      "bal": 4524,
      "ĠSI": 4525,
      "Ġcuantita": 4526,
      "Ġprecio": 4527,
      "Ġrealizan": 4528,
      "iderazgo": 4529,
      "Ġnecesaria": 4530,
      "Ġcosto": 4531,
      "ĠpolÃŃticos": 4532,
      "Ġutilizado": 4533,
      "Ġhablar": 4534,
      "Ġcru": 4535,
      "Ġmez": 4536,
      "ser": 4537,
      "Ġpropone": 4538,
      "Ġtercer": 4539,
      "Ġsimilar": 4540,
      "Ġesas": 4541,
      "eÃ±": 4542,
      "ĠdisposiciÃ³n": 4543,
      "icia": 4544,
      "tig": 4545,
      "fas": 4546,
      "Ġdisposi": 4547,
      "Ġcontacto": 4548,
      "ĠCÃ³mo": 4549,
      "Ġtradicional": 4550,
      "Ġcomprob": 4551,
      "ĠCiv": 4552,
      "Ġgeo": 4553,
      "Ġsil": 4554,
      "Ġentrada": 4555,
      "Ġblo": 4556,
      "domin": 4557,
      "Ġacum": 4558,
      "ĠplanificaciÃ³n": 4559,
      "ĠOp": 4560,
      "ideo": 4561,
      "Ġrecl": 4562,
      "olo": 4563,
      "Ġprecios": 4564,
      "ĠReal": 4565,
      "Ġprogram": 4566,
      "idencia": 4567,
      "Ġinternacionales": 4568,
      "tologÃŃa": 4569,
      "Ġcomplement": 4570,
      "Ġrealizada": 4571,
      "ĠSch": 4572,
      "Ġtendencia": 4573,
      "ĠCI": 4574,
      "Ġcotidi": 4575,
      "Ġlaborales": 4576,
      "cesos": 4577,
      "ĠCAP": 4578,
      "ĠAP": 4579,
      "ĠGe": 4580,
      "Ex": 4581,
      "toral": 4582,
      "Ġindustria": 4583,
      "Ġ1990": 4584,
      "americana": 4585,
      "Ã³gicas": 4586,
      "ĠdifÃŃcil": 4587,
      "Ġreducir": 4588,
      "ĠidentificaciÃ³n": 4589,
      "Ġ1992": 4590,
      "ablemente": 4591,
      "ENCIAS": 4592,
      "Ġconsol": 4593,
      "Ġinvers": 4594,
      "Ġconsecuencias": 4595,
      "Ġnove": 4596,
      "aliza": 4597,
      "ĠLAS": 4598,
      "Ġdiversidad": 4599,
      "Ġpresentar": 4600,
      "ĠHernÃ¡ndez": 4601,
      "Ġsuf": 4602,
      "Ġveh": 4603,
      "Ġplanta": 4604,
      "Ġfa": 4605,
      "Ġ73": 4606,
      "https": 4607,
      "ĠTrib": 4608,
      "Ġcele": 4609,
      "ĠjurÃŃdica": 4610,
      "antiago": 4611,
      "ĠmÃ¡ximo": 4612,
      "Ġ................................................": 4613,
      "MS": 4614,
      "Ġincremento": 4615,
      "Ġfamiliares": 4616,
      "Ġquin": 4617,
      "PE": 4618,
      "Ġdefini": 4619,
      "uestos": 4620,
      "rios": 4621,
      "tible": 4622,
      "Ġafirma": 4623,
      "grÃ¡fico": 4624,
      "ĠpodrÃ¡": 4625,
      "Ġmotivo": 4626,
      "Ġcolon": 4627,
      "Ġexclus": 4628,
      "Ġcit": 4629,
      "Ġleyes": 4630,
      "Ġconex": 4631,
      "2020": 4632,
      "Ġprac": 4633,
      "Ġrelacionadas": 4634,
      "ĠTecn": 4635,
      "teca": 4636,
      "Ġenfermedades": 4637,
      "ĠinclusiÃ³n": 4638,
      "Ġger": 4639,
      "ĠLatina": 4640,
      "Ġpobre": 4641,
      "ĠallÃŃ": 4642,
      "Ġreflej": 4643,
      "Ġofrece": 4644,
      "ĠprÃ³": 4645,
      "zada": 4646,
      "Ġresiduos": 4647,
      "ĠGo": 4648,
      "Ġderiv": 4649,
      "rido": 4650,
      "ĠhabÃŃan": 4651,
      "TES": 4652,
      "yn": 4653,
      "Ġconflictos": 4654,
      "ĠcategorÃŃas": 4655,
      "ĠEvaluaciÃ³n": 4656,
      "Ġsug": 4657,
      "Ġigualdad": 4658,
      "2018": 4659,
      "ficio": 4660,
      "Ġinterno": 4661,
      "lada": 4662,
      "Ġsexo": 4663,
      "ĠpresiÃ³n": 4664,
      "ĠvaloraciÃ³n": 4665,
      "Ġentrevista": 4666,
      "aya": 4667,
      "Ġlugares": 4668,
      "ĠestrÃ©s": 4669,
      "ker": 4670,
      "lesia": 4671,
      "ilo": 4672,
      "Ġrazones": 4673,
      "IVERS": 4674,
      "Ġestructuras": 4675,
      "Ġflex": 4676,
      "ĠpÃ©rdida": 4677,
      "Ã¡les": 4678,
      "Ġabsolu": 4679,
      "Ġsup": 4680,
      "uropa": 4681,
      "troducciÃ³n": 4682,
      "ĠprevenciÃ³n": 4683,
      "Ġtenga": 4684,
      "Ġoportunidad": 4685,
      "quez": 4686,
      "peti": 4687,
      "Ġabor": 4688,
      "TOS": 4689,
      "ĠlÃŃneas": 4690,
      "ĠconcentraciÃ³n": 4691,
      "ĠteÃ³rico": 4692,
      "Ġcausas": 4693,
      "Ġdistancia": 4694,
      "Ġef": 4695,
      "sec": 4696,
      "Ġmantenimiento": 4697,
      "Ġinterv": 4698,
      "ĠIden": 4699,
      "Ġofer": 4700,
      "vancia": 4701,
      "amo": 4702,
      "Ġcalcul": 4703,
      "Ġplantea": 4704,
      "Ġseis": 4705,
      "ĠMal": 4706,
      "ĠÃ¡n": 4707,
      "ĠProvin": 4708,
      "ienen": 4709,
      "ĠJa": 4710,
      "Si": 4711,
      "Ġinfra": 4712,
      "ĠSobre": 4713,
      "Ġpersonales": 4714,
      "aran": 4715,
      "Ġcontamin": 4716,
      "ĠHospital": 4717,
      "ĠinnovaciÃ³n": 4718,
      "Ġinferior": 4719,
      "Ġaire": 4720,
      "ĠOc": 4721,
      "Ġsubje": 4722,
      "ĠSala": 4723,
      "ĠdeberÃ¡": 4724,
      "Ã³mez": 4725,
      "Ġdesplaz": 4726,
      "dra": 4727,
      "Ġaun": 4728,
      "fon": 4729,
      "ĠÃŃndice": 4730,
      "ĠniÃ±as": 4731,
      "glÃ©s": 4732,
      "Ġincon": 4733,
      "ĠControl": 4734,
      "Ġmetodol": 4735,
      "Ġterren": 4736,
      "ĠOR": 4737,
      "tificar": 4738,
      "Ġestablecido": 4739,
      "Ġcorte": 4740,
      "ueve": 4741,
      "Ġapartado": 4742,
      "ĠGer": 4743,
      "Ġcosa": 4744,
      "ĠmÃºltiples": 4745,
      "Ġactos": 4746,
      "ĠcÃ©l": 4747,
      "uma": 4748,
      "tuaciÃ³n": 4749,
      "entre": 4750,
      "Ġoportunidades": 4751,
      "mitir": 4752,
      "ĠPue": 4753,
      "ĠGru": 4754,
      "Ġthat": 4755,
      "vol": 4756,
      "Ġsuma": 4757,
      "ĠEX": 4758,
      "Ġfab": 4759,
      "Ġgo": 4760,
      "ĠCivil": 4761,
      "Ġmoral": 4762,
      "uras": 4763,
      "ĠobservaciÃ³n": 4764,
      "Ġsentencia": 4765,
      "Ġrespectivamente": 4766,
      "Ġ99": 4767,
      "ierte": 4768,
      "Ġvisto": 4769,
      "ĠmediciÃ³n": 4770,
      "ix": 4771,
      "ĠManuel": 4772,
      "trans": 4773,
      "ĠtransformaciÃ³n": 4774,
      "ĠNorm": 4775,
      "Ġsurg": 4776,
      "mes": 4777,
      "Ġaprovech": 4778,
      "tagon": 4779,
      "igual": 4780,
      "ĠAgr": 4781,
      "riÃ³": 4782,
      "Ġ76": 4783,
      "Ġacce": 4784,
      "Ġ77": 4785,
      "ĠseÃ±or": 4786,
      "BI": 4787,
      "FER": 4788,
      "Ġentendi": 4789,
      "trÃ³": 4790,
      "Ġpost": 4791,
      "Ġdolor": 4792,
      "ĠmÃŃnimo": 4793,
      "Ġexterior": 4794,
      "Ġcomercial": 4795,
      "Ġnacionales": 4796,
      "Ġproductividad": 4797,
      "icion": 4798,
      "viamente": 4799,
      "inde": 4800,
      "Ġ74": 4801,
      "isto": 4802,
      "Ġatra": 4803,
      "didas": 4804,
      "Ġnormal": 4805,
      "Ġcomercio": 4806,
      "Ġfuncional": 4807,
      "ĠPrograma": 4808,
      "Ġexpl": 4809,
      "ka": 4810,
      "Ġliter": 4811,
      "ĠSeguridad": 4812,
      "Ġactitud": 4813,
      "ĠProfes": 4814,
      "Ġalrede": 4815,
      "Ġinclu": 4816,
      "pecta": 4817,
      "ĠOl": 4818,
      "int": 4819,
      "ish": 4820,
      "Ġpadre": 4821,
      "relaciÃ³n": 4822,
      "Ġfron": 4823,
      "Ġperfec": 4824,
      "formas": 4825,
      "Ġaprender": 4826,
      "Ġminutos": 4827,
      "Ġpretende": 4828,
      "Ġsepar": 4829,
      "Ġdichos": 4830,
      "Ġvolumen": 4831,
      "Ġimpres": 4832,
      "Ġnecesarios": 4833,
      "aco": 4834,
      "Ġbuscar": 4835,
      "Ġseptiembre": 4836,
      "Ġ120": 4837,
      "Ã¡ticos": 4838,
      "ÃįTULO": 4839,
      "Ġvivienda": 4840,
      "resa": 4841,
      "ĠPOR": 4842,
      "ĠCiudad": 4843,
      "ficial": 4844,
      "ks": 4845,
      "ĠautonomÃŃa": 4846,
      "Ġ....": 4847,
      "tela": 4848,
      "oblaciÃ³n": 4849,
      "ĠvÃŃn": 4850,
      "Ġuniversidad": 4851,
      "ADOR": 4852,
      "aro": 4853,
      "ĠSus": 4854,
      "ĠsÃ³l": 4855,
      "Ġprogres": 4856,
      "Ġfra": 4857,
      "Ġ78": 4858,
      "Ġrequisitos": 4859,
      "CE": 4860,
      "ĠDon": 4861,
      "estiones": 4862,
      "igos": 4863,
      "iedad": 4864,
      "ĠreflexiÃ³n": 4865,
      "ĠEducativa": 4866,
      "tilla": 4867,
      "Ġflujo": 4868,
      "Ġpreocup": 4869,
      "oro": 4870,
      "ĠSantiago": 4871,
      "Ġequil": 4872,
      "Ġ81": 4873,
      "tador": 4874,
      "mental": 4875,
      "tocol": 4876,
      "idamente": 4877,
      "Ġciudadanos": 4878,
      "izada": 4879,
      "trato": 4880,
      "Ġequival": 4881,
      "Ġnecesita": 4882,
      "Ġqueda": 4883,
      "uyÃ³": 4884,
      "Ġinterc": 4885,
      "Ġprovoc": 4886,
      "Ġautoridades": 4887,
      "IONES": 4888,
      "estudi": 4889,
      "Ã©u": 4890,
      "Ã©ndose": 4891,
      "2017": 4892,
      "Ġprepar": 4893,
      "Ġpedi": 4894,
      "velo": 4895,
      "Ġfebrero": 4896,
      "Ġeurope": 4897,
      "ĠÃºnica": 4898,
      "ore": 4899,
      "ĠhistÃ³rico": 4900,
      "Ġconstruir": 4901,
      "torno": 4902,
      "Ġextr": 4903,
      "ORM": 4904,
      "educ": 4905,
      "Ġ01": 4906,
      "ĠBr": 4907,
      "ĠGR": 4908,
      "ĠPorcentaje": 4909,
      "ÃĳO": 4910,
      "gada": 4911,
      "Ġconec": 4912,
      "Ġsignificativo": 4913,
      "ĠEspeci": 4914,
      "Ġposibilidades": 4915,
      "Ġingreso": 4916,
      "Ġjuicio": 4917,
      "edores": 4918,
      "Ġanimales": 4919,
      "arlo": 4920,
      "aste": 4921,
      "ĠJun": 4922,
      "ĠHer": 4923,
      "ĠTO": 4924,
      "net": 4925,
      "Ġfigur": 4926,
      "Ġempez": 4927,
      "ĠCU": 4928,
      "udades": 4929,
      "Ġaparece": 4930,
      "tarios": 4931,
      "ĠRev": 4932,
      "Ġamena": 4933,
      "Ġcoment": 4934,
      "eos": 4935,
      "Ġvers": 4936,
      "Ġarch": 4937,
      "Ġpertin": 4938,
      "ĠNi": 4939,
      "ĠRom": 4940,
      "ĠNew": 4941,
      "ĠPan": 4942,
      "Ġ83": 4943,
      "Ġmental": 4944,
      "Ġdefinir": 4945,
      "anzas": 4946,
      "Ġproducir": 4947,
      "Ġtaller": 4948,
      "ĠproblemÃ¡tica": 4949,
      "Ġrespeto": 4950,
      "Ġcuidad": 4951,
      "ÃįN": 4952,
      "lad": 4953,
      "Ġmod": 4954,
      "Ġdiscrim": 4955,
      "Ġexplo": 4956,
      "ĠMA": 4957,
      "ĠEscuela": 4958,
      "Ġsolamente": 4959,
      "ponen": 4960,
      "ning": 4961,
      "Ġ79": 4962,
      "ĠDetermin": 4963,
      "Ġcarrera": 4964,
      "Ġplantas": 4965,
      "Ġvar": 4966,
      "Ġfinalmente": 4967,
      "ĠÃ¡r": 4968,
      "Ġdefensa": 4969,
      "ĠPedro": 4970,
      "Ġalcance": 4971,
      "cir": 4972,
      "Ġaquella": 4973,
      "Ġreconocer": 4974,
      "taje": 4975,
      "ĠmÃºsica": 4976,
      "ordin": 4977,
      "Ġpropiedades": 4978,
      "jes": 4979,
      "ĠÃ³rgan": 4980,
      "Ġfemen": 4981,
      "Ġmomentos": 4982,
      "tividades": 4983,
      "Ġautoridad": 4984,
      "ĠInterna": 4985,
      "pet": 4986,
      "Ġsuel": 4987,
      "pendencia": 4988,
      "ĠespecÃŃfica": 4989,
      "ĠFig": 4990,
      "Ġhabla": 4991,
      "ÃŃz": 4992,
      "Ġagres": 4993,
      "Ġestilo": 4994,
      "ĠoperaciÃ³n": 4995,
      "Ġder": 4996,
      "Ġagra": 4997,
      "Ġocasiones": 4998,
      "we": 4999,
      "IX": 5000,
      "Ġdelito": 5001,
      "Ġhijo": 5002,
      "aman": 5003,
      "Ġemociones": 5004,
      "iaciÃ³n": 5005,
      "iguel": 5006,
      "quir": 5007,
      "age": 5008,
      "iado": 5009,
      "Ġ84": 5010,
      "Ġlic": 5011,
      "Ġren": 5012,
      "Ġfol": 5013,
      "line": 5014,
      "Ġmundial": 5015,
      "Ġdestac": 5016,
      "Ġrealizadas": 5017,
      "ĠVic": 5018,
      "Ġmejores": 5019,
      "Ġnarra": 5020,
      "Ġfic": 5021,
      "Ġjudicial": 5022,
      "Ġreglas": 5023,
      "VID": 5024,
      "Ġpul": 5025,
      "Ġventa": 5026,
      "Ġgarant": 5027,
      "Ġprimaria": 5028,
      "Ġseguimiento": 5029,
      "ben": 5030,
      "Ġcomerci": 5031,
      "Ġestu": 5032,
      "NO": 5033,
      "ĠquÃŃm": 5034,
      "prim": 5035,
      "ivamente": 5036,
      "Ġciertos": 5037,
      "ĠSecre": 5038,
      "ĠBal": 5039,
      "Univers": 5040,
      "Ġdiscapacidad": 5041,
      "ĠRob": 5042,
      "Ġ!": 5043,
      "ĠdaÃ±o": 5044,
      "ĠÃŃtems": 5045,
      "Ġsubs": 5046,
      "tudes": 5047,
      "Ġsignificado": 5048,
      "CC": 5049,
      "Ġimpac": 5050,
      "Ġacces": 5051,
      "ĠdÃ©cada": 5052,
      "Ġespecie": 5053,
      "quia": 5054,
      "Ġlabora": 5055,
      "ĠmÃŃ": 5056,
      "Ġeficacia": 5057,
      "istemas": 5058,
      "lores": 5059,
      "ibrio": 5060,
      "Ġagosto": 5061,
      "Ġconsideran": 5062,
      "ror": 5063,
      "Ġ................................": 5064,
      "Ġmetas": 5065,
      "Ġvelocidad": 5066,
      "ĠdinÃ¡mica": 5067,
      "ĠME": 5068,
      "Ġagentes": 5069,
      "Ġsupone": 5070,
      "ĠLeÃ³n": 5071,
      "ĠFon": 5072,
      "ĠHa": 5073,
      "ĠMas": 5074,
      "BRE": 5075,
      "mÃ¡tico": 5076,
      "Ġiz": 5077,
      "operaciÃ³n": 5078,
      "alizados": 5079,
      "Ġaband": 5080,
      "cepto": 5081,
      "Ġeducativos": 5082,
      "Ġasigna": 5083,
      "ĠDia": 5084,
      "ECH": 5085,
      "Ġadministr": 5086,
      "Ġconseguir": 5087,
      "Ġgrave": 5088,
      "ĠAut": 5089,
      "ĠPolÃŃtica": 5090,
      "Ġdio": 5091,
      "Ġerror": 5092,
      "dado": 5093,
      "Ġaz": 5094,
      "ĠcientÃŃfica": 5095,
      "Ġcerr": 5096,
      "Ġesfuerzo": 5097,
      "Ġalmacen": 5098,
      "ĠSh": 5099,
      "Ġcierta": 5100,
      "ERA": 5101,
      "Ġsimilares": 5102,
      "Ġnegocio": 5103,
      "tn": 5104,
      "ĠBel": 5105,
      "Ġdepor": 5106,
      "iti": 5107,
      "Ġbases": 5108,
      "ĠpodrÃŃan": 5109,
      "ustraciÃ³n": 5110,
      "Ġlibros": 5111,
      "Ġje": 5112,
      "Ġsoftware": 5113,
      "Ġocu": 5114,
      "Ġurban": 5115,
      "Ġefectu": 5116,
      "2015": 5117,
      "Ġapari": 5118,
      "dores": 5119,
      "Ġrango": 5120,
      "Ġambientales": 5121,
      "Ġplano": 5122,
      "ibil": 5123,
      "Ġciencias": 5124,
      "Ġausencia": 5125,
      "hol": 5126,
      "ĠCab": 5127,
      "low": 5128,
      "ruz": 5129,
      "dencias": 5130,
      "Ġconsigu": 5131,
      "PO": 5132,
      "ĠTur": 5133,
      "pue": 5134,
      "ms": 5135,
      "Ġconvers": 5136,
      "ĠBer": 5137,
      "Ġtex": 5138,
      "Ġende": 5139,
      "aciona": 5140,
      "Ġbasado": 5141,
      "END": 5142,
      "Ġpromover": 5143,
      "Ãºan": 5144,
      "ĠTribunal": 5145,
      "Ġsecundaria": 5146,
      "Ġhon": 5147,
      "ĠCongreso": 5148,
      "dente": 5149,
      "izados": 5150,
      "ĠinglÃ©s": 5151,
      "ĠAunque": 5152,
      "Ġoptim": 5153,
      "ĠHay": 5154,
      "anÃŃa": 5155,
      "Ġ82": 5156,
      "ĠEstudio": 5157,
      "Ġdesen": 5158,
      "UES": 5159,
      "Ġpermita": 5160,
      "Ġrazon": 5161,
      "ĠcapacitaciÃ³n": 5162,
      "ÃģN": 5163,
      "Ġduda": 5164,
      "ĠSuperior": 5165,
      "Ġ86": 5166,
      "Ġfrag": 5167,
      "Ġventas": 5168,
      "Ġcolaboradores": 5169,
      "ĠespaÃ±ola": 5170,
      "biÃ³": 5171,
      "ICAS": 5172,
      "Ġposee": 5173,
      "Ġtest": 5174,
      "Ġinforme": 5175,
      "Ġatribu": 5176,
      "grÃ¡ficas": 5177,
      "Ġadquis": 5178,
      "ĠFr": 5179,
      "PS": 5180,
      "Ġactivos": 5181,
      "Ġalrededor": 5182,
      "ĠeconÃ³micas": 5183,
      "ĠVi": 5184,
      "ilos": 5185,
      "ARIA": 5186,
      "Ġpros": 5187,
      "cedi": 5188,
      "ĠComer": 5189,
      "Ġ2024": 5190,
      "Ġ87": 5191,
      "ĠPÃº": 5192,
      "wn": 5193,
      "hn": 5194,
      "Ġobliga": 5195,
      "Ġarro": 5196,
      "Ġdesarrolla": 5197,
      "ĠPL": 5198,
      "ĠDefin": 5199,
      "ary": 5200,
      "ĠlÃŃmites": 5201,
      "Ġefectiva": 5202,
      "Ġbre": 5203,
      "Ġactitudes": 5204,
      "Ġregul": 5205,
      "Ġincidencia": 5206,
      "segu": 5207,
      "ĠComisiÃ³n": 5208,
      "ĠÎ¼": 5209,
      "2016": 5210,
      "ĠPon": 5211,
      "zÃ³": 5212,
      "Ġciertas": 5213,
      "Ġactiva": 5214,
      "Ġvoluntad": 5215,
      "Ġinvolucr": 5216,
      "omos": 5217,
      "ĠIl": 5218,
      "ĠDim": 5219,
      "tiles": 5220,
      "ĠMÃ¡s": 5221,
      "Ġpresentes": 5222,
      "Ġmenciona": 5223,
      "Ġtratar": 5224,
      "ĠCapÃŃtulo": 5225,
      "Ġeficiente": 5226,
      "Ġmedir": 5227,
      "ĠAS": 5228,
      "Ġadultos": 5229,
      "ĠTIC": 5230,
      "iempo": 5231,
      "Ġconsta": 5232,
      "orÃ¡n": 5233,
      "Ġgastos": 5234,
      "Ġcompra": 5235,
      "Ġmovimientos": 5236,
      "Ġkg": 5237,
      "ĠCH": 5238,
      "Ġobtuvo": 5239,
      "ĠDÃŃa": 5240,
      "ĠÃºnicamente": 5241,
      "Ġdiscipl": 5242,
      "omÃ©tr": 5243,
      "ĠasociaciÃ³n": 5244,
      "Ġencontramos": 5245,
      "ĠUnidad": 5246,
      "ĠSeÃ±": 5247,
      "ĠPu": 5248,
      "Ġexplor": 5249,
      "ĠregulaciÃ³n": 5250,
      "Ġadministrativa": 5251,
      "ĠLeg": 5252,
      "Ġmit": 5253,
      "Ġrecog": 5254,
      "VA": 5255,
      "ĠBiblio": 5256,
      "Ġclara": 5257,
      "Ġdepende": 5258,
      "ADA": 5259,
      "tualmente": 5260,
      "ĠDirecciÃ³n": 5261,
      "ĠTipo": 5262,
      "ĠclasificaciÃ³n": 5263,
      "Ġestudiar": 5264,
      "Ġbor": 5265,
      "Ġpasa": 5266,
      "ĠBe": 5267,
      "ografÃŃa": 5268,
      "asas": 5269,
      "uraciÃ³n": 5270,
      "Ġcelebr": 5271,
      "ĠGÃ³mez": 5272,
      "Ac": 5273,
      "Ġfinanciera": 5274,
      "MO": 5275,
      "ENS": 5276,
      "Ġdestacar": 5277,
      "Ġtri": 5278,
      "tori": 5279,
      "Ġhabitantes": 5280,
      "tÃ©": 5281,
      "Ġ93": 5282,
      "ĠcÃ¡lculo": 5283,
      "ĠComunicaciÃ³n": 5284,
      "Ġbastante": 5285,
      "Ġviene": 5286,
      "Ġ91": 5287,
      "ĠAlgun": 5288,
      "ĠEuropa": 5289,
      "ĠProyecto": 5290,
      "ĠCA": 5291,
      "Ġterap": 5292,
      "ĠexposiciÃ³n": 5293,
      "Ġrelevante": 5294,
      "Ġfondo": 5295,
      "ĠXV": 5296,
      "Ġconoce": 5297,
      "Ġdinero": 5298,
      "ĠutilizÃ³": 5299,
      "comun": 5300,
      "dios": 5301,
      "ĠCur": 5302,
      "Ġproporcion": 5303,
      "Ġasociados": 5304,
      "CT": 5305,
      "gue": 5306,
      "iental": 5307,
      "Ġhospital": 5308,
      "GRA": 5309,
      "ĠPl": 5310,
      "ĠTen": 5311,
      "Ġ89": 5312,
      "Ġpreval": 5313,
      "Ġencuestados": 5314,
      "Ġlin": 5315,
      "Ġesencial": 5316,
      "ĠorientaciÃ³n": 5317,
      "Ġjo": 5318,
      "eso": 5319,
      "oria": 5320,
      "Ġmac": 5321,
      "Ġsie": 5322,
      "Ġvas": 5323,
      "ĠencontrÃ³": 5324,
      "Ġbeneficio": 5325,
      "ĠGar": 5326,
      "ĠSociales": 5327,
      "ĠAÃ±o": 5328,
      "ĠDr": 5329,
      "produc": 5330,
      "Ġrefle": 5331,
      "gener": 5332,
      "ĠFern": 5333,
      "Ġpudo": 5334,
      "ĠconclusiÃ³n": 5335,
      "Ġpermitan": 5336,
      "Ġconclusiones": 5337,
      "Ġactualmente": 5338,
      "Ġexpresa": 5339,
      "Ġ88": 5340,
      "Ġom": 5341,
      "Ġ96": 5342,
      "Ġmanifies": 5343,
      "Ġveg": 5344,
      "Ġreduci": 5345,
      "ĠMus": 5346,
      "recuencia": 5347,
      "Ġcumple": 5348,
      "ĠSÃŃ": 5349,
      "cendi": 5350,
      "SN": 5351,
      "Pr": 5352,
      "Ġpaz": 5353,
      "Ġnorte": 5354,
      "Ġsalida": 5355,
      "Ġutilizados": 5356,
      "Ġtamp": 5357,
      "han": 5358,
      "ĠMetodo": 5359,
      "ĠPER": 5360,
      "ĠvÃŃctimas": 5361,
      "Ġmatr": 5362,
      "Ġsustitu": 5363,
      "ole": 5364,
      "Ġformal": 5365,
      "Ġsum": 5366,
      "ĠAgu": 5367,
      "ĠOrganizaciÃ³n": 5368,
      "ĠGrupo": 5369,
      "ĠMED": 5370,
      "Ġtransvers": 5371,
      "Ġ1989": 5372,
      "Ġcoeficiente": 5373,
      "ĠDerechos": 5374,
      "Ġhabl": 5375,
      "Ġespecific": 5376,
      "Ġvoz": 5377,
      "GR": 5378,
      "lÃŃn": 5379,
      "curso": 5380,
      "Ġ................": 5381,
      "Ġ97": 5382,
      "Ġciudades": 5383,
      "Ġconsulta": 5384,
      "Ã¡mara": 5385,
      "Ġsoluciones": 5386,
      "ultado": 5387,
      "ĠpresentaciÃ³n": 5388,
      "Ġexpecta": 5389,
      "ĠMc": 5390,
      "sion": 5391,
      "Ġentrevis": 5392,
      "Ġelev": 5393,
      "ĠcÃ©lulas": 5394,
      "Ġcarb": 5395,
      "Ġreales": 5396,
      "ĠAplic": 5397,
      "Ġ110": 5398,
      "ĠNÃºmero": 5399,
      "Ġenerg": 5400,
      "Ġliderazgo": 5401,
      "arqu": 5402,
      "Ġescritura": 5403,
      "tener": 5404,
      "Ġpermanente": 5405,
      "Ġoriginal": 5406,
      "ĠguÃŃa": 5407,
      "Ġcircunstancias": 5408,
      "Ġplanes": 5409,
      "ierra": 5410,
      "ĠMiguel": 5411,
      "Ġresponsable": 5412,
      "Ġ111": 5413,
      "uelo": 5414,
      "Ġlongitud": 5415,
      "Ġaument": 5416,
      "Ġox": 5417,
      "rie": 5418,
      "Ġdigitales": 5419,
      "adic": 5420,
      "ĠANEX": 5421,
      "ĠpromociÃ³n": 5422,
      "ĠestÃ©": 5423,
      "Ġtrabajador": 5424,
      "Ġtej": 5425,
      "ĠEr": 5426,
      "sus": 5427,
      "icultura": 5428,
      "Ġestados": 5429,
      "ĠBanco": 5430,
      "ĠJe": 5431,
      "istente": 5432,
      "Ġarri": 5433,
      "enas": 5434,
      "Ġcapaz": 5435,
      "Ġeventos": 5436,
      "ure": 5437,
      "Ġ98": 5438,
      "positorio": 5439,
      "Ġreserv": 5440,
      "Ġhabi": 5441,
      "Ġhoriz": 5442,
      "Ġdominio": 5443,
      "ĠMedio": 5444,
      "ĠInformaciÃ³n": 5445,
      "Ġdesap": 5446,
      "ĠPsic": 5447,
      "Ġdichas": 5448,
      "tics": 5449,
      "alo": 5450,
      "Ġsimul": 5451,
      "ĠConstitucional": 5452,
      "Ġ92": 5453,
      "Ġcine": 5454,
      "Ġresta": 5455,
      "deres": 5456,
      "Ġdejar": 5457,
      "Ġadqui": 5458,
      "ĠPress": 5459,
      "Ġafecta": 5460,
      "Ġenci": 5461,
      "ĠtenÃŃan": 5462,
      "itado": 5463,
      "ĠEstad": 5464,
      "Ġata": 5465,
      "ale": 5466,
      "ĠGrado": 5467,
      "Ġcorriente": 5468,
      "quen": 5469,
      "ĠelecciÃ³n": 5470,
      "ĠPatr": 5471,
      "ficaz": 5472,
      "ther": 5473,
      "ĠEspaÃ±ol": 5474,
      "estre": 5475,
      "Ġgl": 5476,
      "Ġutilizan": 5477,
      "Seg": 5478,
      "Ã³mica": 5479,
      "Ġgrande": 5480,
      "ĠcompaÃ±eros": 5481,
      "dicciÃ³n": 5482,
      "Ġtesti": 5483,
      "Ġacciden": 5484,
      "ĠNav": 5485,
      "Ġdesarrollado": 5486,
      "Ġrural": 5487,
      "ĠLib": 5488,
      "Ġconforme": 5489,
      "Ã¡logo": 5490,
      "ÃŃdo": 5491,
      "Ġestructur": 5492,
      "ĠPR": 5493,
      "Ġtengan": 5494,
      "Ġcontinua": 5495,
      "Ġexten": 5496,
      "ĠAnd": 5497,
      "Ġescenario": 5498,
      "ĠobligaciÃ³n": 5499,
      "Ġpueblos": 5500,
      "ĠSil": 5501,
      "Ġconlle": 5502,
      "Ġexplicar": 5503,
      "ĠconcepciÃ³n": 5504,
      "Ġnormativa": 5505,
      "ĠIndustr": 5506,
      "ÃŃculas": 5507,
      "plan": 5508,
      "ĠEm": 5509,
      "Ġcomponente": 5510,
      "ĠValor": 5511,
      "fera": 5512,
      "Ġreca": 5513,
      "Ġdando": 5514,
      "ĠDepartamento": 5515,
      "Ġrepar": 5516,
      "ki": 5517,
      "iga": 5518,
      "ĠNueva": 5519,
      "Ġetapas": 5520,
      "ĠespecÃŃficas": 5521,
      "Ġinvent": 5522,
      "ĠAM": 5523,
      "Ġpositivo": 5524,
      "cm": 5525,
      "Ġescrito": 5526,
      "ĠperiÃ³": 5527,
      "ÃģL": 5528,
      "ĠMil": 5529,
      "Ġenfoc": 5530,
      "lares": 5531,
      "Ġcuadr": 5532,
      "ĠdisminuciÃ³n": 5533,
      "ĠEncu": 5534,
      "Ġdecre": 5535,
      "Ġposteriormente": 5536,
      "ĠInternational": 5537,
      "Car": 5538,
      "ĠUniversity": 5539,
      "ĠSta": 5540,
      "Ġvoc": 5541,
      "ĠlÃ³gica": 5542,
      "ley": 5543,
      "Ġestaban": 5544,
      "Ġsitio": 5545,
      "ĠindÃŃgenas": 5546,
      "Ġizquier": 5547,
      "Ġmitad": 5548,
      "gados": 5549,
      "Ġdoble": 5550,
      "Ġrent": 5551,
      "Ġimpuls": 5552,
      "Ġimpos": 5553,
      "Ġnecesarias": 5554,
      "ere": 5555,
      "toma": 5556,
      "Ġcultivo": 5557,
      "Ġagreg": 5558,
      "pus": 5559,
      "Ã³rdo": 5560,
      "ĠBras": 5561,
      "ĠcrÃŃtico": 5562,
      "Ġparticipar": 5563,
      "ĠVAL": 5564,
      "Ġobligaciones": 5565,
      "itÃ©": 5566,
      "Ġtampoco": 5567,
      "Ġexcl": 5568,
      "pru": 5569,
      "hu": 5570,
      "orge": 5571,
      "tonces": 5572,
      "andle": 5573,
      "LE": 5574,
      "ÃŃtulos": 5575,
      "ĠMol": 5576,
      "Ġcuestiones": 5577,
      "Ġoral": 5578,
      "Ġregional": 5579,
      "Esta": 5580,
      "treo": 5581,
      "Ġrelevancia": 5582,
      "Ġfo": 5583,
      "?,": 5584,
      "ĠCultura": 5585,
      "Ġcomunes": 5586,
      "Ġcabe": 5587,
      "ĠSim": 5588,
      "ĠdeberÃŃa": 5589,
      "ĠFor": 5590,
      "Ġlogro": 5591,
      "Ġalumno": 5592,
      "tres": 5593,
      "Mar": 5594,
      "Ġfrac": 5595,
      "ader": 5596,
      "Ġacre": 5597,
      "tipo": 5598,
      "Como": 5599,
      "Ġbueno": 5600,
      "VIS": 5601,
      "cy": 5602,
      "Ġdoctr": 5603,
      "php": 5604,
      "ARI": 5605,
      "Ġrig": 5606,
      "ĠediciÃ³n": 5607,
      "bÃ³": 5608,
      "Ġurbano": 5609,
      "Ġvivir": 5610,
      "Ġlucha": 5611,
      "ĠversiÃ³n": 5612,
      "Ġcorrespondientes": 5613,
      "Ġdistribu": 5614,
      "tamientos": 5615,
      "Ġindis": 5616,
      "Ġaguas": 5617,
      "Ġprimeras": 5618,
      "ĠInstituciÃ³n": 5619,
      "Ġ94": 5620,
      "uca": 5621,
      "Ġnomb": 5622,
      "Ġcircul": 5623,
      "Ġhogar": 5624,
      "Ġmg": 5625,
      "Ġnuestras": 5626,
      "Ã±ad": 5627,
      "Co": 5628,
      "ĠdiscusiÃ³n": 5629,
      "Ġtercera": 5630,
      "ĠPÃ¡gina": 5631,
      "ude": 5632,
      "ĠvÃ¡l": 5633,
      "Ã©ase": 5634,
      "ĠJur": 5635,
      "ĠFis": 5636,
      "ĠdescripciÃ³n": 5637,
      "ĠHab": 5638,
      "Dis": 5639,
      "ystem": 5640,
      "eda": 5641,
      "edor": 5642,
      "ĠTR": 5643,
      "ĠEj": 5644,
      "ĠpublicaciÃ³n": 5645,
      "ĠAB": 5646,
      "ĠcientÃŃfico": 5647,
      "Ġmunicipio": 5648,
      "Ġ150": 5649,
      "ĠGrÃ¡fico": 5650,
      "ĠlingÃ¼": 5651,
      "Ġindustrial": 5652,
      "ĠcrÃ©dito": 5653,
      "Ġhall": 5654,
      "Ġfinancieros": 5655,
      "ĠPÃºblica": 5656,
      "Ġans": 5657,
      "Ġregres": 5658,
      "ĠOs": 5659,
      "enez": 5660,
      "ĠTRA": 5661,
      "Ġalternativas": 5662,
      "Ġpopular": 5663,
      "Ġmigr": 5664,
      "neces": 5665,
      "ĠAsoci": 5666,
      "tios": 5667,
      "Ġpreci": 5668,
      "Ġaplica": 5669,
      "2021": 5670,
      "ĠObjetivos": 5671,
      "Ġpone": 5672,
      "Ġentrevistas": 5673,
      "ĠJes": 5674,
      "ĠIntroducciÃ³n": 5675,
      "Ġpatrimonio": 5676,
      "Ġdia": 5677,
      "Ġfinales": 5678,
      "Ġsignificativas": 5679,
      "adig": 5680,
      "ĠconsideraciÃ³n": 5681,
      "voca": 5682,
      "ĠconservaciÃ³n": 5683,
      "Ġconsiderado": 5684,
      "Ġincu": 5685,
      "acidad": 5686,
      "Ġescal": 5687,
      "ĠCL": 5688,
      "Ġvirtual": 5689,
      "ĠINS": 5690,
      "uno": 5691,
      "Ġsupuesto": 5692,
      "ANO": 5693,
      "ind": 5694,
      "Ġsemana": 5695,
      "mÃ¡s": 5696,
      "entencia": 5697,
      "Ma": 5698,
      "Ġresponder": 5699,
      "html": 5700,
      "Ġperu": 5701,
      "Ġconductas": 5702,
      "Ġmecanismo": 5703,
      "Ġradio": 5704,
      "MIN": 5705,
      "alth": 5706,
      "Ġpart": 5707,
      "Ġhici": 5708,
      "ĠBas": 5709,
      "ĠREC": 5710,
      "Ġalumnado": 5711,
      "Ġexistentes": 5712,
      "Ġgobern": 5713,
      "Total": 5714,
      "Ġmatriz": 5715,
      "teras": 5716,
      "the": 5717,
      "TIVO": 5718,
      "EE": 5719,
      "ites": 5720,
      "Ġestablecimiento": 5721,
      "ĠfilosofÃŃa": 5722,
      "ĠMi": 5723,
      "Ġaltura": 5724,
      "ĠTal": 5725,
      "ĠopciÃ³n": 5726,
      "2014": 5727,
      "ĠCalidad": 5728,
      "ĠÃ³pti": 5729,
      "ĠINV": 5730,
      "Ġexpedi": 5731,
      "ĠcolaboraciÃ³n": 5732,
      "Ġsuminis": 5733,
      "ÃŃcula": 5734,
      "ÃŃtico": 5735,
      "Ġactivo": 5736,
      "Ġevidente": 5737,
      "ĠmÃ¡xima": 5738,
      "erdos": 5739,
      "direc": 5740,
      "ĠSAN": 5741,
      "orro": 5742,
      "Ġpasar": 5743,
      "OLOG": 5744,
      "ĠGra": 5745,
      "Ã³gicos": 5746,
      "Ġpena": 5747,
      "ticias": 5748,
      "Ã±ez": 5749,
      "Ġrecep": 5750,
      "Este": 5751,
      "mentaciÃ³n": 5752,
      "tory": 5753,
      "Ġmanifiesta": 5754,
      "Ġcontextos": 5755,
      "Ġdens": 5756,
      "Ġseman": 5757,
      "ysis": 5758,
      "orden": 5759,
      "artic": 5760,
      "Ġdescar": 5761,
      "Ġcalle": 5762,
      "st": 5763,
      "ĠhÃ¡bi": 5764,
      "fos": 5765,
      "ARIO": 5766,
      "investig": 5767,
      "Ġmanos": 5768,
      "tismo": 5769,
      "pp": 5770,
      "Ġinteligencia": 5771,
      "ĠseÃ±alar": 5772,
      "Ġtemporal": 5773,
      "discip": 5774,
      "ĠObserv": 5775,
      "Ġhig": 5776,
      "IVERSIDAD": 5777,
      "ĠbÃ¡sica": 5778,
      "ĠTa": 5779,
      "Ġantigu": 5780,
      "Ġdec": 5781,
      "Ġempresarial": 5782,
      "ĠmÃ©dico": 5783,
      "ĠEsp": 5784,
      "ics": 5785,
      "Ġinstancia": 5786,
      "logÃŃas": 5787,
      "bido": 5788,
      "Ġvisual": 5789,
      "Ġpais": 5790,
      "velop": 5791,
      "ĠduraciÃ³n": 5792,
      "ella": 5793,
      "ANA": 5794,
      "Ġsecre": 5795,
      "Ġdesigual": 5796,
      "mbr": 5797,
      "ĠAutor": 5798,
      "Ġestuvo": 5799,
      "bus": 5800,
      "::": 5801,
      "ĠJulio": 5802,
      "Ġobtenido": 5803,
      "mplos": 5804,
      "Ġcomunica": 5805,
      "cog": 5806,
      "Ġaltos": 5807,
      "Ġcontiene": 5808,
      "Ġinfraestructura": 5809,
      "Ġconstituyen": 5810,
      "Ġcerca": 5811,
      "Ġcomplic": 5812,
      "ĠCarta": 5813,
      "Ġbrindar": 5814,
      "ĠBi": 5815,
      "Ġdesacuerdo": 5816,
      "Ġcorr": 5817,
      "Ġrestric": 5818,
      "ĠNota": 5819,
      "Ġcuadro": 5820,
      "fecto": 5821,
      "ieran": 5822,
      "ĠArch": 5823,
      "ĠProduc": 5824,
      "Ġconsiderando": 5825,
      "usa": 5826,
      "Ġregiones": 5827,
      "ĠCÃ³rdo": 5828,
      "lla": 5829,
      "izan": 5830,
      "Ġrelaciona": 5831,
      "ld": 5832,
      "ws": 5833,
      "ĠAlto": 5834,
      "ĠModelo": 5835,
      "ĠBajo": 5836,
      "Ġalternativa": 5837,
      "Ġfij": 5838,
      "ĠTom": 5839,
      "ilateral": 5840,
      "isiones": 5841,
      "ĠtÃ©cnico": 5842,
      "Ġtempor": 5843,
      "Ġpresupuesto": 5844,
      "llo": 5845,
      "tex": 5846,
      "ĠUniÃ³n": 5847,
      "handle": 5848,
      "Ġnota": 5849,
      "Ġdesaf": 5850,
      "ye": 5851,
      "ĠestÃ¡ndar": 5852,
      "ĠVir": 5853,
      "Ġcorrel": 5854,
      "Ġocurre": 5855,
      "Ġsociedades": 5856,
      "imas": 5857,
      "Ġincluir": 5858,
      "Ã¡ticas": 5859,
      "ĠObtenido": 5860,
      "ĠSP": 5861,
      "ĠDie": 5862,
      "ĠArtÃŃculo": 5863,
      "ĠtodavÃŃa": 5864,
      "ĠsÃ©": 5865,
      "Ġindican": 5866,
      "ĠnÃº": 5867,
      "ĠEstrateg": 5868,
      "ij": 5869,
      "Universidad": 5870,
      "ĠsesiÃ³n": 5871,
      "tz": 5872,
      "CLUS": 5873,
      "ĠÃºtil": 5874,
      "villa": 5875,
      "GEN": 5876,
      "Ġcuan": 5877,
      "ĠPrincip": 5878,
      "ifica": 5879,
      "periores": 5880,
      "ĠpermitiÃ³": 5881,
      "ĠFu": 5882,
      "PRO": 5883,
      "Ġmunicipal": 5884,
      "Ġrelacionado": 5885,
      "Ġdiez": 5886,
      "ĠBur": 5887,
      "Ġmirada": 5888,
      "Ġcompleta": 5889,
      "Ġfuerzas": 5890,
      "Ġutilidad": 5891,
      "Ġtarde": 5892,
      "Ġsenci": 5893,
      "Ġdep": 5894,
      "Ġurbana": 5895,
      "istr": 5896,
      "ÃŃticas": 5897,
      "Ġimplementar": 5898,
      "Ġ300": 5899,
      "Ġjuez": 5900,
      "Ġreforma": 5901,
      "Ġartes": 5902,
      "Ġaumentar": 5903,
      "Ġpreviamente": 5904,
      "ĠpÃ¡gina": 5905,
      "Ġnumeros": 5906,
      "Ġeficaz": 5907,
      "ĠBen": 5908,
      "tistas": 5909,
      "omen": 5910,
      "ĠteorÃŃas": 5911,
      "ych": 5912,
      "Ġrecibir": 5913,
      "ĠintenciÃ³n": 5914,
      "ĠCri": 5915,
      "ĠCOVID": 5916,
      "ĠFecha": 5917,
      "sobre": 5918,
      "Ġexpertos": 5919,
      "ĠCul": 5920,
      "Ġpobreza": 5921,
      "Ġdetermina": 5922,
      "ĠCaracter": 5923,
      "ĠOtro": 5924,
      "Ġdificultad": 5925,
      "Col": 5926,
      "mÃ¡n": 5927,
      "xic": 5928,
      "king": 5929,
      "ĠExiste": 5930,
      "Ġdebate": 5931,
      "inado": 5932,
      "Ġprivado": 5933,
      "Ġdeja": 5934,
      "ĠenfermerÃŃa": 5935,
      "elec": 5936,
      "Gr": 5937,
      "Ġprodu": 5938,
      "Ġescuelas": 5939,
      "Ġparticulares": 5940,
      "Ġ1988": 5941,
      "Ġcomplej": 5942,
      "ĠautÃ³n": 5943,
      "gencia": 5944,
      "enden": 5945,
      "Ġpotencia": 5946,
      "ĠUS": 5947,
      "Ġacceder": 5948,
      "ĠAnte": 5949,
      ".....": 5950,
      "Ġapre": 5951,
      "Ġpod": 5952,
      "Ġprevis": 5953,
      "Ġfund": 5954,
      "Ġaproximadamente": 5955,
      "zando": 5956,
      "tomas": 5957,
      ".........": 5958,
      "-,": 5959,
      "ini": 5960,
      "......": 5961,
      "Ġrelevantes": 5962,
      "talidad": 5963,
      "Tr": 5964,
      "Ġrep": 5965,
      "Ġenvi": 5966,
      "uesta": 5967,
      "Ġinser": 5968,
      "tidas": 5969,
      "Ġindependiente": 5970,
      "uta": 5971,
      "ĠCONS": 5972,
      "iendas": 5973,
      "ĠIngenierÃŃa": 5974,
      "ĠINTER": 5975,
      "uri": 5976,
      "ĠNorte": 5977,
      "ndice": 5978,
      "ablo": 5979,
      "Ġporcent": 5980,
      "encional": 5981,
      "ĠAU": 5982,
      "Ġmencionado": 5983,
      "unda": 5984,
      "Ġjer": 5985,
      "Ġllama": 5986,
      "Ġentrega": 5987,
      "ÃŃri": 5988,
      "Ġcompleto": 5989,
      "Ġsuces": 5990,
      "ĠtendrÃ¡": 5991,
      "ĠadquisiciÃ³n": 5992,
      "Ġpotenci": 5993,
      "Ġ500": 5994,
      "ĠAutÃ³n": 5995,
      "Ġprotagon": 5996,
      "Ġade": 5997,
      "Ġerrores": 5998,
      "ĠobtenciÃ³n": 5999,
      "ĠpÃ¡r": 6000,
      "Ġrealizados": 6001,
      "ĠDurante": 6002,
      "ĠacadÃ©mica": 6003,
      "..........": 6004,
      "Ġoferta": 6005,
      "ĠLic": 6006,
      "Ġmarketing": 6007,
      "Ġtuvieron": 6008,
      "ĠhistÃ³rica": 6009,
      "tl": 6010,
      "blico": 6011,
      "Ġbasa": 6012,
      "ĠBus": 6013,
      "ĠMed": 6014,
      "ĠCer": 6015,
      "Ġcomplejo": 6016,
      "ĠDescripciÃ³n": 6017,
      "tillo": 6018,
      "Ġpandemia": 6019,
      "iles": 6020,
      "Ġbur": 6021,
      "Ġfiscal": 6022,
      "Ġayudar": 6023,
      "Ġturismo": 6024,
      "Ġanual": 6025,
      "ĠcomposiciÃ³n": 6026,
      "Ġrecord": 6027,
      "Ġracional": 6028,
      "Ġpractic": 6029,
      "Ġterreno": 6030,
      "ond": 6031,
      "ĠdeterminaciÃ³n": 6032,
      "Ġdivi": 6033,
      "Ġtotalmente": 6034,
      "Ã³rm": 6035,
      "isa": 6036,
      "Ġvalidez": 6037,
      "Ġusar": 6038,
      "dieron": 6039,
      "ĠComp": 6040,
      "ĠbÃ¡sicos": 6041,
      "Ġ02": 6042,
      "2013": 6043,
      "Ġvisu": 6044,
      "tima": 6045,
      "Ġcompara": 6046,
      "gram": 6047,
      "ild": 6048,
      "ĠDatos": 6049,
      "Ġdeterminada": 6050,
      "Ġadministrativo": 6051,
      "Ġllega": 6052,
      "Ġcomerciales": 6053,
      "ĠBio": 6054,
      "ĠSociedad": 6055,
      "ocen": 6056,
      "Ġcoinci": 6057,
      "ĠalimentaciÃ³n": 6058,
      "Ġrepresentan": 6059,
      "Ġdepartamento": 6060,
      "Ġentren": 6061,
      "Ġfel": 6062,
      "cito": 6063,
      "Ġbasada": 6064,
      "itarias": 6065,
      "hi": 6066,
      "ĠAhora": 6067,
      "tÃ³lica": 6068,
      "Ġactuar": 6069,
      "Ġintelectual": 6070,
      "ĠCe": 6071,
      "ĠCE": 6072,
      "hum": 6073,
      "ĠMer": 6074,
      "ĠrÃŃo": 6075,
      "Ġaisl": 6076,
      "Ġaconte": 6077,
      "Ġseres": 6078,
      "quina": 6079,
      "ĠagrÃŃcol": 6080,
      "Ġcorto": 6081,
      "ĠadaptaciÃ³n": 6082,
      "Ġindirec": 6083,
      "ĠtensiÃ³n": 6084,
      "Ġadquir": 6085,
      "Ġformar": 6086,
      "cimientos": 6087,
      "Ġcolum": 6088,
      "ĠAna": 6089,
      "cidos": 6090,
      "Ġtradicionales": 6091,
      "pear": 6092,
      "ĠDÃŃaz": 6093,
      "Ġhiper": 6094,
      "Ġactuales": 6095,
      "Ġestamos": 6096,
      "ĠLuego": 6097,
      "ĠclÃ¡s": 6098,
      "Ġrealizaron": 6099,
      "Ã¡nico": 6100,
      "Ã³sitos": 6101,
      "ĠCAS": 6102,
      "ĠAcu": 6103,
      "Ġinfantil": 6104,
      "Ġcoopera": 6105,
      "ges": 6106,
      "Ġreper": 6107,
      "Ġprivada": 6108,
      "Ġmascul": 6109,
      "igni": 6110,
      "Ġconceptual": 6111,
      "Ġveci": 6112,
      "undaciÃ³n": 6113,
      "Ġsoporte": 6114,
      "DUCCIÃĵN": 6115,
      "index": 6116,
      "Ġamplia": 6117,
      "ĠAmeric": 6118,
      "Ãºr": 6119,
      "ĠactuaciÃ³n": 6120,
      "Ġcolectivo": 6121,
      "ruj": 6122,
      "Ġindividuales": 6123,
      "ĠClas": 6124,
      "Ġentiende": 6125,
      "Ġresiden": 6126,
      "ĠIma": 6127,
      "Ġtotalidad": 6128,
      "Cap": 6129,
      "Ġequilibrio": 6130,
      "Ġprobabilidad": 6131,
      "grad": 6132,
      "geno": 6133,
      "xi": 6134,
      "oz": 6135,
      "Ġcomprome": 6136,
      "Ġprevio": 6137,
      "Ġplas": 6138,
      "ĠMedia": 6139,
      "ood": 6140,
      "Ġtutela": 6141,
      "ĠJusticia": 6142,
      "Ġcif": 6143,
      "GU": 6144,
      "Ġcontribuir": 6145,
      "ĠaÃ±ad": 6146,
      "ĠOrden": 6147,
      "dago": 6148,
      "Ġsignificativamente": 6149,
      "tudy": 6150,
      "util": 6151,
      "Ġlegales": 6152,
      "Ġmonitor": 6153,
      "mm": 6154,
      "temp": 6155,
      "abras": 6156,
      "Ġasegurar": 6157,
      "his": 6158,
      "Ġaplicaciones": 6159,
      "ĠĠĠ": 6160,
      "Ġespera": 6161,
      "Ġamplio": 6162,
      "Ġdev": 6163,
      "ĠObjetivo": 6164,
      "ĠFre": 6165,
      "Ġhipo": 6166,
      "Ġpredomin": 6167,
      "ko": 6168,
      "Ġplane": 6169,
      "ERV": 6170,
      "Ġcorrecta": 6171,
      "venir": 6172,
      "edia": 6173,
      "Ġsta": 6174,
      "ilaciÃ³n": 6175,
      "ENTES": 6176,
      "sor": 6177,
      "ĠBrasil": 6178,
      "Ġvideo": 6179,
      "Ob": 6180,
      "Ġvariedad": 6181,
      "Ġnarr": 6182,
      "Ġexpectativas": 6183,
      "...........": 6184,
      "Ġagro": 6185,
      "ĠvariaciÃ³n": 6186,
      "ĠCub": 6187,
      "Ġdada": 6188,
      "ĠSec": 6189,
      "bar": 6190,
      "Ġcoher": 6191,
      "ejo": 6192,
      "Ġact": 6193,
      "ĠtradiciÃ³n": 6194,
      "disciplin": 6195,
      "dicional": 6196,
      "Ġpersonajes": 6197,
      "Ġexistente": 6198,
      "hab": 6199,
      "sen": 6200,
      "ĠcompaÃ±ÃŃa": 6201,
      "ĠMetodologÃŃa": 6202,
      "eraciÃ³n": 6203,
      "Ġgeneran": 6204,
      "Ġmercados": 6205,
      "Ġsabe": 6206,
      "Ġacab": 6207,
      "ĠYa": 6208,
      "ĠServicio": 6209,
      "..............": 6210,
      "Ġofrecer": 6211,
      "Ġdesign": 6212,
      "adecu": 6213,
      "Ġdr": 6214,
      "Ġnegativa": 6215,
      "Ġ101": 6216,
      "GA": 6217,
      "Ġindicador": 6218,
      "mana": 6219,
      "Ġconvivencia": 6220,
      "ĠINF": 6221,
      "Ġdescriptivo": 6222,
      "fl": 6223,
      "Ġestabilidad": 6224,
      "ĠlegislaciÃ³n": 6225,
      "Ġreconoce": 6226,
      "Ġmilitar": 6227,
      "Ġsostenible": 6228,
      "ĠDO": 6229,
      "ello": 6230,
      "ĠCÃ³rdoba": 6231,
      "ĠpequeÃ±os": 6232,
      "berg": 6233,
      "determin": 6234,
      "ENER": 6235,
      "Ġfiguras": 6236,
      "tamos": 6237,
      "Ġpien": 6238,
      "ĠconexiÃ³n": 6239,
      "valor": 6240,
      "Ġfundament": 6241,
      "ĠIntegr": 6242,
      "bitr": 6243,
      "Ġesquema": 6244,
      "Ġasistencia": 6245,
      ".............": 6246,
      "doc": 6247,
      "Ġpi": 6248,
      "Ġul": 6249,
      "Ġsentir": 6250,
      "ĠSE": 6251,
      "Ġllamado": 6252,
      "ĠYork": 6253,
      "Ġdescribe": 6254,
      "Ġdoi": 6255,
      "MI": 6256,
      "Ġdisponible": 6257,
      "Ġbeb": 6258,
      "ĠcÃ³digo": 6259,
      "ENTOS": 6260,
      "Ġhallaz": 6261,
      "ĠcontemporÃ¡n": 6262,
      "eral": 6263,
      "ĠpodÃŃa": 6264,
      "trÃ¡s": 6265,
      "ĠCada": 6266,
      "itim": 6267,
      "Ġplataforma": 6268,
      "VAL": 6269,
      "orit": 6270,
      "ĠFamil": 6271,
      "torÃŃa": 6272,
      "Ġestablecidos": 6273,
      ".......": 6274,
      "Ġensayo": 6275,
      "use": 6276,
      "Ã¡ctica": 6277,
      "ĠEntonces": 6278,
      "cultural": 6279,
      "ÃŃda": 6280,
      "ĠDocu": 6281,
      "Ġsor": 6282,
      "ĠResearch": 6283,
      "tisfec": 6284,
      "entimiento": 6285,
      "Ġreno": 6286,
      "ĠTA": 6287,
      "arla": 6288,
      "Ġaprendi": 6289,
      "ĠAle": 6290,
      "Ġare": 6291,
      "deros": 6292,
      "ĠextensiÃ³n": 6293,
      "ocu": 6294,
      "ĠproteÃŃn": 6295,
      "ĠCC": 6296,
      "eli": 6297,
      "tid": 6298,
      "graf": 6299,
      "ĠÃ©tica": 6300,
      "ĠTiempo": 6301,
      "rupciÃ³n": 6302,
      "ĠDentro": 6303,
      "ĠBI": 6304,
      "licos": 6305,
      "Ġescuch": 6306,
      "ĠmÃ³vil": 6307,
      "ĠdifusiÃ³n": 6308,
      "Ġacor": 6309,
      "ĠOn": 6310,
      "dim": 6311,
      "Ġdemocracia": 6312,
      "Ġcolectiva": 6313,
      "Ġcabeza": 6314,
      "ĠTodo": 6315,
      "guar": 6316,
      "ĠFeder": 6317,
      "Ġmencionar": 6318,
      "2012": 6319,
      "ĠRed": 6320,
      "Ġfl": 6321,
      "guay": 6322,
      "Ġvirtud": 6323,
      "Ġprevia": 6324,
      "Ġlan": 6325,
      "uncia": 6326,
      "Ġperju": 6327,
      "ogÃ©n": 6328,
      "sal": 6329,
      "ĠValencia": 6330,
      "ĠrecuperaciÃ³n": 6331,
      "ĠIC": 6332,
      "mina": 6333,
      "...............": 6334,
      "lim": 6335,
      "ĠPRE": 6336,
      "Ġdibu": 6337,
      "iero": 6338,
      "ĠIndic": 6339,
      "Ġleer": 6340,
      "ĠDec": 6341,
      "ĠXIX": 6342,
      "ĠElec": 6343,
      "irÃ¡": 6344,
      "ĠMundial": 6345,
      "Ġ03": 6346,
      "Ġintensidad": 6347,
      "Ġsust": 6348,
      "ĠAdministra": 6349,
      "Ġrecop": 6350,
      "ĠInform": 6351,
      "ĠPenal": 6352,
      "ĠdiÃ¡logo": 6353,
      "ĠCruz": 6354,
      "Ġsustan": 6355,
      "Ġembara": 6356,
      "uo": 6357,
      "Ġefectivo": 6358,
      "ĠMej": 6359,
      "Ġfacilitar": 6360,
      "Ġafron": 6361,
      "Ġenunci": 6362,
      "Ġuni": 6363,
      "acteri": 6364,
      "jec": 6365,
      "Ġclaramente": 6366,
      "gaciÃ³n": 6367,
      "ULTADOS": 6368,
      "Ġdiario": 6369,
      "cual": 6370,
      "ierta": 6371,
      "anda": 6372,
      "Ġsentimientos": 6373,
      "Ġ1987": 6374,
      "Ġdisposiciones": 6375,
      "arro": 6376,
      "Ġfir": 6377,
      "SE": 6378,
      "taba": 6379,
      "Ġ1986": 6380,
      "Ġdescub": 6381,
      "Ġgeneralmente": 6382,
      "Ġ105": 6383,
      "varez": 6384,
      "rÃ¡n": 6385,
      "urales": 6386,
      "Ġinteresante": 6387,
      "san": 6388,
      "Ġgrad": 6389,
      "Ġmotivos": 6390,
      "Ġ................................................................................................................": 6391,
      "Ġexcel": 6392,
      "Ġbol": 6393,
      "ĠestadÃŃstico": 6394,
      "quin": 6395,
      "Ġdesa": 6396,
      "ĠestadÃŃstica": 6397,
      "Ġrevel": 6398,
      "ĠEnfer": 6399,
      "Ġfib": 6400,
      "ĠMarco": 6401,
      "Ġgasto": 6402,
      "Per": 6403,
      "Una": 6404,
      "olucion": 6405,
      "Ġrealmente": 6406,
      "Ġconsumidores": 6407,
      "Ġconsumidor": 6408,
      "tern": 6409,
      "Ġreferente": 6410,
      "itando": 6411,
      "Ġpropuesto": 6412,
      "ĠCuadro": 6413,
      "Ġsuperiores": 6414,
      "Ġpareja": 6415,
      "Ġdeseo": 6416,
      "icional": 6417,
      "ĠFrecuencia": 6418,
      "Ġdistingu": 6419,
      "!!": 6420,
      "tream": 6421,
      "Ġ112": 6422,
      "--------------------------------": 6423,
      "ĠCOL": 6424,
      "terÃŃa": 6425,
      "Ġmostrar": 6426,
      "tÃŃ": 6427,
      "Ġincluyen": 6428,
      "Ġincen": 6429,
      "ĠtraducciÃ³n": 6430,
      "tia": 6431,
      "od": 6432,
      "riendo": 6433,
      "Ġrey": 6434,
      "ses": 6435,
      "pretaciÃ³n": 6436,
      "Ġesfuerzos": 6437,
      "Ġobtiene": 6438,
      "Ġconcluye": 6439,
      "ung": 6440,
      "Ġdestino": 6441,
      "ĠaceptaciÃ³n": 6442,
      "stitucional": 6443,
      "ĠTOTAL": 6444,
      "2022": 6445,
      "Ġcomprendi": 6446,
      "ĠecuaciÃ³n": 6447,
      "Ġcurric": 6448,
      "ĠcÃ¡n": 6449,
      "ĠCOR": 6450,
      "ienes": 6451,
      "Ġforman": 6452,
      "Ġcuarto": 6453,
      "Ġases": 6454,
      "umo": 6455,
      "ĠCR": 6456,
      "Ġbreve": 6457,
      "ĠcuÃ¡l": 6458,
      "Ġii": 6459,
      "Ġcadena": 6460,
      "Ġaporte": 6461,
      "Ġmanip": 6462,
      "Ġfases": 6463,
      "Ġprofundidad": 6464,
      "Ġclasific": 6465,
      "ciendo": 6466,
      "Ġconvertir": 6467,
      "Ġliqu": 6468,
      "ĠPoblaciÃ³n": 6469,
      "Ġaprendiz": 6470,
      "ĠRecur": 6471,
      "ĠBlan": 6472,
      "Ġremo": 6473,
      "cle": 6474,
      "Ġprotocol": 6475,
      "Ġcara": 6476,
      "ides": 6477,
      "Ġpagar": 6478,
      "TS": 6479,
      "Ġjuz": 6480,
      "ÃŃritu": 6481,
      "oras": 6482,
      "Ġ103": 6483,
      "ĠtransmisiÃ³n": 6484,
      "Ġlimitaciones": 6485,
      "eles": 6486,
      "ato": 6487,
      "personal": 6488,
      "Ġdestaca": 6489,
      "ky": 6490,
      "CES": 6491,
      "Ġhubo": 6492,
      "ĠPA": 6493,
      "plica": 6494,
      "Ch": 6495,
      "ef": 6496,
      "110": 6497,
      "mplimiento": 6498,
      "Ġcomplejidad": 6499,
      "Qu": 6500,
      "GO": 6501,
      "azÃ³n": 6502,
      "Ġarquitectura": 6503,
      "ĠTras": 6504,
      "gru": 6505,
      "ĠJul": 6506,
      "Ġinnov": 6507,
      "Ġamigos": 6508,
      "Ġfar": 6509,
      "Ġcuentan": 6510,
      "ism": 6511,
      "PI": 6512,
      "len": 6513,
      "tieron": 6514,
      "ĠSuper": 6515,
      "Ġexpans": 6516,
      "Ġterritorial": 6517,
      "ĠPi": 6518,
      "ercado": 6519,
      "obiernos": 6520,
      "arago": 6521,
      "ĠapariciÃ³n": 6522,
      "ĠquiÃ©n": 6523,
      "ĠProble": 6524,
      "ĠParticip": 6525,
      "Ġ1985": 6526,
      "Ġincluyendo": 6527,
      "Ã³p": 6528,
      "ĠMÃ¡": 6529,
      "Ġformul": 6530,
      "Ġmasa": 6531,
      "Ġoficial": 6532,
      "ĠcooperaciÃ³n": 6533,
      "Ġlevan": 6534,
      "ĠlÃŃmite": 6535,
      "Ġaparecen": 6536,
      "Ġdebemos": 6537,
      "ĠGas": 6538,
      "pira": 6539,
      "Ã³logo": 6540,
      "talla": 6541,
      "ISIS": 6542,
      "TOD": 6543,
      "drome": 6544,
      "cepciones": 6545,
      "Ġinternet": 6546,
      "ĠSAL": 6547,
      "Ġcuentas": 6548,
      "Ġexac": 6549,
      "ĠFernando": 6550,
      "Ġvie": 6551,
      "teriales": 6552,
      "Ġejemplos": 6553,
      "Ã³nde": 6554,
      "gov": 6555,
      "ACIONAL": 6556,
      "ĠreacciÃ³n": 6557,
      "ĠSr": 6558,
      "Ġpredic": 6559,
      "Ġinvestigadores": 6560,
      "ĠclÃŃnica": 6561,
      "002": 6562,
      "ĠGuerra": 6563,
      "ĠMaes": 6564,
      "Ġdirecto": 6565,
      "jeros": 6566,
      "Ġtransversal": 6567,
      "Ġtre": 6568,
      "Ġdijo": 6569,
      "imentaciÃ³n": 6570,
      "Ġconocido": 6571,
      "Ġdescribir": 6572,
      "Ġsola": 6573,
      "ÃŃsica": 6574,
      "dificaciÃ³n": 6575,
      "Ġasimismo": 6576,
      "Ġace": 6577,
      "Ġwww": 6578,
      "ĠpresentÃ³": 6579,
      "Ġaj": 6580,
      "ĠFo": 6581,
      "ĠfenÃ³menos": 6582,
      "istir": 6583,
      "POR": 6584,
      "Ġig": 6585,
      "ĠFer": 6586,
      "berto": 6587,
      "ĠÃģl": 6588,
      "ISSN": 6589,
      "Ġansiedad": 6590,
      "Ġrevista": 6591,
      "sci": 6592,
      "dares": 6593,
      "ĠÃ©n": 6594,
      "Ġcreo": 6595,
      "ERN": 6596,
      "Ġconfirm": 6597,
      "Ġconfiabilidad": 6598,
      "ĠVil": 6599,
      "ĠcaracterÃŃstica": 6600,
      "Ġpartido": 6601,
      "Ġcontribuy": 6602,
      "2010": 6603,
      "ĠTodos": 6604,
      "Ġdesc": 6605,
      "Ġabsor": 6606,
      "Ġprohib": 6607,
      "CR": 6608,
      "Ġestrech": 6609,
      "adre": 6610,
      "Ġutilizada": 6611,
      "ents": 6612,
      "Ġposicion": 6613,
      "ĠpreparaciÃ³n": 6614,
      "remos": 6615,
      "Ġparadig": 6616,
      "umbre": 6617,
      "medio": 6618,
      "Ġautom": 6619,
      "Ġwh": 6620,
      "adie": 6621,
      "toras": 6622,
      "ĠOtros": 6623,
      "ĠSentencia": 6624,
      "CIAL": 6625,
      "Ġmadres": 6626,
      "ZA": 6627,
      "diciones": 6628,
      "deo": 6629,
      "ĠproporciÃ³n": 6630,
      "ĠvÃŃas": 6631,
      "ĠVilla": 6632,
      "gob": 6633,
      "Ġideal": 6634,
      "Ġabordar": 6635,
      "Ġmucha": 6636,
      "Ġcalific": 6637,
      "tibles": 6638,
      "Ġprecisamente": 6639,
      "PAR": 6640,
      "Ġagrup": 6641,
      "Ġrentabilidad": 6642,
      "Ġsp": 6643,
      "Ġposeen": 6644,
      "Ġinfluye": 6645,
      "Ġ1980": 6646,
      "Ġidi": 6647,
      "Ġlogra": 6648,
      "Ġfinanciero": 6649,
      "BLE": 6650,
      "gramas": 6651,
      "ĠInforme": 6652,
      "ionar": 6653,
      "Ġcristi": 6654,
      "Ġrecuper": 6655,
      "dices": 6656,
      "Ġdependencia": 6657,
      "Ġperteneci": 6658,
      "ters": 6659,
      "esc": 6660,
      "Ã©ticos": 6661,
      "dulo": 6662,
      "ĠbÃ¡sicas": 6663,
      "ĠLoc": 6664,
      "Ġretro": 6665,
      "Or": 6666,
      "DAD": 6667,
      "Ġgri": 6668,
      "Ġtierras": 6669,
      "Ġdelitos": 6670,
      "erto": 6671,
      "Val": 6672,
      "izaciones": 6673,
      "ĠsÃŃntomas": 6674,
      "viv": 6675,
      "Pa": 6676,
      "Ġhayan": 6677,
      "ĠÃ©stos": 6678,
      "lano": 6679,
      "Ġjurispru": 6680,
      "Ġvein": 6681,
      "Ġaplicada": 6682,
      "ĠVe": 6683,
      "ĠdesempeÃ±": 6684,
      "TC": 6685,
      "ESTIG": 6686,
      "Ġine": 6687,
      "Ġsurge": 6688,
      "Ġescolares": 6689,
      "Ġpodido": 6690,
      "Ġintercambio": 6691,
      "Ã©ndo": 6692,
      "ĠPrueba": 6693,
      "caso": 6694,
      "tidad": 6695,
      "ĠDI": 6696,
      "ĠAca": 6697,
      "inta": 6698,
      "iller": 6699,
      "Ġmantiene": 6700,
      "ĠIS": 6701,
      "cus": 6702,
      "ĠconfiguraciÃ³n": 6703,
      "Ġrelacionada": 6704,
      "amble": 6705,
      "Ġconcluir": 6706,
      "ĠfÃ³rm": 6707,
      "ĠelectrÃ³nico": 6708,
      "Ġdensidad": 6709,
      "tifica": 6710,
      "Ġestatal": 6711,
      "Ġpocos": 6712,
      "tuvieron": 6713,
      "Ġproducen": 6714,
      "Ġvital": 6715,
      "ĠcoordinaciÃ³n": 6716,
      "gement": 6717,
      "ĠDan": 6718,
      "Ġpier": 6719,
      "jan": 6720,
      "ological": 6721,
      "Ġcambiar": 6722,
      "ĠLatino": 6723,
      "Ġlaboratorio": 6724,
      "iamente": 6725,
      "Ġaborda": 6726,
      "Ġmuestreo": 6727,
      "ANCI": 6728,
      "ĠÃģrea": 6729,
      "ĠCatal": 6730,
      "Ġexistir": 6731,
      "ĠJesÃºs": 6732,
      "Ġfortalecer": 6733,
      "ĠĠĠĠĠĠĠĠ": 6734,
      "cedente": 6735,
      "ividad": 6736,
      "acho": 6737,
      "Ġrelativa": 6738,
      "ĠLE": 6739,
      "ĠHumanos": 6740,
      "Ġlatino": 6741,
      "Ġaumenta": 6742,
      "CLUSIONES": 6743,
      "2011": 6744,
      "Ġintr": 6745,
      "Ġpresentado": 6746,
      "wer": 6747,
      "ĠPlata": 6748,
      "Ġsufr": 6749,
      "ĠID": 6750,
      "Mo": 6751,
      "Ġofreci": 6752,
      "omina": 6753,
      "Ġ102": 6754,
      "gulo": 6755,
      "ĠhÃŃ": 6756,
      "ĠAsociaciÃ³n": 6757,
      "may": 6758,
      "rias": 6759,
      "Ġacerc": 6760,
      "icha": 6761,
      "Ã©nez": 6762,
      "Ġrepeti": 6763,
      "Ġmarcha": 6764,
      "ĠpequeÃ±as": 6765,
      "estima": 6766,
      "ĠtÃ©cnicos": 6767,
      "Ġcostu": 6768,
      "teros": 6769,
      "Ġescas": 6770,
      "ĠprestaciÃ³n": 6771,
      "grÃ¡ficos": 6772,
      "Ġrecomienda": 6773,
      "Me": 6774,
      "Ġpublicidad": 6775,
      "Ġit": 6776,
      "Ã¡b": 6777,
      "led": 6778,
      "Ġcontrolar": 6779,
      "Ġ?": 6780,
      "TIVOS": 6781,
      "Ġadquier": 6782,
      "Ġinvestigador": 6783,
      "ĠDespuÃ©s": 6784,
      "gular": 6785,
      "Ġpersonalidad": 6786,
      "Ġbloque": 6787,
      "Ġrefor": 6788,
      "ĠVariable": 6789,
      "pearman": 6790,
      "ĠciudadanÃŃa": 6791,
      "ĠvÃŃctima": 6792,
      "ecimiento": 6793,
      "Ġpasos": 6794,
      "ĠEDUC": 6795,
      "ĠCentral": 6796,
      "didos": 6797,
      "zados": 6798,
      "Ġnoche": 6799,
      "icÃŃa": 6800,
      "Ġgal": 6801,
      "Ġavance": 6802,
      "fasis": 6803,
      "tornos": 6804,
      "cada": 6805,
      "Ġrasgos": 6806,
      "ĠTÃ©cnica": 6807,
      "Ġalco": 6808,
      "Ġmic": 6809,
      "ĠMujer": 6810,
      "ĠLin": 6811,
      "Ġcercan": 6812,
      "Ġlineal": 6813,
      "Ġespeciales": 6814,
      "ĠIglesia": 6815,
      "Ġafectan": 6816,
      "Ġseguido": 6817,
      "ense": 6818,
      "Ġestructural": 6819,
      "Ġpeligros": 6820,
      "Ġimpuesto": 6821,
      "ĠnociÃ³n": 6822,
      "Ġjuegos": 6823,
      "Ġtomando": 6824,
      "fal": 6825,
      "sta": 6826,
      "ĠcuÃ¡les": 6827,
      "CN": 6828,
      "Ã³nicos": 6829,
      "Ġgol": 6830,
      "ĠPublic": 6831,
      "ficios": 6832,
      "Ġpec": 6833,
      "120": 6834,
      "Ġagre": 6835,
      "rujillo": 6836,
      "drÃ¡": 6837,
      "ĠfÃŃsicas": 6838,
      "pons": 6839,
      "fru": 6840,
      "imÃ©nez": 6841,
      "aragoza": 6842,
      "uerto": 6843,
      "Ġhas": 6844,
      "ĠgrÃ¡fic": 6845,
      "ĠFal": 6846,
      "Ġproven": 6847,
      "ibe": 6848,
      "Ġregistros": 6849,
      "Ġventajas": 6850,
      "Ġextranj": 6851,
      "trices": 6852,
      "timo": 6853,
      "ĠCiencia": 6854,
      "ĠInstrum": 6855,
      "Ġmezcla": 6856,
      "Ġuniversidades": 6857,
      "Ġic": 6858,
      "ĠDeterminar": 6859,
      "Ġdeba": 6860,
      "ĠdidÃ¡ctica": 6861,
      "ego": 6862,
      "icial": 6863,
      "Ġinstalaciones": 6864,
      "Ġnegocios": 6865,
      "ĠpequeÃ±o": 6866,
      "IST": 6867,
      "Ġcontempl": 6868,
      "ĠCorpor": 6869,
      "alizadas": 6870,
      "Ġsuele": 6871,
      "Ġocho": 6872,
      "ĠgrÃ¡fico": 6873,
      "TIVA": 6874,
      "Ġdispositivos": 6875,
      "Ġrecons": 6876,
      "Ġedificio": 6877,
      "Ġsesiones": 6878,
      "ĠNeg": 6879,
      "Ġcereb": 6880,
      "Ġlista": 6881,
      "Ġcerc": 6882,
      "Ġafirmar": 6883,
      "ĠSevilla": 6884,
      "wa": 6885,
      "Ġmargen": 6886,
      "ĠdiscriminaciÃ³n": 6887,
      "fico": 6888,
      "ĠEconomÃŃa": 6889,
      "Ġinciden": 6890,
      "ĠDefiniciÃ³n": 6891,
      "Ġhorizon": 6892,
      "Ġcolegio": 6893,
      "Ġcampos": 6894,
      "resas": 6895,
      "Ġpiezas": 6896,
      "ĠJorge": 6897,
      "Ġdesarrollan": 6898,
      "ĠCD": 6899,
      "ĠIndi": 6900,
      "Ġemergencia": 6901,
      "Ġbos": 6902,
      "Ġsiguiendo": 6903,
      "present": 6904,
      "ogle": 6905,
      "ĠHuman": 6906,
      "tropol": 6907,
      "tarÃ¡": 6908,
      "Ġcurr": 6909,
      "Ġpoblaciones": 6910,
      "Ġimper": 6911,
      "ĠdaÃ±os": 6912,
      "ĠON": 6913,
      "ĠÃįndice": 6914,
      "Ġconvierte": 6915,
      "mail": 6916,
      "Ġfras": 6917,
      "Ġlector": 6918,
      "ĠRuiz": 6919,
      "Ġsustent": 6920,
      "ancias": 6921,
      "Ġseguro": 6922,
      "ĠÃ¡rbol": 6923,
      "ĠEuropea": 6924,
      "ĠReglamento": 6925,
      "Ġmercan": 6926,
      "ĠllevÃ³": 6927,
      "Ġmodos": 6928,
      "ĠFIN": 6929,
      "Ġproteger": 6930,
      "Ġvolver": 6931,
      "Ãºrg": 6932,
      "ĠpÃ¡gs": 6933,
      "ĠexplotaciÃ³n": 6934,
      "MIENTO": 6935,
      "Ġcomportamientos": 6936,
      "Ġpuesta": 6937,
      "ĠpequeÃ±a": 6938,
      "Ġaprendizajes": 6939,
      "Ġorganismos": 6940,
      "ĠpodrÃ¡n": 6941,
      "Ġpresidente": 6942,
      "ĠUs": 6943,
      "Ġaplicado": 6944,
      "Ġano": 6945,
      "ICOS": 6946,
      "Ġcobertura": 6947,
      "ult": 6948,
      "ĠESTU": 6949,
      "acas": 6950,
      "ĠRESULTADOS": 6951,
      "velopment": 6952,
      "Ġdefinitiva": 6953,
      "ELA": 6954,
      "Ġbrinda": 6955,
      "habil": 6956,
      "Cons": 6957,
      "AND": 6958,
      "ĠCla": 6959,
      "Ġpsico": 6960,
      "ĠCuÃ¡l": 6961,
      "Ġbilateral": 6962,
      "Ġrecre": 6963,
      "Revista": 6964,
      "Ġ1984": 6965,
      "ĠestÃ©n": 6966,
      "EF": 6967,
      "TRODUCCIÃĵN": 6968,
      "Ġconsiguiente": 6969,
      "Ġgenerando": 6970,
      "Ġhacerlo": 6971,
      "URA": 6972,
      "Ġusos": 6973,
      "arning": 6974,
      "Ġdeterminados": 6975,
      "Ġenc": 6976,
      "ĠDistribuciÃ³n": 6977,
      "Par": 6978,
      "Ġinver": 6979,
      "Ġ250": 6980,
      "ĠVar": 6981,
      "Ġempleado": 6982,
      "Ġhidro": 6983,
      "ĠMul": 6984,
      "ĠdeberÃ¡n": 6985,
      "ray": 6986,
      "Ġpartida": 6987,
      "SI": 6988,
      "Ġresponsables": 6989,
      "Ã³mico": 6990,
      "Ġantecedentes": 6991,
      "Ġclim": 6992,
      "Ġrecomendaciones": 6993,
      "ls": 6994,
      "gin": 6995,
      "Ġcorporal": 6996,
      "Ġimagin": 6997,
      "Ġatender": 6998,
      "Ġdro": 6999,
      "Ġinternos": 7000,
      "fÃ©": 7001,
      "Ã³nicas": 7002,
      "1016": 7003,
      "Ġbra": 7004,
      "Ġadquirir": 7005,
      "Ġprensa": 7006,
      "Ġimpar": 7007,
      "Ġcampes": 7008,
      "Ġencima": 7009,
      "uestion": 7010,
      "Ġcontratos": 7011,
      "Ġsuelen": 7012,
      "Ġlegitim": 7013,
      "versiÃ³n": 7014,
      "ĠPsicologÃŃa": 7015,
      "ĠPri": 7016,
      "Ġconcur": 7017,
      "trabajo": 7018,
      "ualidad": 7019,
      "ĠSupre": 7020,
      "ĠuniÃ³n": 7021,
      "ĠProceso": 7022,
      "tabilidad": 7023,
      "undo": 7024,
      "ĠMuy": 7025,
      "Ġtratamientos": 7026,
      "bos": 7027,
      "Ġaudio": 7028,
      "Ġ104": 7029,
      "Ġizquierda": 7030,
      "Ġeconom": 7031,
      "mir": 7032,
      "Ġdirector": 7033,
      "vileg": 7034,
      "ÃŃfico": 7035,
      "...,": 7036,
      "work": 7037,
      "vos": 7038,
      "ĠplÃ¡s": 7039,
      "istentes": 7040,
      "Ġsugiere": 7041,
      "Ġmet": 7042,
      "Ġsient": 7043,
      "Ġcomprende": 7044,
      "ĠFAC": 7045,
      "Ġsignificancia": 7046,
      "ĠTeorÃŃa": 7047,
      "ĠvÃŃnculo": 7048,
      "Ġparal": 7049,
      "Ġperspectivas": 7050,
      "ĠTorres": 7051,
      "MC": 7052,
      "tivaciÃ³n": 7053,
      "ĠpedagÃ³gica": 7054,
      "Ġabund": 7055,
      "Ġordin": 7056,
      "Ġido": 7057,
      "top": 7058,
      "rio": 7059,
      "amento": 7060,
      "Ġrequieren": 7061,
      "Ġopciones": 7062,
      "ĠpÃ¡ginas": 7063,
      "ĠRelaciÃ³n": 7064,
      "Ġdisciplina": 7065,
      "Di": 7066,
      "ĠColeg": 7067,
      "Ġresuel": 7068,
      "Ġalguno": 7069,
      "Ġdiscu": 7070,
      "Ġabierto": 7071,
      "ĠServicios": 7072,
      "Ġacus": 7073,
      "ĠFrancia": 7074,
      "Ġwas": 7075,
      "ĠINVESTIG": 7076,
      "ĠAndr": 7077,
      ",,": 7078,
      "Ġsangre": 7079,
      "Ġtengo": 7080,
      "Ġamp": 7081,
      "ĠEscala": 7082,
      "fu": 7083,
      "Ġalgu": 7084,
      "Ġexpuesto": 7085,
      "orio": 7086,
      "Ġecos": 7087,
      "rÃ³": 7088,
      "ĠEspec": 7089,
      "vivencia": 7090,
      "Ġ119": 7091,
      "ĠDig": 7092,
      "Ġmaestro": 7093,
      "ĠAutÃ³noma": 7094,
      "reo": 7095,
      "ĠRegional": 7096,
      "Ġgestion": 7097,
      "Ġcorresponden": 7098,
      "Ġdoctrina": 7099,
      "ĠdomÃ©s": 7100,
      "Ġmotor": 7101,
      "bra": 7102,
      "Ġnav": 7103,
      "ĠÃºltimas": 7104,
      "pieza": 7105,
      "Ġcome": 7106,
      "ĠDu": 7107,
      "ĠÃ¡mbitos": 7108,
      "portes": 7109,
      "ĠteÃ³rica": 7110,
      "terap": 7111,
      "ĠexclusiÃ³n": 7112,
      "Ġsirve": 7113,
      "Ġbajos": 7114,
      "Ġsuger": 7115,
      "bio": 7116,
      "Ġrefleja": 7117,
      "Ġpendi": 7118,
      "tors": 7119,
      "Ġtestimon": 7120,
      "Ġpresentaron": 7121,
      "Ġtrayec": 7122,
      "Ġsiete": 7123,
      "ĠTrujillo": 7124,
      "ĠpermitirÃ¡": 7125,
      "umin": 7126,
      "ĠRespecto": 7127,
      "ernam": 7128,
      "ĠTE": 7129,
      "Ġbuenas": 7130,
      "land": 7131,
      "Ġsemej": 7132,
      "Ġmensaje": 7133,
      "ĠpH": 7134,
      "ĠPO": 7135,
      "ANTE": 7136,
      "sin": 7137,
      "Ġtranspar": 7138,
      "ĠlÃŃqu": 7139,
      "Ġformato": 7140,
      "ĠHipÃ³tesis": 7141,
      "Ġfirm": 7142,
      "Ġcreencias": 7143,
      "ĠBra": 7144,
      "Ã±ana": 7145,
      "ĠsÃŃntesis": 7146,
      "ĠtÃŃp": 7147,
      "Pre": 7148,
      "Ġ107": 7149,
      "encio": 7150,
      "americano": 7151,
      "mann": 7152,
      "emia": 7153,
      "ĠMem": 7154,
      "especi": 7155,
      "aborado": 7156,
      "ĠSpearman": 7157,
      "Ġasunto": 7158,
      "BLIO": 7159,
      "Ġ115": 7160,
      "ĠDomin": 7161,
      "INA": 7162,
      "tein": 7163,
      "ĠCAL": 7164,
      "ĠdÃ©cadas": 7165,
      "mu": 7166,
      "tisfacciÃ³n": 7167,
      "Ġarbitr": 7168,
      "tipos": 7169,
      "vari": 7170,
      "006": 7171,
      "Ġmaestros": 7172,
      "ĠEspaÃ±ola": 7173,
      "Ġcursos": 7174,
      "ciÃ³": 7175,
      "ĠempÃŃr": 7176,
      "ĠFinanci": 7177,
      "Ca": 7178,
      "Ġreglam": 7179,
      "Ġjoven": 7180,
      "Ġpreciso": 7181,
      "izadas": 7182,
      "Ġ108": 7183,
      "Ġmodalidad": 7184,
      "Ġcaracteriza": 7185,
      "Ġsostiene": 7186,
      "fectos": 7187,
      "Ġaltas": 7188,
      "Ġvigente": 7189,
      "ĠÃ©nfasis": 7190,
      "ĠCAPÃįTULO": 7191,
      "Ġquiz": 7192,
      "Ġanimal": 7193,
      "123": 7194,
      "Ġpronunci": 7195,
      "mica": 7196,
      "tadores": 7197,
      "aboral": 7198,
      "itares": 7199,
      "ory": 7200,
      "Ġparcial": 7201,
      "Ġlegisla": 7202,
      "onia": 7203,
      "teo": 7204,
      "ments": 7205,
      "Ġmetros": 7206,
      "cionamiento": 7207,
      "ĠmÃ©dicos": 7208,
      "Ġbarrio": 7209,
      "ĠÃģn": 7210,
      "Ġpatrones": 7211,
      "Ã¡metro": 7212,
      "Ġdocumental": 7213,
      "endoza": 7214,
      "Ġcontradic": 7215,
      "Ġencuentro": 7216,
      "Ġrique": 7217,
      "ĠMur": 7218,
      "ueva": 7219,
      "PP": 7220,
      "anal": 7221,
      "Ġacuerdos": 7222,
      "Ġsatisfac": 7223,
      "ĠespecÃŃficamente": 7224,
      "Ġcuerpos": 7225,
      "desarrollo": 7226,
      "ĠArag": 7227,
      "AA": 7228,
      "Ġinstitucionales": 7229,
      "iciembre": 7230,
      "ĠVallejo": 7231,
      "ft": 7232,
      "Ġperiodis": 7233,
      "Ġhorm": 7234,
      "ĠGENER": 7235,
      "aprendizaje": 7236,
      "udiciales": 7237,
      "usto": 7238,
      "Ġ109": 7239,
      "Ġdemas": 7240,
      "Ġdelim": 7241,
      "Ġfuncionarios": 7242,
      "Ġopiniones": 7243,
      "Ġviviendas": 7244,
      "ĠCir": 7245,
      "ĠComercio": 7246,
      "ERI": 7247,
      "vez": 7248,
      "control": 7249,
      "ĠhÃ¡bitos": 7250,
      "ME": 7251,
      "Ġincom": 7252,
      "ĠWeb": 7253,
      "ĠMac": 7254,
      "ĠMari": 7255,
      "viÃ³": 7256,
      "Ġescenarios": 7257,
      "Ġdisminuir": 7258,
      "Ġarque": 7259,
      "Ġalgorit": 7260,
      "Ġconden": 7261,
      "ezas": 7262,
      "Ġescribir": 7263,
      "Ġ125": 7264,
      "ilio": 7265,
      "cialmente": 7266,
      "Ġ05": 7267,
      "ĠResoluciÃ³n": 7268,
      "ĠinstalaciÃ³n": 7269,
      "Ġaquello": 7270,
      "UMEN": 7271,
      "Ġajuste": 7272,
      "Ġdemuestra": 7273,
      "ĠNaciones": 7274,
      "ieve": 7275,
      "Ġ106": 7276,
      "Ġdisponibles": 7277,
      "Ġintervenciones": 7278,
      "ume": 7279,
      "turaciÃ³n": 7280,
      "Ġbu": 7281,
      "Ġemi": 7282,
      "TRI": 7283,
      "ucle": 7284,
      "ĠFR": 7285,
      "ĠteÃ³ricos": 7286,
      "Ġmiedo": 7287,
      "PR": 7288,
      "gÃ©n": 7289,
      "ĠBern": 7290,
      "Ġcuidados": 7291,
      "ĠTu": 7292,
      "ĠZaragoza": 7293,
      "Ġestablecen": 7294,
      "Ġimplan": 7295,
      "Ġnecesariamente": 7296,
      "flex": 7297,
      "Ġjug": 7298,
      "ILIDAD": 7299,
      "Ġapertura": 7300,
      "derech": 7301,
      "Ġenfrent": 7302,
      "ĠMAT": 7303,
      "Ġmanual": 7304,
      "cop": 7305,
      "Ġtablas": 7306,
      "ĠLiber": 7307,
      "Su": 7308,
      "ĠModer": 7309,
      "endas": 7310,
      "ĠFondo": 7311,
      "Ġsemi": 7312,
      "ĠGre": 7313,
      "gal": 7314,
      "repositorio": 7315,
      "Ġaux": 7316,
      "Ġensayos": 7317,
      "ĠPablo": 7318,
      "Ġpesetas": 7319,
      "Ġusando": 7320,
      "ĠpatrÃ³n": 7321,
      "ricaciÃ³n": 7322,
      "Ġgobiernos": 7323,
      "Ġprocesamiento": 7324,
      "ĠMartin": 7325,
      "Ġ1983": 7326,
      "ĠhabrÃŃa": 7327,
      "Ġpositivos": 7328,
      "ĠANEXO": 7329,
      "ĠEdad": 7330,
      "Ã©sar": 7331,
      "Ġprogreso": 7332,
      "Ġsatisfacer": 7333,
      "Cor": 7334,
      "ok": 7335,
      "ĠTÃ©cnicas": 7336,
      "Ġfoc": 7337,
      "ĠcÃ¡ncer": 7338,
      "Ġconside": 7339,
      "Ġresumen": 7340,
      "ĠexpansiÃ³n": 7341,
      "Ġav": 7342,
      "ENA": 7343,
      "TURA": 7344,
      "person": 7345,
      "itstream": 7346,
      "ĠubicaciÃ³n": 7347,
      "Ġtip": 7348,
      "Ġinsu": 7349,
      "Ġcapa": 7350,
      "ĠMen": 7351,
      "ĠgrÃ¡fica": 7352,
      "tropolit": 7353,
      "Ġmagni": 7354,
      "ĠProcedi": 7355,
      "vador": 7356,
      "ĠtransiciÃ³n": 7357,
      "tecn": 7358,
      "ines": 7359,
      "pot": 7360,
      "Lo": 7361,
      "Ġsiguen": 7362,
      "ĠRO": 7363,
      "Ġcalor": 7364,
      "Ġvs": 7365,
      "Ġaportes": 7366,
      "Ġmaterias": 7367,
      "ĠPeru": 7368,
      "ĠScience": 7369,
      "defin": 7370,
      "maz": 7371,
      "ĠespÃŃritu": 7372,
      "Ġsecuencia": 7373,
      "Ġdispone": 7374,
      "Ġarti": 7375,
      "Ġacredi": 7376,
      "Ġcapaces": 7377,
      "ĠAudi": 7378,
      "Ġestric": 7379,
      "onos": 7380,
      "icul": 7381,
      "gran": 7382,
      "Ġcontex": 7383,
      "ĠincorporaciÃ³n": 7384,
      "vio": 7385,
      "ĠUnidas": 7386,
      "Ġcuyos": 7387,
      "ĠMientras": 7388,
      "Ġpeligro": 7389,
      "Ã³lico": 7390,
      "ull": 7391,
      "ioso": 7392,
      "Ġdeterior": 7393,
      "Ġdial": 7394,
      "Ġaut": 7395,
      "Ġordenamiento": 7396,
      "Ġdefinido": 7397,
      "Ġfondos": 7398,
      "Ġdisponibilidad": 7399,
      "Ġderecha": 7400,
      "Ġadicional": 7401,
      "quÃŃm": 7402,
      "ĠcontaminaciÃ³n": 7403,
      "300": 7404,
      "ĠMO": 7405,
      "ĠXXI": 7406,
      "Ġagente": 7407,
      "ĠexplicaciÃ³n": 7408,
      "elas": 7409,
      "Ġaclar": 7410,
      "ĠUtil": 7411,
      "Ġindependencia": 7412,
      "cleo": 7413,
      "Ġojos": 7414,
      "Ġdemand": 7415,
      "Ġejercer": 7416,
      "ĠConclusiones": 7417,
      "Ġdispuesto": 7418,
      "Ġrit": 7419,
      "Ġresponde": 7420,
      "Ġefectividad": 7421,
      "cusiÃ³n": 7422,
      "Ġmam": 7423,
      "amÃ©rica": 7424,
      "ADOS": 7425,
      "ĠaproximaciÃ³n": 7426,
      "ĠgarantÃŃa": 7427,
      "Ġsalir": 7428,
      "Ġ1982": 7429,
      "TEN": 7430,
      "Ġcontinuidad": 7431,
      "ARC": 7432,
      "ĠIgu": 7433,
      "ĠChe": 7434,
      "Ġrode": 7435,
      "Ġasociado": 7436,
      "ders": 7437,
      "ĠViv": 7438,
      "BR": 7439,
      "imp": 7440,
      "ĠRho": 7441,
      "arlos": 7442,
      "ĠManual": 7443,
      "Ġpreserv": 7444,
      "mano": 7445,
      "Ġ04": 7446,
      "cap": 7447,
      "Ġuniversal": 7448,
      "ĠMex": 7449,
      "ĠSiempre": 7450,
      "ĠAbr": 7451,
      "Ġblanco": 7452,
      "ĠGU": 7453,
      "Ġhallazgos": 7454,
      "viron": 7455,
      "tinu": 7456,
      "ele": 7457,
      "ĠCosta": 7458,
      "ucho": 7459,
      "turos": 7460,
      "IDA": 7461,
      "Ġobtenida": 7462,
      "ĠBor": 7463,
      "Ġprivileg": 7464,
      "Ġcompartir": 7465,
      "crito": 7466,
      "ĠOBJE": 7467,
      "Ġthis": 7468,
      "IER": 7469,
      "ĠEncuesta": 7470,
      "ĠExper": 7471,
      "OLOGÃįA": 7472,
      "ĠNic": 7473,
      "famil": 7474,
      "Ġocul": 7475,
      "Ġnula": 7476,
      "-.": 7477,
      "donde": 7478,
      "Ġtendencias": 7479,
      "ĠMana": 7480,
      "Ġconvir": 7481,
      "Ġinterro": 7482,
      "ĠCONCLUSIONES": 7483,
      "Ġing": 7484,
      "Ġfrecuente": 7485,
      "Ġmexic": 7486,
      "ĠRecursos": 7487,
      "SegÃºn": 7488,
      "Ġexige": 7489,
      "ĠRies": 7490,
      "Ġevento": 7491,
      "ĠUNIVERSIDAD": 7492,
      "Ġsucede": 7493,
      "valo": 7494,
      "viaciÃ³n": 7495,
      "TRE": 7496,
      "obje": 7497,
      "ualmente": 7498,
      "Ġnegativo": 7499,
      "ĠdeterminÃ³": 7500,
      "ĠMIN": 7501,
      "zadas": 7502,
      "Ġiniciativa": 7503,
      "ĠRÃŃo": 7504,
      "EI": 7505,
      "PC": 7506,
      "tice": 7507,
      "Ġuniversitarios": 7508,
      "ze": 7509,
      "icales": 7510,
      "Ġexpresar": 7511,
      "Ġbuscan": 7512,
      "Ġph": 7513,
      "toriales": 7514,
      "Ġcompuesto": 7515,
      "Ġexport": 7516,
      "ĠAlcal": 7517,
      "ugh": 7518,
      "Ġcarta": 7519,
      "Ġllevan": 7520,
      "Ġencuestas": 7521,
      "bach": 7522,
      "ot": 7523,
      "ferentes": 7524,
      "Ġgenerado": 7525,
      "ĠintroducciÃ³n": 7526,
      "nizaciÃ³n": 7527,
      "Ġnon": 7528,
      "cra": 7529,
      "Ġpareci": 7530,
      "Ġexterna": 7531,
      "abel": 7532,
      "dellÃŃn": 7533,
      "ĠestÃ¡ndares": 7534,
      "Ġgrados": 7535,
      "ucha": 7536,
      "Ġcanal": 7537,
      "grafÃŃas": 7538,
      "ilancia": 7539,
      "ĠJohn": 7540,
      "gadas": 7541,
      "ĠdebÃŃa": 7542,
      "Ġpoca": 7543,
      "Ġproductores": 7544,
      "mx": 7545,
      "Ġtasas": 7546,
      "ĠCabe": 7547,
      "ĠImagen": 7548,
      "ĠÃ©stas": 7549,
      "ĠsÃ³lidos": 7550,
      "ĠCastilla": 7551,
      "ĠVan": 7552,
      "ĠÃ³rganos": 7553,
      "Ġposibil": 7554,
      "Ġrurales": 7555,
      "Inter": 7556,
      "Ġhubiera": 7557,
      "Ġmejoramiento": 7558,
      "avier": 7559,
      "Ġhogares": 7560,
      "ĠResumen": 7561,
      "Sin": 7562,
      "mÃ¡ticos": 7563,
      "Ġtributaria": 7564,
      "ĠGranada": 7565,
      "Ġreferencias": 7566,
      "ĠdocumentaciÃ³n": 7567,
      "Ġimpul": 7568,
      "Ġintegrantes": 7569,
      "ierto": 7570,
      "Ġvamos": 7571,
      "impor": 7572,
      "lados": 7573,
      "informaciÃ³n": 7574,
      "ux": 7575,
      "Ġutilizadas": 7576,
      "ĠlÃ¡": 7577,
      "Ġpartidos": 7578,
      "cord": 7579,
      "ĠmÃŃnima": 7580,
      "orld": 7581,
      "ĠexcepciÃ³n": 7582,
      "Ġase": 7583,
      "Ġsimplemente": 7584,
      "ĠMoreno": 7585,
      "Ġuniversitaria": 7586,
      "Ġhosp": 7587,
      "Ġservir": 7588,
      "mal": 7589,
      "ometrÃŃa": 7590,
      "isos": 7591,
      "Ġmunicipios": 7592,
      "blo": 7593,
      "Ġexpresiones": 7594,
      "gÃ¼": 7595,
      "ĠSEG": 7596,
      "Ġllevado": 7597,
      "echas": 7598,
      "Ġocciden": 7599,
      "Ġdomici": 7600,
      "parte": 7601,
      "ford": 7602,
      "Ġmedicam": 7603,
      "acciones": 7604,
      "ĠIng": 7605,
      "ĠmatemÃ¡ticas": 7606,
      "princip": 7607,
      "Ġpublicaciones": 7608,
      "Ġprevalencia": 7609,
      "tique": 7610,
      "ĠFormaciÃ³n": 7611,
      "Ġacer": 7612,
      "Ġcatal": 7613,
      "Ġmente": 7614,
      "Ġdiscursos": 7615,
      "ĠllegÃ³": 7616,
      "tring": 7617,
      "ĠaprobaciÃ³n": 7618,
      "utas": 7619,
      "ĠacadÃ©micos": 7620,
      "Ġarriba": 7621,
      "Ġherman": 7622,
      "tificado": 7623,
      "Ġcontes": 7624,
      "derÃŃa": 7625,
      "Ġ113": 7626,
      "ĠespaÃ±oles": 7627,
      "Ġcrim": 7628,
      "Ġcombin": 7629,
      "Ġrepresentaciones": 7630,
      "rado": 7631,
      "Ġvic": 7632,
      "amba": 7633,
      "ĠCient": 7634,
      "ECTO": 7635,
      "tiemp": 7636,
      "Ġ400": 7637,
      "ĠClar": 7638,
      "Ġmadera": 7639,
      "Ġinstruc": 7640,
      "Ġnot": 7641,
      "Ġaccion": 7642,
      "Ġantrop": 7643,
      "Ġatrac": 7644,
      "ĠJunta": 7645,
      "Ġmovil": 7646,
      "Ġacog": 7647,
      "amarca": 7648,
      "Ġcorreg": 7649,
      "Ġprecisa": 7650,
      "Ġdetalle": 7651,
      "dÃ³": 7652,
      "Ġobservaciones": 7653,
      "docu": 7654,
      "iores": 7655,
      "Ġjorn": 7656,
      "Ġespos": 7657,
      "ĠMendoza": 7658,
      "ĠRegistro": 7659,
      "ĠEstruc": 7660,
      "ĠComunidad": 7661,
      "Ġespacial": 7662,
      "mbres": 7663,
      "ĠPin": 7664,
      "amp": 7665,
      "elle": 7666,
      "orar": 7667,
      "Ġenrique": 7668,
      "ocial": 7669,
      "tracciÃ³n": 7670,
      "ĠGuti": 7671,
      "Ġespiri": 7672,
      "NI": 7673,
      "ons": 7674,
      "Ġapun": 7675,
      "Ġasumir": 7676,
      "Ġempie": 7677,
      "Ġcontras": 7678,
      "Ġdemandas": 7679,
      "Ġros": 7680,
      "rafo": 7681,
      "ĠcombinaciÃ³n": 7682,
      "Ġintra": 7683,
      "hip": 7684,
      "cales": 7685,
      "ĠEdiciones": 7686,
      "jun": 7687,
      "Ġmovilidad": 7688,
      "ĠSab": 7689,
      "Ġpersonaje": 7690,
      "Ġacepta": 7691,
      "ucÃŃa": 7692,
      "Ġ--": 7693,
      "IZACIÃĵN": 7694,
      "Ġintent": 7695,
      "cado": 7696,
      "adminis": 7697,
      "Ġrequerimientos": 7698,
      "ĠCastro": 7699,
      "Ġcanales": 7700,
      "Ġestilos": 7701,
      "idel": 7702,
      "Ġsitios": 7703,
      "ĠLen": 7704,
      "Ġindicar": 7705,
      "Ġheter": 7706,
      "cid": 7707,
      "Ġencontrado": 7708,
      "Ġciudadana": 7709,
      "Ġexpor": 7710,
      "Ġcomput": 7711,
      "ĠProvincia": 7712,
      "urg": 7713,
      "Ġtran": 7714,
      "ĠmodificaciÃ³n": 7715,
      "Ġabandon": 7716,
      "Ġllamada": 7717,
      "tuaciones": 7718,
      "ĠConsider": 7719,
      "TITU": 7720,
      "ĠDimensiÃ³n": 7721,
      "ties": 7722,
      "ĠdinÃ¡micas": 7723,
      "ĠobservÃ³": 7724,
      "ĠPregun": 7725,
      "Ġmanda": 7726,
      "Ġcuantitativo": 7727,
      "Ġcontinuar": 7728,
      "ÃŃrez": 7729,
      "Ġapreciar": 7730,
      "ÃĳA": 7731,
      "ĠelÃ©ctrica": 7732,
      "Ġnadie": 7733,
      "igra": 7734,
      "Ġtalleres": 7735,
      "Ġexamen": 7736,
      "Ġrelato": 7737,
      "ÃģLISIS": 7738,
      "ane": 7739,
      "quinas": 7740,
      "CRI": 7741,
      "ĠMayor": 7742,
      "ĠCasi": 7743,
      "Ġrecolec": 7744,
      "Ġpermitido": 7745,
      "Ġavances": 7746,
      "ĠdeclaraciÃ³n": 7747,
      "PUES": 7748,
      "Ġsemanas": 7749,
      "hid": 7750,
      "texto": 7751,
      "ĠAnal": 7752,
      "Ġresaltar": 7753,
      "Cas": 7754,
      "150": 7755,
      "adura": 7756,
      "Ã©rrez": 7757,
      "Ġciento": 7758,
      "ĠbÃ¡sico": 7759,
      "Ġhicieron": 7760,
      "estas": 7761,
      "Ġprol": 7762,
      "zca": 7763,
      "ĠprecisiÃ³n": 7764,
      "ĠPaz": 7765,
      "Ġextens": 7766,
      "Ġnovela": 7767,
      "divers": 7768,
      "dagogÃŃa": 7769,
      "ĠMÃ©todo": 7770,
      "DICE": 7771,
      "TRUC": 7772,
      "ierro": 7773,
      "Ã¡nicos": 7774,
      "tain": 7775,
      "Ġmala": 7776,
      "ham": 7777,
      "BLA": 7778,
      "Ġinfluyen": 7779,
      "abetes": 7780,
      "drÃŃa": 7781,
      "uce": 7782,
      "ĠVenez": 7783,
      "Ġsuelos": 7784,
      "ĠVis": 7785,
      "oluciones": 7786,
      "igue": 7787,
      "ĠmisiÃ³n": 7788,
      "Ġcandida": 7789,
      "ĠVII": 7790,
      "encu": 7791,
      "Ġinhib": 7792,
      "ĠAt": 7793,
      "Ġestablecidas": 7794,
      "ĠpreocupaciÃ³n": 7795,
      "Ġimpuestos": 7796,
      "Ġdebajo": 7797,
      "Ġveget": 7798,
      "ĠseparaciÃ³n": 7799,
      "Ġtrabaja": 7800,
      "Ġcircu": 7801,
      "Ġregula": 7802,
      "ĠtrÃ¡": 7803,
      "Ġhistorias": 7804,
      "Ġtransferencia": 7805,
      "Ġdiscre": 7806,
      "Ġprefer": 7807,
      "ĠAuto": 7808,
      "Ġpostu": 7809,
      "Ġgub": 7810,
      "Ġilustr": 7811,
      "xis": 7812,
      "ĠexplÃŃci": 7813,
      "DS": 7814,
      "ĠformulaciÃ³n": 7815,
      "Ã¡cticas": 7816,
      "etÃŃn": 7817,
      "San": 7818,
      "red": 7819,
      "istÃ©m": 7820,
      "Ġcolombiano": 7821,
      "ĠsocioeconÃ³m": 7822,
      "Ġstudy": 7823,
      "ĠDav": 7824,
      "ĠMAN": 7825,
      "uan": 7826,
      "Ã±oz": 7827,
      "Ġdesplazamiento": 7828,
      "idal": 7829,
      "400": 7830,
      "Ġinfancia": 7831,
      "hor": 7832,
      "Ġviaje": 7833,
      "pla": 7834,
      "conf": 7835,
      "ĠCÃ©sar": 7836,
      "Ġcultivos": 7837,
      "Ġcomba": 7838,
      "Ġindispens": 7839,
      "hacer": 7840,
      "tenimiento": 7841,
      "nacional": 7842,
      "Ġign": 7843,
      "emb": 7844,
      "Ġclaves": 7845,
      "Ġalmacenamiento": 7846,
      "ied": 7847,
      "dx": 7848,
      "Ġester": 7849,
      "Ġprevios": 7850,
      "Ġfemenino": 7851,
      "Ġautora": 7852,
      "Ġcondicion": 7853,
      "TIL": 7854,
      "Ġdenominado": 7855,
      "blecer": 7856,
      "Ġesenciales": 7857,
      "Ġcompletamente": 7858,
      "Ġcomienza": 7859,
      "tron": 7860,
      "ema": 7861,
      "pacio": 7862,
      "TIN": 7863,
      "ĠAndrÃ©s": 7864,
      "TAS": 7865,
      "ox": 7866,
      "talia": 7867,
      "Cl": 7868,
      "Ġinteracciones": 7869,
      "Ġconlleva": 7870,
      "adi": 7871,
      "Ġatrib": 7872,
      "ĠFactores": 7873,
      "Ġfomentar": 7874,
      "Ġidentifica": 7875,
      "Ġanaliza": 7876,
      "Ġescena": 7877,
      "XX": 7878,
      "ĠConsidera": 7879,
      "bel": 7880,
      "Ġroles": 7881,
      "Ġcolabora": 7882,
      "ĠDos": 7883,
      "Ġrein": 7884,
      "fol": 7885,
      "ĠUno": 7886,
      "Ġcontinuo": 7887,
      "Ġsignificativos": 7888,
      "Ġcolores": 7889,
      "ĠOper": 7890,
      "Ġregla": 7891,
      "tano": 7892,
      "piraciÃ³n": 7893,
      "ĠÃ¡cido": 7894,
      "ĠRiv": 7895,
      "Ġang": 7896,
      "Ġtrato": 7897,
      "iten": 7898,
      "Ġconformidad": 7899,
      "ĠÎ²": 7900,
      "ĠconstituciÃ³n": 7901,
      "Ġproporciona": 7902,
      "illos": 7903,
      "ding": 7904,
      "ĠInde": 7905,
      "Ġdata": 7906,
      "Ġcualquiera": 7907,
      "ĠpedagÃ³gico": 7908,
      "profes": 7909,
      "ecÃŃa": 7910,
      "Ġigualmente": 7911,
      "ĠColegio": 7912,
      "ÃŃsticamente": 7913,
      "ticidad": 7914,
      "mol": 7915,
      "Ġhojas": 7916,
      "izando": 7917,
      "Ġamar": 7918,
      "iÃ©ndose": 7919,
      "Ġsolicitud": 7920,
      "ĠcientÃŃficos": 7921,
      "rencia": 7922,
      "ĠPsych": 7923,
      "alismo": 7924,
      "Ġadministrativos": 7925,
      "Ġhabilidad": 7926,
      "Ġasim": 7927,
      "tizar": 7928,
      "Ġirre": 7929,
      "Ġalcohol": 7930,
      "Ġejempl": 7931,
      "Ġhos": 7932,
      "ĠHi": 7933,
      "ĠFundaciÃ³n": 7934,
      "Ġdisfru": 7935,
      "tualidad": 7936,
      "sub": 7937,
      "HA": 7938,
      "ĠGil": 7939,
      "ĠChina": 7940,
      "Ġiguales": 7941,
      "Ġadvers": 7942,
      "Ġpeti": 7943,
      "Ġenl": 7944,
      "ise": 7945,
      "ĠvehÃŃculos": 7946,
      "ĠEnrique": 7947,
      "ĠFoto": 7948,
      "Ġdemostrar": 7949,
      "Ġinmun": 7950,
      "Ġejercicios": 7951,
      "ĠnaciÃ³n": 7952,
      "ĠEM": 7953,
      "ĠSEC": 7954,
      "Ġsaberes": 7955,
      "ĠCali": 7956,
      "Ġtempr": 7957,
      "ĠInno": 7958,
      "Ġcreciente": 7959,
      "ĠseÃ±alado": 7960,
      "ĠGa": 7961,
      "derÃ¡": 7962,
      "iosa": 7963,
      "eres": 7964,
      "ĠFa": 7965,
      "Ġpuestos": 7966,
      "IDO": 7967,
      "ĠREG": 7968,
      "Ġdeterminadas": 7969,
      "ornos": 7970,
      "Ġdeuda": 7971,
      "Ġhumedad": 7972,
      "Ġrespal": 7973,
      "ĠMunicipal": 7974,
      "Ġcombus": 7975,
      "Ġ130": 7976,
      "Ġcoci": 7977,
      "ĠBarr": 7978,
      "Ġ1981": 7979,
      "ĠTRABA": 7980,
      "unciÃ³n": 7981,
      "Ġalguien": 7982,
      "Ġ123": 7983,
      "Ġprecip": 7984,
      "andro": 7985,
      "ĠHerr": 7986,
      "Ġexternos": 7987,
      "Ġ1979": 7988,
      "CAP": 7989,
      "indi": 7990,
      "ĠEmpresa": 7991,
      "Ġpade": 7992,
      "Ġtrascen": 7993,
      "denas": 7994,
      "ĠNombre": 7995,
      "CAL": 7996,
      "conocimiento": 7997,
      "Ġum": 7998,
      "cs": 7999,
      "Ġ121": 8000,
      "Ġ140": 8001,
      "ĠMedicina": 8002,
      "ĠMedellÃŃn": 8003,
      "Ġalej": 8004,
      "diz": 8005,
      "Ġcreatividad": 8006,
      "Ro": 8007,
      "Ġalma": 8008,
      "ĠMunicipalidad": 8009,
      "Ġpublicado": 8010,
      "ĠTrabaj": 8011,
      "denes": 8012,
      "ĠCAM": 8013,
      "Ã©rcito": 8014,
      "Ġlicencia": 8015,
      "ĠAz": 8016,
      "ĠdepresiÃ³n": 8017,
      "Ġprima": 8018,
      "Ġofrecen": 8019,
      "ĠConf": 8020,
      "zÃ³n": 8021,
      "ĠEdu": 8022,
      "Ġelaborar": 8023,
      "Ġcuen": 8024,
      "ariales": 8025,
      "arquÃŃa": 8026,
      "ĠAmerican": 8027,
      "Ġagrade": 8028,
      "????????": 8029,
      "Ġdependiendo": 8030,
      "ĠMayo": 8031,
      "ĠpÃ©rdidas": 8032,
      "Ġocupa": 8033,
      "uestionario": 8034,
      "uyeron": 8035,
      "ĠDistrito": 8036,
      "olencia": 8037,
      "Ġfundamento": 8038,
      "Ã¡ns": 8039,
      "ng": 8040,
      "Ġaca": 8041,
      "trar": 8042,
      "onso": 8043,
      "Ġriqueza": 8044,
      "Ġedades": 8045,
      "ĠEconom": 8046,
      "Ġ07": 8047,
      "ĠSel": 8048,
      "ĠprogramaciÃ³n": 8049,
      "Ã¡mica": 8050,
      "ices": 8051,
      "Ġcaja": 8052,
      "ĠMel": 8053,
      "Ġinformes": 8054,
      "pero": 8055,
      "Ġsoy": 8056,
      "Ġtejido": 8057,
      "ORES": 8058,
      "Ġdue": 8059,
      "Ġterritorios": 8060,
      "Ġafectar": 8061,
      "Ġenv": 8062,
      "Ġlac": 8063,
      "ĠCÃ¡": 8064,
      "101": 8065,
      "GRAF": 8066,
      "tegra": 8067,
      "ĠEp": 8068,
      "Ġprivadas": 8069,
      "JA": 8070,
      "Ġrendi": 8071,
      "ĠEnero": 8072,
      "test": 8073,
      "ris": 8074,
      "Ġencontraron": 8075,
      "ĠEje": 8076,
      "Ġreproduc": 8077,
      "Ġprocede": 8078,
      "Ġasuntos": 8079,
      "resiÃ³n": 8080,
      "Ġproporcionar": 8081,
      "Ġcita": 8082,
      "ĠnÃºmeros": 8083,
      "Ġreclam": 8084,
      "TEC": 8085,
      "Ġhuel": 8086,
      "Ġ117": 8087,
      "Ġasignatura": 8088,
      "ĠnÃºcleo": 8089,
      "ĠLO": 8090,
      "Ġeco": 8091,
      "teles": 8092,
      "ĠlogrÃ³": 8093,
      "Ã©rico": 8094,
      "Ġdosis": 8095,
      "mico": 8096,
      "108": 8097,
      "certid": 8098,
      "Ġmiembro": 8099,
      "Ġcompuestos": 8100,
      "ĠPaÃŃs": 8101,
      "Ġpermitiendo": 8102,
      "Ġcorrecto": 8103,
      "Ġprofesorado": 8104,
      "Ġexces": 8105,
      "Ġextrac": 8106,
      "Ġpesos": 8107,
      "Ġproveedores": 8108,
      "jur": 8109,
      "ĠNaciÃ³n": 8110,
      "Ġinspec": 8111,
      "ee": 8112,
      "imento": 8113,
      "Ġintegridad": 8114,
      "Ġacel": 8115,
      "Ġnegativos": 8116,
      "Ġpoli": 8117,
      "dro": 8118,
      "Ġsuperar": 8119,
      "ĠPÃºblico": 8120,
      "Ġeval": 8121,
      "trabaj": 8122,
      "load": 8123,
      "Ġmedicina": 8124,
      "prob": 8125,
      "cuenta": 8126,
      "ĠraÃŃz": 8127,
      "ĠRespons": 8128,
      "ĠINVESTIGACIÃĵN": 8129,
      "TIVIDAD": 8130,
      "Ġrecibe": 8131,
      "Ġcelular": 8132,
      "Ġsensibilidad": 8133,
      "tum": 8134,
      "ĠJimÃ©nez": 8135,
      "ĠseÃ±alan": 8136,
      "Ġgro": 8137,
      "nia": 8138,
      "ĠreligiÃ³n": 8139,
      "Ġ000": 8140,
      "ĠCatÃ³lica": 8141,
      "Ġautoestima": 8142,
      "Ġinterpretar": 8143,
      "ĠINTRODUCCIÃĵN": 8144,
      "Ġtratado": 8145,
      "TT": 8146,
      "Ġexterno": 8147,
      "ĠBÃ¡s": 8148,
      "ĠUR": 8149,
      "VE": 8150,
      "Ġconforman": 8151,
      "personales": 8152,
      "ĠIlustraciÃ³n": 8153,
      "ches": 8154,
      "Ġsignos": 8155,
      "ĠAlej": 8156,
      "ĠpsicolÃ³gico": 8157,
      "Ġreciente": 8158,
      "Ġrecibido": 8159,
      "Ġadver": 8160,
      "hy": 8161,
      "Ġpostura": 8162,
      "AMIENTO": 8163,
      "ĠrÃ¡pida": 8164,
      "Ġfacultad": 8165,
      "erte": 8166,
      "iss": 8167,
      "Ġbacteri": 8168,
      "Ġpiel": 8169,
      "ĠTemp": 8170,
      "Ġ114": 8171,
      "ization": 8172,
      "Ġconstru": 8173,
      "cÃ©s": 8174,
      "Ġclaridad": 8175,
      "inf": 8176,
      "ĠArte": 8177,
      "Ġileg": 8178,
      "deras": 8179,
      "ĠTech": 8180,
      "QUE": 8181,
      "Ġdiagnos": 8182,
      "tualizaciÃ³n": 8183,
      "Ġ1978": 8184,
      "Ġguer": 8185,
      "Ġexclusivamente": 8186,
      "ween": 8187,
      "ety": 8188,
      "ĠSecciÃ³n": 8189,
      "ĠsÃŃmb": 8190,
      "ENTA": 8191,
      "ĠdivisiÃ³n": 8192,
      "cionario": 8193,
      "Ġrenta": 8194,
      "Ġabierta": 8195,
      "ĠhacÃŃa": 8196,
      "Ġresponsabilidades": 8197,
      "Ġcoinciden": 8198,
      "Ġoficiales": 8199,
      "ĠCompet": 8200,
      "aplic": 8201,
      "Ġconveniente": 8202,
      "Ġentrar": 8203,
      "ĠmaÃ±ana": 8204,
      "105": 8205,
      "Ġposiciones": 8206,
      "2009": 8207,
      "PEC": 8208,
      "Ġcomprobar": 8209,
      "Ġcontribuye": 8210,
      "trital": 8211,
      "Ġgrab": 8212,
      "Ġsensor": 8213,
      "fael": 8214,
      "Ġlegisl": 8215,
      "ĠCha": 8216,
      "ĠcampaÃ±a": 8217,
      "ĠEE": 8218,
      "esÃŃa": 8219,
      "osos": 8220,
      "Ġsostenibilidad": 8221,
      "ĠaplicÃ³": 8222,
      "ĠRio": 8223,
      "Ġnotable": 8224,
      "ĠprofesiÃ³n": 8225,
      "ĠAprendizaje": 8226,
      "Ġprevenir": 8227,
      "vada": 8228,
      "Ġmejoras": 8229,
      "iter": 8230,
      "iados": 8231,
      "Ġcasas": 8232,
      "ĠCP": 8233,
      "Ġejecutar": 8234,
      "Art": 8235,
      "Ġorganismo": 8236,
      "Ġteatro": 8237,
      "ĠLim": 8238,
      "ĠestratÃ©gica": 8239,
      "ĠFuer": 8240,
      "ĠdÃ³nde": 8241,
      "Ġlabores": 8242,
      "dÃ³n": 8243,
      "ĠHar": 8244,
      "lana": 8245,
      "Ġvuelve": 8246,
      "ĠTerc": 8247,
      "Ġcompens": 8248,
      "ĠestÃŃm": 8249,
      "ĠMir": 8250,
      "ĠTex": 8251,
      "ĠEc": 8252,
      "let": 8253,
      "Ġnombres": 8254,
      "junto": 8255,
      "ficaciÃ³n": 8256,
      "ĠNuevo": 8257,
      "apro": 8258,
      "Ġconse": 8259,
      "Ġparticularmente": 8260,
      "truir": 8261,
      "ĠNor": 8262,
      "Ġapara": 8263,
      "ĠInvestigaciones": 8264,
      "udas": 8265,
      "Ġabog": 8266,
      "Ġnotas": 8267,
      "ĠSecretarÃŃa": 8268,
      "ĠGlob": 8269,
      "amblea": 8270,
      "Ġfabric": 8271,
      "ĠNA": 8272,
      "Ġasociadas": 8273,
      "gente": 8274,
      "inc": 8275,
      "Ġrecorrido": 8276,
      "tambiÃ©n": 8277,
      "vimiento": 8278,
      "Ġdemostrado": 8279,
      "Ġcotidiana": 8280,
      "Ġenfoques": 8281,
      "ĠContra": 8282,
      "Ġproducido": 8283,
      "Ġconsiderados": 8284,
      "Ġdignidad": 8285,
      "ombia": 8286,
      "onÃŃa": 8287,
      "Ġ09": 8288,
      "Ġdispositivo": 8289,
      "ĠMicro": 8290,
      "ĠAlgunos": 8291,
      "003": 8292,
      "Ġminim": 8293,
      "Ġqual": 8294,
      "Ġargumentos": 8295,
      "Ġacon": 8296,
      "ARRO": 8297,
      "Ad": 8298,
      "ĠadopciÃ³n": 8299,
      "ĠArquitec": 8300,
      "Ġia": 8301,
      "ĠdÃ©bil": 8302,
      "Ġcree": 8303,
      "Ġalcal": 8304,
      "Ġpropa": 8305,
      "Ġconsentimiento": 8306,
      "try": 8307,
      "merÃŃa": 8308,
      "onel": 8309,
      "Ġ116": 8310,
      "ĠDef": 8311,
      "ĠÃŃndices": 8312,
      "agr": 8313,
      "Ġanticip": 8314,
      "Ġvesti": 8315,
      "kin": 8316,
      "ĠtemÃ¡tica": 8317,
      "tibilidad": 8318,
      "ĠdesafÃŃos": 8319,
      "Ġargen": 8320,
      "Ġlesiones": 8321,
      "Ġverificar": 8322,
      "ĠCron": 8323,
      "ĠTÃŃtulo": 8324,
      "cribir": 8325,
      "ĠcontrataciÃ³n": 8326,
      "Ġposteriores": 8327,
      "eca": 8328,
      "ĠobstÃ¡": 8329,
      "Ġ180": 8330,
      "mania": 8331,
      "ĠLor": 8332,
      "Ġocasion": 8333,
      "ĠcorazÃ³n": 8334,
      "dig": 8335,
      "ĠestimaciÃ³n": 8336,
      "Ġcumplen": 8337,
      "ĠTrad": 8338,
      "licas": 8339,
      "Ġalea": 8340,
      "osas": 8341,
      "Ġcho": 8342,
      "Ġreduc": 8343,
      "2007": 8344,
      "Ġsustancias": 8345,
      "hesiÃ³n": 8346,
      "Ġbet": 8347,
      "ĠreparaciÃ³n": 8348,
      "Ġfuturos": 8349,
      "Ġmencionados": 8350,
      "ĠtelevisiÃ³n": 8351,
      "ĠrecepciÃ³n": 8352,
      "Ġcurva": 8353,
      "ĠAragÃ³n": 8354,
      "ĠcirculaciÃ³n": 8355,
      "icen": 8356,
      "xo": 8357,
      "Ġdefinen": 8358,
      "Ġverbal": 8359,
      "aras": 8360,
      "Ġpaisaje": 8361,
      "Ġjurisprudencia": 8362,
      "ILL": 8363,
      "Ġsiglos": 8364,
      "Ġcompetitividad": 8365,
      "ĠReview": 8366,
      "Ġdeparta": 8367,
      "ĠNunca": 8368,
      "idi": 8369,
      "ĠGuÃŃa": 8370,
      "Ġgubernam": 8371,
      "ĠBIBLIO": 8372,
      "estable": 8373,
      "article": 8374,
      "ede": 8375,
      "UT": 8376,
      "sas": 8377,
      "mato": 8378,
      "ĠÃĵ": 8379,
      "2000": 8380,
      "igen": 8381,
      "ĠDavid": 8382,
      "RIM": 8383,
      "103": 8384,
      "Ġcoordin": 8385,
      "atÃŃa": 8386,
      "Ġincur": 8387,
      "ĠMonte": 8388,
      "ĠBueno": 8389,
      "Ġlogrado": 8390,
      "Ġnecesitan": 8391,
      "Ġvid": 8392,
      "plante": 8393,
      "Ġadecuadas": 8394,
      "cida": 8395,
      "ĠfilosÃ³": 8396,
      "Ġmortalidad": 8397,
      "Ġdependiente": 8398,
      "untamiento": 8399,
      "tru": 8400,
      "Ġdifun": 8401,
      "exos": 8402,
      "Ġnacimiento": 8403,
      "ĠCasa": 8404,
      "ĠPresidente": 8405,
      "ĠfÃŃsicos": 8406,
      "ĠreproducciÃ³n": 8407,
      "Ġpocas": 8408,
      "Ġproductivo": 8409,
      "ĠenseÃ±ar": 8410,
      "ĠComitÃ©": 8411,
      "Ġlocalidad": 8412,
      "ĠCuba": 8413,
      "ĠÃ³rgano": 8414,
      "urs": 8415,
      "Ġtradu": 8416,
      "Ġmoderna": 8417,
      "111": 8418,
      "ĠRegular": 8419,
      "Ã¡nsito": 8420,
      "Ã©f": 8421,
      "seguridad": 8422,
      "BO": 8423,
      "Ġcognitivo": 8424,
      "Ġiii": 8425,
      "orado": 8426,
      "Ġsentidos": 8427,
      "Ġtratados": 8428,
      "Ġpac": 8429,
      "rendimiento": 8430,
      "ĠRamÃŃrez": 8431,
      "ĠGutiÃ©rrez": 8432,
      "ORIA": 8433,
      "ĠAdo": 8434,
      "dentes": 8435,
      "Ġolvid": 8436,
      "ĠhistÃ³ricos": 8437,
      "ĠGab": 8438,
      "Ġcontroles": 8439,
      "ĠHol": 8440,
      "ria": 8441,
      "oder": 8442,
      "Ġagricultura": 8443,
      "Ġfavorable": 8444,
      "ĠMuestra": 8445,
      "ĠPrimera": 8446,
      "Ġgana": 8447,
      "Ġadelan": 8448,
      "ĠCaracterÃŃsticas": 8449,
      "ĠpsicologÃŃa": 8450,
      "chas": 8451,
      "Anexo": 8452,
      "Ġindependientes": 8453,
      "ĠOficial": 8454,
      "ĠEf": 8455,
      "Ġmatrimonio": 8456,
      "Ġbalance": 8457,
      "Ġusa": 8458,
      "Ġinterpreta": 8459,
      "Ġtercero": 8460,
      "FICI": 8461,
      "proceso": 8462,
      "ISTE": 8463,
      "wit": 8464,
      "ĠTam": 8465,
      "ianos": 8466,
      "UER": 8467,
      "dÃŃ": 8468,
      "Ġexcep": 8469,
      "Ġactor": 8470,
      "investigaciÃ³n": 8471,
      "Ġsede": 8472,
      "mio": 8473,
      "Ġoro": 8474,
      "ianza": 8475,
      "Ġverde": 8476,
      "ayaquil": 8477,
      "Ġprotec": 8478,
      "Ġmodificaciones": 8479,
      "Ġestima": 8480,
      "Ġequivalente": 8481,
      "ĠPersonal": 8482,
      "Ġiba": 8483,
      "Ġapare": 8484,
      "ĠUso": 8485,
      "seÃ±anza": 8486,
      "Ġderivados": 8487,
      "colar": 8488,
      "ÃŃnsec": 8489,
      "Ġjefe": 8490,
      "Ġgusta": 8491,
      "viendo": 8492,
      "Ġmusical": 8493,
      "idemi": 8494,
      "ĠdÃ³": 8495,
      "Ġporcentajes": 8496,
      "Ġestoy": 8497,
      "Ġlimpieza": 8498,
      "Ġvirtuales": 8499,
      "ĠMuÃ±oz": 8500,
      "2023": 8501,
      "Ġhaga": 8502,
      "Ġpertenece": 8503,
      "tuden": 8504,
      "ĠAmbiental": 8505,
      "Ġbuenos": 8506,
      "ĠindÃŃgena": 8507,
      "ĠmetodologÃŃas": 8508,
      "Ġsatisfec": 8509,
      "Ã¡us": 8510,
      "teria": 8511,
      "ciencia": 8512,
      "indic": 8513,
      "consider": 8514,
      "ward": 8515,
      "ĠtecnolÃ³gicos": 8516,
      "ĠVenezuela": 8517,
      "ĠQUE": 8518,
      "ĠOx": 8519,
      "ash": 8520,
      "eÃ±a": 8521,
      "ĠvalidaciÃ³n": 8522,
      "ĠRic": 8523,
      "Ġrealizando": 8524,
      "Fin": 8525,
      "oni": 8526,
      "ĠmÃ©dica": 8527,
      "itaciones": 8528,
      "Ġmanifestaciones": 8529,
      "ĠEMP": 8530,
      "FERENCIAS": 8531,
      "ĠocupaciÃ³n": 8532,
      "Ġvecinos": 8533,
      "anÃ¡lisis": 8534,
      "ĠdetecciÃ³n": 8535,
      "ĠExp": 8536,
      "PRE": 8537,
      "smo": 8538,
      "ĠEstrategias": 8539,
      "Ġplanteado": 8540,
      "ĠBA": 8541,
      "Ġvalorar": 8542,
      "Ġ06": 8543,
      "ĠSA": 8544,
      "ook": 8545,
      "Ġviven": 8546,
      "2008": 8547,
      "Ġleche": 8548,
      "Ġvariaciones": 8549,
      "fre": 8550,
      "umos": 8551,
      "104": 8552,
      "Ġabre": 8553,
      "ĠÃģlvarez": 8554,
      "ĠÃ³p": 8555,
      "Ġmezcl": 8556,
      "ĠTecnologÃŃa": 8557,
      "EMA": 8558,
      "proble": 8559,
      "RAS": 8560,
      "ĠFilos": 8561,
      "Ġbrind": 8562,
      "ĠMate": 8563,
      "blicas": 8564,
      "Ġbomb": 8565,
      "Ġfinancieras": 8566,
      "Ġintermedi": 8567,
      "ĠFil": 8568,
      "Ġbuscando": 8569,
      "ĠcaracterizaciÃ³n": 8570,
      "ert": 8571,
      "tiempo": 8572,
      "125": 8573,
      "Ġtrabajan": 8574,
      "FES": 8575,
      "Ġplataformas": 8576,
      "Ġciudadano": 8577,
      "ĠCuestionario": 8578,
      "Ã³logos": 8579,
      "yectos": 8580,
      "Ġasociada": 8581,
      "Ġ122": 8582,
      "Ġaccidentes": 8583,
      "ĠDiciembre": 8584,
      "timos": 8585,
      "Ġ1970": 8586,
      "ĠextracciÃ³n": 8587,
      "Ġimpl": 8588,
      "Ġpieza": 8589,
      "ufac": 8590,
      "Ġhumanas": 8591,
      "ĠDOI": 8592,
      "ificado": 8593,
      "arlas": 8594,
      "encion": 8595,
      "Ġdisciplin": 8596,
      "Ġcoste": 8597,
      "Ġpresupues": 8598,
      "106": 8599,
      "ĠcontribuciÃ³n": 8600,
      "Ġpertinente": 8601,
      "sim": 8602,
      "Ġinadecu": 8603,
      "Ġfan": 8604,
      "gena": 8605,
      "Ġelevado": 8606,
      "005": 8607,
      "Ġmarcas": 8608,
      "2006": 8609,
      "enz": 8610,
      "ĠBu": 8611,
      "ĠcalificaciÃ³n": 8612,
      "gn": 8613,
      "ĠRub": 8614,
      "ĠDOC": 8615,
      "ogene": 8616,
      "Ġacorde": 8617,
      "Ġverdadero": 8618,
      "ela": 8619,
      "ĠfÃ³rmula": 8620,
      "Ġfacilita": 8621,
      "TADO": 8622,
      "Ġcantidades": 8623,
      "Ġrepresentantes": 8624,
      "puede": 8625,
      "Ġrefuer": 8626,
      "ĠHor": 8627,
      "ĠExisten": 8628,
      "tun": 8629,
      "SC": 8630,
      "Ġinfrac": 8631,
      "ĠinfecciÃ³n": 8632,
      "Ġadecuadamente": 8633,
      "ĠmetÃ¡": 8634,
      "earson": 8635,
      "ĠMatriz": 8636,
      "norm": 8637,
      "Ġnoticias": 8638,
      "ĠconsiderÃ³": 8639,
      "Ġcontraste": 8640,
      "Ġobservado": 8641,
      "Ġimposible": 8642,
      "arch": 8643,
      "Ġtoler": 8644,
      "Ġarmon": 8645,
      "Ġaltamente": 8646,
      "ĠarticulaciÃ³n": 8647,
      "tÃŃa": 8648,
      "luencia": 8649,
      "Ġmaneras": 8650,
      "Ġ118": 8651,
      "Î¼": 8652,
      "tuar": 8653,
      "Ġescrita": 8654,
      "ĠcÃ¡mara": 8655,
      "Ġllegada": 8656,
      "genda": 8657,
      "ficit": 8658,
      "Ġcicl": 8659,
      "ulada": 8660,
      "ĠKa": 8661,
      "Ġadecuados": 8662,
      "cisiÃ³n": 8663,
      "Ġdesigualdad": 8664,
      "antidad": 8665,
      "Ġentrenamiento": 8666,
      "Ġinversiones": 8667,
      "tri": 8668,
      "ĠjurÃŃdicas": 8669,
      "Ġcontrac": 8670,
      "ĠAmbiente": 8671,
      "Ġmanifiesto": 8672,
      "Ġrepresentar": 8673,
      "Ġescla": 8674,
      "erda": 8675,
      "ĠProvincial": 8676,
      "Ġmutu": 8677,
      "Ġcualitativa": 8678,
      "Ġ135": 8679,
      "lementaciÃ³n": 8680,
      "Ġvive": 8681,
      "habilitaciÃ³n": 8682,
      "Ġasent": 8683,
      "ĠOrg": 8684,
      "Ġdispers": 8685,
      "ĠcrÃ©ditos": 8686,
      "Ġhacerse": 8687,
      "Ġpsicos": 8688,
      "Ġnerv": 8689,
      "ĠoposiciÃ³n": 8690,
      "FL": 8691,
      "Ġcifras": 8692,
      "Ġinex": 8693,
      "FICACIÃĵN": 8694,
      "ĠsimbÃ³": 8695,
      "ings": 8696,
      "Ġcasti": 8697,
      "TM": 8698,
      "DES": 8699,
      "terapia": 8700,
      "Ġembarazo": 8701,
      "004": 8702,
      "Reg": 8703,
      "umb": 8704,
      "ĠestratÃ©gico": 8705,
      "Ġarreg": 8706,
      "Ġcuyas": 8707,
      "udal": 8708,
      "Ġpropici": 8709,
      "Ġvisita": 8710,
      "ĠtecnolÃ³gica": 8711,
      "ĠMETOD": 8712,
      "HE": 8713,
      "Ġelegir": 8714,
      "Ġpatrimon": 8715,
      "Man": 8716,
      "Ġsit": 8717,
      "ÃŃmenes": 8718,
      "Ġsho": 8719,
      "ÃŃl": 8720,
      "Ġ1976": 8721,
      "Ġreemp": 8722,
      "Ġreferido": 8723,
      "ĠJunio": 8724,
      "ences": 8725,
      "pecu": 8726,
      "Ġiniciar": 8727,
      "quie": 8728,
      "omento": 8729,
      "istÃ³": 8730,
      "Ġcreado": 8731,
      "Ġeliminar": 8732,
      "ĠBro": 8733,
      "Ġllu": 8734,
      "Ġdudas": 8735,
      "oper": 8736,
      "ĠLog": 8737,
      "ĠUNA": 8738,
      "Le": 8739,
      "ĠCaribe": 8740,
      "Ġsiente": 8741,
      "Ġcontro": 8742,
      "ĠEntrevista": 8743,
      "Ġconsiderada": 8744,
      "Ġsalvo": 8745,
      "Ġarchivo": 8746,
      "Ġcentra": 8747,
      "Ġ08": 8748,
      "ĠÃģngel": 8749,
      "ns": 8750,
      "Ġaprecia": 8751,
      "Ġobtuvieron": 8752,
      "Ġ127": 8753,
      "Ġinmigr": 8754,
      "Ġrelacionan": 8755,
      "ĠFlor": 8756,
      "public": 8757,
      "Ġfortalecimiento": 8758,
      "idge": 8759,
      "ĠGuayaquil": 8760,
      "Ġincertid": 8761,
      "ĠEqui": 8762,
      "ĠcomisiÃ³n": 8763,
      "Ġtrim": 8764,
      "Ġhabitual": 8765,
      "ĠEle": 8766,
      "ĠSalvador": 8767,
      "Ġreferentes": 8768,
      "Ġventaja": 8769,
      "ĠSanto": 8770,
      "Ġadoptar": 8771,
      "minaciÃ³n": 8772,
      "uss": 8773,
      "yc": 8774,
      "irman": 8775,
      "Ġfuturas": 8776,
      "102": 8777,
      "ĠProces": 8778,
      "rop": 8779,
      "Ġlimita": 8780,
      "Fac": 8781,
      "Ġquedar": 8782,
      "cionalidad": 8783,
      "Ġestructurales": 8784,
      "Ġ160": 8785,
      "UA": 8786,
      "ĠHealth": 8787,
      "ĠDiego": 8788,
      "ĠAlonso": 8789,
      "ĠmenciÃ³n": 8790,
      "signi": 8791,
      "ĠValores": 8792,
      "Ġcolumna": 8793,
      "ĠBos": 8794,
      "Ġsuscep": 8795,
      "Ġcarre": 8796,
      "igh": 8797,
      "trada": 8798,
      "ĠVariables": 8799,
      "vida": 8800,
      "ĠnegociaciÃ³n": 8801,
      "POS": 8802,
      "ĠDip": 8803,
      "Ġcontribu": 8804,
      "Ġapren": 8805,
      "Ġincrementar": 8806,
      "Ġcargas": 8807,
      "bano": 8808,
      "Ġesca": 8809,
      "sol": 8810,
      "ĠvÃŃnculos": 8811,
      "CUS": 8812,
      "Ġinfin": 8813,
      "Ġidioma": 8814,
      "scielo": 8815,
      "ĠfuÃ©": 8816,
      "ĠjustificaciÃ³n": 8817,
      "ĠIndicadores": 8818,
      "ĠAlberto": 8819,
      "ĠSte": 8820,
      "Ġesencia": 8821,
      "ĠsueÃ±o": 8822,
      "Ġconces": 8823,
      "andar": 8824,
      "Ã¡rez": 8825,
      "Ġantic": 8826,
      "Ġgraves": 8827,
      "Ġcomparar": 8828,
      "Ġbru": 8829,
      "Ã³rica": 8830,
      "Ġemo": 8831,
      "Ġarmado": 8832,
      "Ġaudiovis": 8833,
      "cientes": 8834,
      "Ġbon": 8835,
      "Ġameric": 8836,
      "orama": 8837,
      "112": 8838,
      "fonso": 8839,
      "ĠocasiÃ³n": 8840,
      "Ġenorm": 8841,
      "Ġoptar": 8842,
      "ORA": 8843,
      "Ġhu": 8844,
      "ĠBoletÃŃn": 8845,
      "Ġsexuales": 8846,
      "dicionalmente": 8847,
      "Ġmenudo": 8848,
      "Ġinicia": 8849,
      "Ġplantear": 8850,
      "uestro": 8851,
      "ĠNos": 8852,
      "ĠPrimaria": 8853,
      "ĠSeÃ±or": 8854,
      "ĠgarantÃŃas": 8855,
      "tecas": 8856,
      "CIONES": 8857,
      "ĠfabricaciÃ³n": 8858,
      "ximos": 8859,
      "ĠdiseÃ±ar": 8860,
      "ĠFundam": 8861,
      "Ġconocida": 8862,
      "Ġsupuestos": 8863,
      "Ġanexo": 8864,
      "Ġritmo": 8865,
      "Ġdirectivos": 8866,
      "Ġpares": 8867,
      "ensional": 8868,
      "ĠdiÃ¡metro": 8869,
      "ĠPosteriormente": 8870,
      "ick": 8871,
      "Ġmone": 8872,
      "Ġfundamentalmente": 8873,
      "Ġexigencias": 8874,
      "ĠANÃģLISIS": 8875,
      "Ġrelativo": 8876,
      "ĠRA": 8877,
      "ĠParÃŃs": 8878,
      "Ġelectro": 8879,
      "Gu": 8880,
      "Ġimpactos": 8881,
      "Ġcolectivos": 8882,
      "600": 8883,
      "Ġcastel": 8884,
      "Ġretir": 8885,
      "Ġexpon": 8886,
      "Ġrelativamente": 8887,
      "jado": 8888,
      "Ġmorf": 8889,
      "uto": 8890,
      "erra": 8891,
      "ĠlÃŃder": 8892,
      "ĠautorizaciÃ³n": 8893,
      "Ġ131": 8894,
      "tuto": 8895,
      "Ġhar": 8896,
      "Ġparadigma": 8897,
      "Ġjudiciales": 8898,
      "ĠBiblioteca": 8899,
      "ĠRomero": 8900,
      "Ġquir": 8901,
      "ĠreciÃ©n": 8902,
      "riel": 8903,
      "Ġaceptar": 8904,
      "ĠRafael": 8905,
      "istem": 8906,
      "oca": 8907,
      "Entre": 8908,
      "ĠEduardo": 8909,
      "Ġapenas": 8910,
      "Ġaportar": 8911,
      "ĠPOS": 8912,
      "phy": 8913,
      "Ġdoctor": 8914,
      "ĠESPA": 8915,
      "Ġimpe": 8916,
      "Ġvemos": 8917,
      "Ġverse": 8918,
      "Ġpuedo": 8919,
      "Ġexpone": 8920,
      "ĠcuÃ¡n": 8921,
      "asiÃ³n": 8922,
      "ĠDirector": 8923,
      "demo": 8924,
      "Ġcualitativo": 8925,
      "ĠRosa": 8926,
      "Ġ129": 8927,
      "vela": 8928,
      "Ġcierre": 8929,
      "Ġverdadera": 8930,
      "Ġtitular": 8931,
      "Ġsel": 8932,
      "ĠharÃ¡": 8933,
      "Ġperder": 8934,
      "Ġcorrectamente": 8935,
      "ĠDebido": 8936,
      "Ġjustific": 8937,
      "itivo": 8938,
      "elli": 8939,
      "terrÃ¡n": 8940,
      "Ġrecordar": 8941,
      "iam": 8942,
      "ĠestadÃŃsticamente": 8943,
      "CP": 8944,
      "Ġamenaza": 8945,
      "ĠProtecciÃ³n": 8946,
      "Ġcargos": 8947,
      "Ã³nimo": 8948,
      "tilidad": 8949,
      "ĠLegis": 8950,
      "Ġreduce": 8951,
      "Ġlarga": 8952,
      "Ġsen": 8953,
      "Ġmodel": 8954,
      "Ġjueces": 8955,
      "Ġremun": 8956,
      "Ġcubrir": 8957,
      "Ġcuad": 8958,
      "Ġcalcular": 8959,
      "Ġdirigida": 8960,
      "ĠOtra": 8961,
      "Ġenem": 8962,
      "Ġvulnerabilidad": 8963,
      "ĠProducciÃ³n": 8964,
      "ĠmatemÃ¡tica": 8965,
      "ĠPRES": 8966,
      "Ġdela": 8967,
      "Ġtel": 8968,
      "ĠtrÃ¡fico": 8969,
      "prop": 8970,
      "eu": 8971,
      "ĠCastillo": 8972,
      "Ġambientes": 8973,
      "Ġentra": 8974,
      "brica": 8975,
      "ĠtecnolÃ³gico": 8976,
      "ÃĵR": 8977,
      "ĠÃļ": 8978,
      "ĠRad": 8979,
      "Ġrup": 8980,
      "VISTA": 8981,
      "Ġvertical": 8982,
      "Ġiniciativas": 8983,
      "Ġfacilidad": 8984,
      "Ġprocur": 8985,
      "Ġculturas": 8986,
      "ĠLan": 8987,
      "Ġdestacan": 8988,
      "Ġ128": 8989,
      "Ġdieron": 8990,
      "ĠsimultÃ¡n": 8991,
      "ĠWal": 8992,
      "Ġmapa": 8993,
      "Pres": 8994,
      "FA": 8995,
      "bitstream": 8996,
      "Ġoperacional": 8997,
      "Ġedificios": 8998,
      "Ġprovis": 8999,
      "yos": 9000,
      "tenidos": 9001,
      "uÃ±a": 9002,
      "ĠWil": 9003,
      "obili": 9004,
      "alizan": 9005,
      "Ġdeporte": 9006,
      "Ġmedicamentos": 9007,
      "ĠtÃº": 9008,
      "ĠestableciÃ³": 9009,
      "omend": 9010,
      "ĠPromo": 9011,
      "ĠFÃŃsica": 9012,
      "ĠPearson": 9013,
      "ĠestÃ©tica": 9014,
      "ĠJavier": 9015,
      "comp": 9016,
      "venta": 9017,
      "ĠRelaciones": 9018,
      "Ġmedias": 9019,
      "Ġentornos": 9020,
      "neg": 9021,
      "Ġ124": 9022,
      "................................................................................": 9023,
      "Ġescritos": 9024,
      "ĠagrÃŃcola": 9025,
      "ĠElaborado": 9026,
      "tones": 9027,
      "ĠAcuerdo": 9028,
      "ĠCoeficiente": 9029,
      "ĠActividad": 9030,
      "Ġestablecimientos": 9031,
      "ĠsimulaciÃ³n": 9032,
      "ĠEspecial": 9033,
      "ĠjurÃŃdicos": 9034,
      "Ġago": 9035,
      "ĠSar": 9036,
      "ĠSistemas": 9037,
      "Ġmensajes": 9038,
      "ING": 9039,
      "ĠSPSS": 9040,
      "Ġasume": 9041,
      "Ġ1000": 9042,
      "Ġdistinta": 9043,
      "contra": 9044,
      "here": 9045,
      "ĠvinculaciÃ³n": 9046,
      "tudies": 9047,
      "ÃŃticos": 9048,
      "Ġ1975": 9049,
      "Ġmagnitud": 9050,
      "ĠcrÃŃticas": 9051,
      "HO": 9052,
      "idaridad": 9053,
      "Ġset": 9054,
      "ĠÃ±": 9055,
      "ĠdistinciÃ³n": 9056,
      "ĠVolumen": 9057,
      "Ġdejando": 9058,
      "trado": 9059,
      "ĠsistemÃ¡tica": 9060,
      "Ġdemasiado": 9061,
      "Ġneuro": 9062,
      "ĠRojas": 9063,
      "Ġsuerte": 9064,
      "Ġentrevistados": 9065,
      "tropolitana": 9066,
      "Ġdegrad": 9067,
      "ĠOfici": 9068,
      "anca": 9069,
      "Ġprimor": 9070,
      "omedio": 9071,
      "Ġdeterioro": 9072,
      "Ġkm": 9073,
      "250": 9074,
      "ĠSantos": 9075,
      "ĠJuz": 9076,
      "CIA": 9077,
      "Ġcorrientes": 9078,
      "Ġ133": 9079,
      "social": 9080,
      "Ġvirus": 9081,
      "icaciones": 9082,
      "Ġconcreta": 9083,
      "ĠIndustrial": 9084,
      "Ġdicen": 9085,
      "cindi": 9086,
      "Ġflor": 9087,
      "Ġpese": 9088,
      "ĠJurÃŃ": 9089,
      "Ġmacro": 9090,
      "Ġsuficientes": 9091,
      "Ġ1977": 9092,
      "Ġdiaria": 9093,
      "Bo": 9094,
      "quÃ©": 9095,
      "ominal": 9096,
      "usiones": 9097,
      "ATOS": 9098,
      "ĠWe": 9099,
[...]
